#version: 0.2
h e
Ġ t
Ġ a
Ġ s
Ġ w
n d
Ġt he
e d
Ġa nd
Ġt o
Ġ b
i n
Ġ h
Ġw a
r e
o u
Ġ f
i t
Ġ l
Ġ c
Ġ d
e r
Ġ he
Ġ m
Ġ p
Ġwa s
Ġ T
o m
Ġ o
a y
a r
i s
in g
i l
Ġ g
i d
a t
e n
Ġ n
Ġs a
Ġh a
ĠT he
Ġ S
a n
i m
o r
o n
Ġ it
Ġt h
l l
l e
Ġ H
o t
Ġhe r
e t
i r
ĠS he
e s
ĠH e
Ġ in
v er
ĠThe y
u t
o w
c k
Ġ e
Ġ u
Ġ y
l d
o o
il y
Ġsa id
i g
Ġ r
Ġb e
Ġ "
a m
Ġ I
Ġs t
k e
c e
v e
it h
p p
Ġs he
L ily
Ġw ith
O n
Ġo n
Ġy ou
k ed
Ġo f
r i
Ġp l
n t
Ġh is
a d
Ġs o
ver y
Ġd ay
Ġth at
Ġu p
Ġ Lily
Ġpl ay
Ġha d
Ġthe y
s t
Ġw e
Ġm om
Ġ B
Ġf or
e l
u n
ou ld
' s
m y
Ġl i
T he
c h
Ġha pp
Ġwa nt
en t
Ġs h
it t
he r
ou t
Ġn ot
Ġd o
om e
s e
Ġ very
l y
e nd
a ll
ou nd
Ġw h
Ġ k
im e
itt le
Ġt ime
a l
Ġl ittle
Ġn e
Ġ M
Ġthe re
h t
Ġ is
Ġhapp y
Ġb ig
ĠI t
Ġ re
Ġs m
Ġb ut
Ġsa w
Ġa n
r a
r y
ri end
. "
Ġ Ċ
Ġf riend
Ġa s
a ck
On e
id e
a ke
u g
' t
! "
Ġl oo
Ġwe re
t er
v ed
Ġl o
o re
On ce
Ġs e
Ġto o
Ġh im
Ġb o
Ġg o
Ġa re
e c
ĠT im
Ġ j
Ġwant ed
ar d
il l
ir l
Ġthe m
Ġup on
Ġg irl
Ġthe ir
Ġ out
Ġa t
i nd
u r
Ġd id
w ay
f u
Ġs p
Ġ A
Ġc ould
Ġsm il
he n
Ġha ve
a in
he d
ar t
ĠB en
r om
Ġe x
Ġc an
Ġw ent
i c
Ġa r
l p
oo d
fu l
Ġfriend s
? "
h ing
Ġn am
Ġk n
Ġ J
ig ht
Ġhe lp
Ġs ay
Ġa ll
on e
u m
ar k
Ġb ack
Y ou
Ġf un
ĠT om
Ġc l
a re
Ġn o
Ġl e
o p
Ġs c
Ġnam ed
Ġa l
el t
ou g
Ġm an
Ġlo ved
s ide
Ġsmil ed
Ġ One
Ġto y
Ġli ke
i ck
Ġf elt
Ġas ked
Ġf e
Ġs ome
Ġse e
Ġloo ked
Ġm e
am e
Ġar ound
Ġr o
ĠTim my
om et
Ġ W
u re
Ġb r
Ġb ir
g et
i ce
Ġbo y
Ġw ould
on g
Ġst art
a s
Ġbir d
Ġs omet
ing s
Ġf a
ad e
Ġm ake
Ġa g
Ġwh at
Ġw or
d d
Ġ You
, "
Ġsay s
ĠB ut
k ing
Ġr an
Ġa way
ow n
get her
Ġt re
Ã ¢
â Ĥ
âĤ ¬
a g
ar ed
i e
ou d
Ġm ade
Ġstart ed
i f
Ġc ar
Ġto gether
Ġsomet hing
Ġc o
t her
Ġp ark
Ġsa d
Ġo ther
it ed
Ġp ut
Ġne w
Ġf rom
e ll
Ġh ug
Ġp r
b le
Ġag ain
oo k
Ġex c
a ch
Ġ L
Ġg ood
Ġh ome
Ġl a
Ġm u
s s
Ġw hen
Ġf l
ri ed
e p
Ġwh o
es t
Ġthe n
Ġf ound
Ġc h
Ġd ec
pp ed
h at
Ġg et
Ġwa l
Ġplay ing
q u
Ġs w
oug ht
n n
Ġli ked
u ck
Ġth ings
Ġ E
all y
p l
ou s
Ġg ot
Ġb l
Ġexc ited
r o
id ed
a ve
Ġc ame
ar a
Ġe very
Ġdec ided
Ġyou r
Ġdo g
ĠM om
a x
Ġsc ared
Ġ D
Ġon e
Ġd own
u st
Ġ v
Ġf ind
Ġc are
The y
nn a
ou se
a p
Ġbe c
is t
Ġth an
n y
Ġfe el
u e
Ġd ad
Ġa b
Ġw ill
Ġm y
ar n
Ġloo k
u dd
ou r
Ġg r
er s
Ġ ke
Ġg ra
u s
Ġdid n
way s
es s
Ġp o
Ġtoy s
Ġtoo k
f e
nd er
Ġab out
Ġb all
Ġal ways
Ġl ot
Ġmom my
ĠS am
an t
Ġkn e
b b
Ġtre e
is e
Ġ F
Ġout side
Ġth ought
it e
Ġm ore
Ġt a
en ed
Ġle arn
re t
Ġh o
c hed
Ġkn ow
ec i
Ġin t
g ed
Ġs or
Ġc at
Ġla ug
Ġt ake
Ġo ld
i ve
i a
ĠM ax
Ġsp eci
Ġspeci al
Ġkne w
Ġan y
Ġp e
udd en
f ter
Ġh ow
Ġsor ry
Ġt r
m a
in k
B ut
Ġsh ow
is h
udden ly
Ġr un
a u
Ġs l
Ġmu ch
Ġt w
Ġha nd
a nd
Ġo r
Ġh ouse
Ġo p
Ġm o
Ġwa ter
Ġs k
v en
Ġt ried
Ġint o
Ġs un
an k
Ġin side
T om
Ġcl o
at e
Ġto ld
Ġg ave
um p
ĠS ara
t y
Ġpr oud
Ġe ach
Ġ qu
Ġ en
ĠW e
Ġ if
Ġo ver
Ġro om
Ġcould n
Ġhe ard
a ce
Ġne ver
Ġe at
Ġth is
ĠA nna
Ġp ret
ot her
d y
ĠE very
au se
b y
a k
Ġplay ed
Ġp ick
i on
M om
et ter
Ġhug ged
Ġex pl
he re
g e
Ġc om
Ġg re
Ġj ust
Ġn ice
Ġbo x
Ġman y
Ġne ed
Ġwa t
ot h
Ġst r
s ed
Ġbec ause
Ġof f
il e
' m
g ry
Ġsm all
i z
Ġb u
v ing
Ġl ong
Ġj o
Ġs n
in e
Ġf o
im al
Ġan imal
Ġbe ar
Ġt ry
oug h
u c
or t
ur t
Ġlearn ed
Ġu nt
s el
il d
Ġlo ve
Ġunt il
ĠM ia
Ġk ind
f t
Ġb etter
Ġfl ow
ĠJ ack
H e
ĠA nd
Ġt e
Ġe nd
Ġ im
ur n
Ġd on
v es
Ġc le
Ġp u
Ġc all
Ġb est
ad y
ar s
re am
a ut
Ġa d
Y es
v ent
Ġfa st
Ġcare ful
ur p
ard en
Ġg arden
Ġ C
ĠJ o
Ġbe aut
Ġf i
T h
b er
Ġsk y
Ġthan ked
Ġb ra
Ġj ump
Ġe ven
i es
Ġl oud
a se
p t
Ġb y
ĠS o
Ġlaug hed
e m
ĠH er
Ġc he
in y
w n
sel f
Ġg l
ll y
Ġl ist
I t
Ġc ome
Ġbeaut i
Ġh ard
Ġst ill
Ġh urt
le w
Ġbeauti ful
Ġanimal s
Ġlot s
Ġf am
Ġwa y
Ġw o
Å ĵ
Ġr a
Ġu nder
ĠThe n
he s
Ġl et
Ġst ay
b e
ĠF rom
ec t
Ġb ad
n ing
c t
Ġsa fe
Ġco l
oo l
Ġc u
a st
Ġb oth
ĠH is
op le
o ck
k ay
Ġre m
Ġb ook
T im
Ġan gry
Ġli ved
is hed
Ġit s
Ġim p
re e
re ss
Ġtw o
Ġ Ã¢
Ġpe ople
an e
Ġbra ve
Ġfam ily
Ġsh ould
N o
Ġr ed
urp r
ig h
Ġwal ked
Ġs urpr
Ġf lew
Ġf in
Ġst or
Ġsh are
Ġd an
Ġso on
uc y
W hen
Ġf ly
o b
x t
Ġp ic
Ġdo ll
f ore
l ed
Ġke pt
Ġcall ed
i p
Ġf ore
B en
L et
Ġro ck
Ġcle an
Ġpret ty
is ed
Ġdo or
dd ed
Ġsh iny
Ġ P
ĠW hen
Ġgo ing
Ġke ep
Ġd ra
h n
Ġno ise
Ġn ow
Ġre al
Ġw ind
Ġop ened
Ġad vent
Ġt urn
um my
Ġ ide
ar y
s o
Ġc ry
Ġbe fore
Ġc on
ag e
Ġgr ound
Ġal so
Ġst o
le s
âĤ¬ â
il ly
o on
Ġe y
Ġcol or
Ġexpl ore
i ed
Ġf ar
Ġha s
Ġide a
Ġf r
W hat
k es
im b
Ġwa r
t h
t ure
Ġu n
t hing
Ġne xt
Ġpick ed
Ġcl imb
u ch
Ġno dded
T hat
o y
ay be
Ġsmil e
Ġth r
Ġfeel ing
Ġtr uck
Ġwh ile
Ġb ed
ĠD ad
Ġwal king
Ħ ¢
âĤ¬â Ħ¢
e et
Ġw r
Ġadvent ure
Th ank
g er
ĠL ucy
Ġpic ture
a c
Ġ G
Ġbe ing
Ġth ink
Ġg ive
Ġf ood
Ġm a
f f
ic ed
Ġt ra
Ġd if
Ġb re
p ot
j oy
Ġbr o
Ġto w
t ed
i ous
Ġlist en
Ġclo s
Ġey es
Ġwa it
ug ht
Ġo wn
Ġf ish
Ġsto pped
Ġa fter
Ġloo king
t ing
Ġflow ers
em ber
Ġd el
Ġwal k
Ġhand s
Ġbl ue
iz ed
S he
Ġsl ide
Ġsh out
Ġre pl
Ġgre at
Ġe ver
Ġme an
Ġen joy
Ġv o
Ġhe ad
ir st
il a
Ġr ain
ĠS uddenly
S uddenly
Ġne ar
Ġnot iced
Ġd is
Ġfore st
Ġu s
Ġas k
Ġimp ort
Ġqu ick
Ġrem ember
bb it
Ġs ound
Ġa pp
ll ow
Ġo kay
Ġd e
ma z
Ġwor k
Ġshow ed
Ġwo nder
Ġa maz
Ġt al
le ase
Ġst ick
Ġwat ch
Ġimport ant
bb ed
W e
by e
Ġstr ong
g an
Ġa c
A nna
Ġevery one
Ġbr ight
d ay
fe re
Ġra bbit
Ġdif fere
Ġbo at
Ġ our
Ġrepl ied
Ġs qu
Ġw here
Ġr ight
Ġfo llow
ĠS pot
Ġu se
Ġdo es
c o
Ġwat ched
a ble
Ġh op
Ġy ell
Ġfa ce
at h
Ġm or
Ġquick ly
ĠS ue
L ook
er ed
Ġst ore
Ġ N
Ġd ress
Ġs ure
Ġbe en
Ġbec ame
an ge
Ġpl ace
S ara
n g
Ġdiffere nt
Ġch ild
ĠMom my
Ġcu ri
a ught
Ġwar m
Ġy e
Ġgood bye
Ġa m
S o
Ġm ag
ĠB ob
Ġh igh
Ġvo ice
Ġ R
Ġfor g
Ġbl ock
Ġt ell
Ġc ake
m ore
Ġany more
le ep
nd ma
Ġclos er
Ġc ook
Ġcuri ous
it c
Ġfa v
Ġbe l
ou nt
Ġn ight
Ġpu ll
Ġop en
ir ed
im es
ĠT h
Ġle a
a ched
Ġp ain
is s
Ġf irst
Ġ z
H er
Ġbut ter
Ġhe re
Ġfe ll
Ġb us
Ġk id
u ll
Ġgra bbed
Ġr u
Ġse es
J o
C an
un ny
Ġsw eet
or n
Ġon ly
Ġfl o
itc hen
Ġk itchen
Ġth ree
Ġsa nd
Ġhelp ed
Ġbird s
Ġst op
Ġd r
Ġcon t
Ġc ra
Ġb it
Ġb a
Ġhapp ened
Ġjump ed
Ġgl ad
Ġfi re
Ġm on
pp y
Ġs ing
Ġbe h
Ġgra ss
Ġt ri
Ġp er
Ġc r
Ġbr other
Ġreal ized
ĠD o
A fter
is y
Ġstor y
Ġshout ed
a ir
Ġre ached
Ġm ess
Ġso ft
ak es
as s
ĠL et
Ġy ummy
Ġl ady
Ġg ame
in s
Ġha ving
nt s
Ġdra w
Ġat e
Ġh at
Ġpr in
ĠSara h
Ġpret end
z y
ĠEvery one
Ġp ap
Ġthr ough
Ġfav or
Ġunder st
ĠJ ane
' re
w here
Ġc re
Ġl ess
Ġre st
Ġfavor ite
Ġre ady
at er
ĠA s
Ġth ing
Ġlook s
k en
Ġma king
at her
ĠC an
Ġkid s
Ġmag ic
Ġre ally
Ġd uck
Ġp are
Ġt ired
Ġpo nd
Ġfi x
Ġcar s
Ġc ut
Ġwor ld
W ow
Ġd one
ĠT hat
Ġbe gan
Ġm um
Ġb unny
Mom my
Ġwa ved
b o
Ġhim self
Ġcat ch
Ġbutter f
Ġcom ing
Ġto uch
Ġfun ny
Ġc ried
Ġu sed
fu lly
Ġwor ry
Ġp art
Ġwh y
Ġp rom
u ff
Ġnam e
ig n
Ġblock s
Ġan other
Ġf ill
ĠJo e
Ġst e
Ġflow er
Ġp us
Ġho ld
Ġf ro
Ġha ir
Ġta st
Ġto p
Ġse en
Ġc ool
st er
one y
Ġsw im
re l
Ġw ished
s h
ed dy
i ver
Ġthan k
Ġm ouse
Ġflo or
Ġl ight
Ġgre en
Ġb ag
i ent
Ġdel ic
Ġli kes
Ġg i
Ġpap er
Ġsm ell
Ġfar m
h y
Tim my
Ġpare nts
A s
Ġbeh ind
at ion
o lly
Ġless on
Ġd ri
D on
Ġsurpr ise
Ġdo ing
Ġho pped
Ġd ro
Ġb ow
Ġwor ked
Ġs leep
Ġho le
ard s
ĠJo hn
S am
Ġwind ow
and y
Ġyell ow
Ġre ad
Ġtre es
Ġd ark
Ġd in
Ġf ull
Ġsh o
Ġlaug h
Ġrun ning
a isy
u ed
i ke
el y
Ġco ld
re n
Ġsw ing
re w
Ġs at
Ġsp ot
Ġw ood
u l
" .
Ġsurpr ised
Ġsl ow
Ġremember ed
ar ing
Ġbutterf ly
Ġhapp ily
Ġs et
Ġlo st
Ġ -
Ġneed ed
on s
Ġye ars
Ġ ice
ĠI n
Ġhe ld
Ġbu y
H ell
Hell o
Ġmo ve
Ġfro g
Ġany thing
Ġwr ong
Ġcare fully
u it
Ġsn ow
Jo hn
Ġhe ar
Ġle ft
Ġt all
Ġh un
en s
Ġper f
Ġd ir
Ġd ream
Ġfa ir
Ġfollow ed
Ġa ir
Ġenjoy ed
ĠL ila
Ġe l
Ġfin ished
Ġc ast
Ġchild ren
c ess
Ġb ug
Ġbook s
Ġh ot
Ġta ble
in ally
in ed
Ġher self
Ġh ill
Ġh id
re ed
ĠA fter
Ġar ri
Ġfriend ly
Ġunderst and
d s
Ġar m
Ġcont in
Ġclo se
Ġp lease
Ġforg ot
ro ss
Ġm ight
Ġcolor s
Ġel se
ĠBen ny
Ġdelic ious
Ġbro ken
Ġbu ild
Ġwant s
as ure
Ġre l
l f
as h
Ġg one
s p
Ġg ent
ie ld
O K
Ġba by
ro om
at ter
Ġarri ved
Ġcre at
Ġt ight
Ġa ble
ĠN ow
Ġlea ves
Ġs ong
Ġwonder ful
Ġsome one
The n
Ġy es
Ġwa ll
Ġsqu ir
n er
ĠS ally
Ġfill ed
a v
Ġcontin ued
i ch
ĠThe re
as k
Ġli on
Ġc ount
Ġbre ak
Ġsquir rel
Ġag reed
Ġj u
Ġp ink
ĠM aybe
Ġsc ary
Ġpo in
Ġf all
Ġen ough
F rom
ĠD aisy
e y
Ġcast le
ic y
ri es
e e
m an
Ġgra ndma
ĠE m
Ġv is
Ġstay ed
Ġhun gry
Ġm akes
J ack
Ġmom ent
Ġmor ning
Ġsmil es
' ll
Ġfin ally
Ġw et
Ġf ight
Ġcom p
Ġcook ies
Ġget ting
ou p
Ġturn ed
Ġsomet imes
g on
a pp
r ow
Ġpicture s
Ġp i
Ġtal k
Ġbe ach
r ot
Ġc ream
am a
ĠTom my
Ġclimb ed
ĠTh is
Ġother s
Ġtry ing
Ġcl ot
Ġball oon
Ġ K
Ġlist ened
o om
Ġdin ner
Ġamaz ing
Ġta il
Ġclot hes
c ed
Ġmu s
ĠW hat
Ġfe w
an ce
a pped
Ġm ar
Th is
Ġm et
Ġpu ppy
l c
A t
Ġm other
en ce
Ġdad dy
Ġperf ect
or ing
am p
Ġask s
Ġsp l
ĠB illy
ĠG ra
Ġwh ite
ĠJ en
ke y
r ed
Ġf ur
Ġal one
ct or
uff y
Ġp et
H is
Ġsa il
Ġwas n
uck y
Ġs it
Ġbr ought
Ġevery thing
Ġse ar
is ter
Ġpo l
d er
Ġjo y
O h
Ġgr ow
ot t
Ġro ll
Ġstr ange
Ġpull ed
at ed
Ġwa ited
Ġp ie
w l
Ġsp ark
Ġde ep
Ġr ide
ĠT o
Ġdan ger
Ġwood s
Ġpl an
Ġw on
Ġrun s
Ġle ave
Ġmus ic
m e
Ġthink s
Ġamaz ed
Ġvis it
z z
ow er
Ġh ide
an g
Ġt eddy
Ġcl oud
et er
M aybe
Ġfo x
Ġp at
o s
e ver
Ġp en
Ġs illy
ug g
Ġli ving
Ġfly ing
M ax
op e
Ġsh ap
Ġe m
Ġtow ards
g s
Ġtre at
Ġown er
m ed
am es
is es
Ġp a
th y
Ġp re
Ġg u
Ġs ide
O kay
Ġla nd
Ġgr ate
Ġf ield
Ġl ake
Ġsh ared
ain ed
Ġqu i
Ġm oney
Ġpain t
ck et
ig g
Ġfast er
Ġpart y
Ġprom ised
Ġgrate ful
ĠA my
Ġs ister
Ġbel ie
Ġdan ce
Ġb ott
av y
Ġr ace
Ġmor al
i x
ec es
Ġcu p
c le
Ġtre asure
Ġbro ke
u p
Ġpi eces
Ġc andy
Ġjo b
Ġqui et
Ġwor ried
un ch
Ġbl ank
Ġcolor ful
s w
Ġtra in
z e
Ġbig ger
Ġbr an
Ġan sw
Ġslow ly
or m
Ġwe ar
out h
Ġg if
Ġdoll s
Ġwe lc
u ally
Ġblank et
Ġre ach
Ġm outh
l ing
Ġmu st
Ġ ve
Ġsn ack
o l
Ġs uch
Ġch o
f ort
Ġb ike
Ġevery where
Ġe le
Ġsm art
Ġsc ream
as ed
Ġpr o
Ġbl ack
le ss
p h
Ġr iver
ĠA ll
i re
Ġn ap
Ġpl ant
Ġb ar
Ġjo in
ĠJ im
Ġmagic al
S ure
Ġj e
Ġp ot
Ġs ign
Ġprin cess
Ġdanger ous
Ġhelp ing
Ġw in
ck ed
Ġth rew
s et
Ġdir ty
m ing
Ġcar rot
Ġtw ins
Ġbow l
Ġdra gon
Ġcry ing
Ġtow er
i pped
Ġb ite
Ġhop ed
Ġdo ctor
or ed
Ġmo st
Ġte ac
ĠF l
Ġsp r
id ent
Ġsa me
Ġfarm er
Ġhe avy
Ġbe e
Ġwor ds
Ġmon ster
Ġac c
Ġmon key
b ble
e ar
e re
d e
Ġhe al
Ġac ross
Ġco ll
Ġb ath
W hy
Ġdis app
H i
Ġb uck
Ġh ig
Ġfr uit
Ġste pped
ĠDad dy
Ġst re
Ġclo sed
Ġst uck
e ared
M ia
ĠJ ill
Ġhe art
Ġto wn
Ġfeel s
ch ool
Ġbelie ve
Ġwould n
ĠM r
ask et
Ġb asket
Ġm ix
Ġteac her
Ġcr ay
Ġc our
Ġbut t
Ġat t
Ġeat ing
Ġh it
Ġs chool
it ing
Ġch air
ĠM olly
Ġpus hed
Ġbr own
Ġy ard
Ġgent le
Ġp ack
Ġm in
Ġcour se
Ġne igh
Ġwith out
b r
Ġcl apped
is sed
or d
t s
um b
Ġhig her
Ġp ers
pp ing
Ġsm o
Ġse c
Ġneigh b
Ġsw ings
Ġacc ident
Ġfair y
L ila
i er
ve l
Ġto day
or row
Ġg ames
Ġwelc ome
Ġd ry
Ġst and
Ġno ises
or s
Ġdro ve
Ġpo cket
Ġthr ow
Ġs uddenly
vent ually
Ġfor get
Ġl on
Ġturn s
Ġhug s
Ġpie ce
Ġche ered
ra ct
Ġf ree
Ġb en
Ġlon ely
Ġf ence
Ġhapp en
Ġw ings
c y
h o
our n
Ġne ck
Ġj ourn
Ġlong er
Ġsa ng
i ble
Ġexpl ained
e ad
Ġse a
Ġal ong
Ġs oup
Ġc orn
F inally
Ġstor ies
Ġl ate
Ġup set
Ġwe ll
itt ing
Ġsho es
Ġin st
Ġsec ret
Ġadventure s
Ġm iss
Ġm at
Ġst ars
Ġtr ou
Ġc aught
ph ant
Ġw he
c hes
Ġsing ing
Ġp h
Ġrock s
ou n
Ġbuck et
Ġl unch
ap e
c es
Ġsw am
Ġdro pped
Ġd ist
Ġw ish
Ġyou ng
Ġsh ook
ock ed
Ġdr ink
Ġele phant
Ġbr ing
Ġmo ved
y ard
m ent
Ġpl ac
Ġbel ong
Ġju ice
Ġn aught
ount ain
Ġst ar
Ġnaught y
Ġback yard
e k
ll o
ĠGra ndma
Ġm ine
fu sed
Ġj ar
Ġstre et
b ow
Ġto m
Ġp ast
Ġke y
ĠTh ank
Ġta kes
Ġta king
ĠM ary
Ġapp le
D o
Ġshap es
Ġp urp
Ġor ange
Ġexpl oring
w ard
Ġsh op
Ġo wl
Ġc ou
us h
u b
Ġnot hing
Ġex p
Ġnear by
Ġp ig
ĠEm ma
bb y
Ġw ise
Ġno se
Ġwonder ed
Ġre sp
Ġwo ke
ĠFl uffy
un g
Ġcom es
Ġ es
Ġsee med
Ġc ow
co l
Ġbus y
Ġa f
Ġd es
Ġsound s
Ġma il
Ġben ch
Ġt iny
Ġrel ie
Ġs ick
Ġin v
Ġst u
Ġpurp le
Ġm ark
c ing
Ġrain bow
aught er
Ġarm s
Ġc a
Ġth ough
ad ow
Ġn est
Ġm ad
ion s
f ish
o se
in ing
Ġm il
Ġye ar
s y
pp er
th day
es e
Ġ 3
Ġs itting
ck s
Ġo b
Ġdri ver
Ġhold ing
A nd
Ġr ound
Ġk ing
Ġcar ry
ra id
re ad
Ġaf raid
it y
Ġbran ch
itt ens
Ġfore ver
ĠIn side
Ġc ir
Ġwh ist
Ġhe llo
Ġgif t
Ġ O
Ġk ite
w eet
Ġsp oon
bo ard
Ġb oun
ver ed
Ġcut e
Ġd aughter
Ġpe ace
Ġshe ll
Ġli ft
id ge
t o
Ġf it
Ġco at
Ġswim ming
Ġhug e
u ched
Ġto uched
ĠC ome
Ġbre ad
Ġpat ient
O f
our s
le t
Ġl etter
Ġbir thday
Ġprom ise
Ġgra b
Ġrelie ved
ĠF inally
c er
st ing
Ġgi ves
Ġaccident ally
Ġw ra
et h
Ġput s
Ġb and
Ġhop e
Ġmil k
g g
Ġbott le
Ġcreat ure
He y
Ġf ing
sh ine
Ġday s
Ġche ese
Ġint ere
Ġli fe
Ġlaug hing
Ġg igg
Ġco zy
Ġcoll ect
al m
Ġl ucky
Ġon to
Ġexc iting
Ġk ick
ĠSam my
Ġre t
Ġm ist
Ġp ower
Ġsp in
Ġc ave
Ġcom fort
Ġdis co
Ġjourn ey
Ġa ct
Ġsun shine
o g
Ġsun ny
g ged
Ġf an
Ġe ar
Ġbus h
L ater
Ġinst ead
Ġret urn
p ed
t en
ar p
Ġp udd
Ġpoin ted
Ġin c
n ess
Ġsmil ing
Ġim ag
iz e
Ġe as
ĠM ama
Ġsear ched
el s
Ġh oney
it ch
Ġsh arp
Ġro ad
Ġany one
Ġh or
ĠSo on
Ġtal ked
Ġsp o
Ġb ought
om an
b all
Ġl ater
Ġs uc
Ġw oman
Ġsand w
Ġpl ane
Ġg ather
ble m
Tom my
Ġpro blem
Ġsnow man
Ġpers on
m er
Ġwatch ing
u nt
Ġcray ons
Ġsmell ed
Ġheal thy
Ġr ope
Ġtast y
ir t
Ġtrou ble
G ood
Ġme et
Ġc e
Ġs u
Ġduck s
r ound
Ġp op
Ġlo ves
Ġk iss
B ob
itt en
Ġp ile
e en
Ġcloud s
Ġ ent
Ġapp les
Ġsh ining
Ġp ar
o ve
Ġstor m
Ġsp id
Ġbutt on
Ġintere sting
Ġm ach
Ġz oom
am ed
Ġor gan
Ġc ard
Ġad m
Ġz oo
ĠT weet
Ġpre s
Ġw ide
Ġcle ver
Ġre s
on t
Ġfe ather
Ġm atter
ow ed
Ġp ill
a le
e b
ĠS omet
nd p
Ġb ark
Ġh on
Ġp ract
ĠW ith
Ġpr ot
a ur
ll a
Ġa p
Ġresp ect
Ġe ag
Ġfr ont
Ġscream ed
ep end
Ġgo es
a il
Ġmu d
Ġse at
Ġprot ect
Ġneighb or
Ġsa f
Ġsh r
Ġqu est
e x
Ġdan ced
Ġhor se
is a
Ġs ur
Ġtri p
Ġansw er
Ġpu zz
Ġas leep
L ucy
Ġv ill
Ġpres ent
Ġmy ster
Ġspot ted
Ġtri es
Ġapp eared
S t
Ġsn ake
er ly
C ome
Ġte ach
Ġwho le
Ġp ath
Ġgi ant
Ġw ild
Ġlove ly
Ġche er
ch ing
Ġph one
Ġsl id
Ġplac es
Ġwh ich
Åĵ I
Ġd i
Ġwe aring
Ġte eth
Ġdir t
Ġforg ive
Ġroll ed
oo se
Ġcon fused
iz z
ĠG o
ul ar
J ust
Ġtast ed
Ġmin ut
on es
Ġgent ly
Ġimp ress
Ġv al
Ġcou ch
Ġt un
Ġfa ces
Ġth in
E very
Ġru de
ĠM ittens
er t
ĠH ow
ss ed
Ġp ass
Ġc alm
Ġli ve
itt y
Ġm ind
ndp a
Ġsp ent
Ġspl as
ĠJim my
Ġpretend ed
J im
Ġm ed
Ġp an
ce an
Ġo cean
Ġas h
Ġfe et
I n
Ġsu pp
Ġsa l
Ġl ad
n ic
l a
Ġs er
Ġp our
Ġpic nic
Ġco in
Ġmach ine
Ġl ay
un k
M olly
Ġsa ck
Ġcorn er
Ġr ing
Ġwr ite
Ġdri ve
Ġwor m
Ġbug s
Ġspid er
Ġo ven
Ġwa ve
Ġcho col
Ġem b
M um
Ġpus h
Ġbuild ing
h ile
Ġsmo oth
Ġla st
Ġ ign
Ġtom orrow
Ġcook ie
Ġhelp ful
um ber
ar ge
Ġcan n
Ġc art
Ġhid ing
Ġre c
al s
Ġw ip
Ġfur ry
Ġlad der
Ġrem ind
Ġcann ot
Ġm ountain
le x
at or
Ġt id
Ġb lew
ĠEm ily
Ġbe ll
Ġb an
at o
Ġbu bble
Ġch ick
Ġpa w
Ġsp read
Ġtal king
if e
Ġfight ing
Ġfo ld
Ġfin ish
Ġtoo l
ĠSomet imes
Ġdel ight
Ġemb ar
Ġlea f
Ġembar ra
S oon
Ġs el
Ġw ore
Ġp ool
Ġro b
Ġfo ot
Ġpudd le
Ġsong s
Ġsh y
Ġkne e
ĠC h
ig hed
Ġspr ay
Ġe ventually
Ġre p
Ġneck l
Ġwait ing
Ġm aybe
Ġchocol ate
m o
Ġn et
Ġch ased
Ġb at
Ġwhen ever
Ġfix ed
op h
Ġst ret
ĠJ ust
ĠJen ny
Ġbar ked
Ġl arge
ul t
Ġsel fish
Ġstr ing
Ġc oo
Ġso l
ĠP lease
le br
ĠEvery where
Ġwas h
Ġpeace ful
Ġwhist le
Ġce lebr
ĠS t
Ġst ir
Ġcarrot s
Ġa nt
Ġc ross
ur se
Ġsp e
Ġcreat ive
Ġpl ate
Ġtast e
Ġh um
Ġban an
Ġg en
Ġrob ot
Ġtid y
ĠL e
M y
Ġmo on
Ġkn ocked
ig er
Ġtr ust
Ġcra b
or ry
Ġhe ars
Ġtell s
bo x
Ġcl oth
Ġvill age
Ġm issed
Ġst one
ung le
Ġst ra
Ġcol our
Ġembarra ssed
air s
Ġj ungle
Ġst ep
Ġrock et
Ġdec or
ĠThe ir
ĠJ ake
ĠS ome
P lease
Ġsp icy
Ġneckl ace
ell y
o ld
D ad
Ġtreat s
Ġshe lf
Ġsc ar
get able
Ġhe l
ump y
ar m
Ġsh irt
Ġve getable
Ġfor ward
Ġspl ash
d ge
Ġte a
ll ie
Ġstick s
Ġle gs
Ġem p
N ow
Ġemp ty
in ted
Ġsa ve
h nn
Ġjump ing
Ġn ut
Ġp le
ĠA l
Ġgr ay
Ġwh is
Ġsh aring
Ġ '
Ġgre w
Ġb er
Ġshe ep
a king
Ġtight ly
ĠA nn
Ġland ed
M ama
mo st
Ġgen er
Ġme ant
Ġd eter
Ġash amed
Ġb al
Ġno ds
Ġdisapp o
Ġpill ow
ĠL isa
Ġdeter m
Ġal most
ir d
ĠT V
y ing
Ġhon est
hnn y
Ġp izz
i an
Ġs our
Ġgo ld
ĠW hy
ĠD on
Ġje w
B e
d le
Ġbre ath
Ġcar ried
Ġme adow
Ġunderst ood
an o
Ġ On
Ġyell ed
Ġst ood
Ġthe se
Ġv an
er p
Ġpol ice
Ġd rew
d en
g round
Ġse ed
St op
Ġp ay
Ġk itten
Ġwhis p
Ġsnack s
Ġprin ce
T o
n ed
Ġsuc cess
Ġfe ar
Ġb ored
Ġspark ly
g ly
Ġa v
Ġle m
it al
au l
Ġg un
Ġu gly
on y
Ġg as
Ġsh ore
Ġv ase
Ġdisappo inted
Ġho sp
h in
Ġl ine
or k
ust r
k in
Ġh ours
ĠT eddy
Ġhosp ital
Ġgr oup
ĠR ex
Ġcl ass
Ġpizz a
itt er
v ous
Ġsee k
Ġplant s
if f
Ġbl ow
Ġknow ing
Ġhid den
Ġgener ous
Ġreturn ed
Ġc ries
oo p
Ġt ent
Ġ Z
Ġpuzz le
ĠE ven
Sara h
Ġp ri
Ġmess y
Ġeas y
Ġfe ed
Ġpo or
Ġgl ass
Ġfr ustr
Ġstand ing
Ġsleep y
Ġp in
Ġwa ves
Ġj elly
Ġt est
Ġs ighed
Ġfan cy
The re
Ġfl ag
Ġsandw ich
Ġb urn
ĠM um
ĠTo gether
S orry
Ġthank ful
W here
Ġbed room
Ġpower ful
Ġsh ip
Ġt ick
Ġta ught
bo dy
Ġscar f
Ġso ld
Ġk issed
Ġn er
Ġcir c
ĠB e
l ower
Ġcr own
Ġp ir
Ġtw irl
er a
Ġb oring
' d
Ġde er
Ġm ot
ot e
Ġner vous
Ġre g
Ġcat erp
Ġcaterp ill
m b
Ġmyster ious
Ġte ars
ar l
Ġfrustr ated
Ġpol ite
Ġspo il
A re
a f
w ork
as sed
Ġp assed
Ġsc r
Ġclos et
Ġof ten
oo f
Ġh ur
Ġyour self
Ġdr op
Ġminut es
Ġha ng
o bby
Ġdeterm ined
Ġf ig
Ġle g
p ack
Ġr ad
Ġcl own
Ġget s
Ġexc ite
ens ive
sel ves
iss ors
in a
Ġf il
Ġg ate
Ġc ap
Ġexp ensive
Ġbr idge
Ġche w
Ġdan cing
id dle
Ġche st
Ġgather ed
l ight
Ġsc issors
J ane
Ġpick s
Ġfl ut
Ġsa ved
et s
Ġfing er
us ie
ill ed
Ġwa gged
at es
Ġ OK
u al
Ġes c
iz zy
Ġcaterpill ar
Ġwo lf
ĠLe o
Ġbo ss
Ġwa nder
os aur
Ġgr umpy
Ġdr um
Ġcomfort able
Ġlo ck
Ġpack ed
Ġqu een
Ġansw ered
o nd
Ġho pping
Ġwor king
ot s
Ġsp end
Ġdog s
Ġmist ake
Ġexcite ment
Ġl it
The ir
Ġm ummy
Ġdin osaur
Ġst uff
Ġta ken
ĠP eter
Ġc and
ĠB l
Ġkn ight
Ġvegetable s
u ce
Ġmed ic
Ġwhe el
Ġwalk s
Ġdraw ing
Ġm iddle
Ġp ress
Ġb one
g gs
Ġe ggs
ĠB r
Ġtr ue
Ġla zy
qu e
Ġlo se
Ġgigg led
Ġcra wl
Ġon es
Ġru ined
Ġfruit s
Ġm ir
Ġw is
W ho
Ġd est
ug ar
Ġcl ap
Ġmedic ine
Ġa dd
Ġn umber
Ġbath room
Ġsmell y
in ess
Ġas king
eci ally
Ġex am
Ġf ake
Ġs ugar
Ġfeather s
Ġs ight
Ġst ones
Ġbr ush
Ġg ar
Ġli cked
Ġsweet ie
Ġt ape
p ecially
Ġes pecially
r or
as er
Ġte am
Ġwe ak
Ġch ange
us hed
Ġbo dy
Ġdist ance
Ġno d
Ġro ar
ell a
Ġdr ank
Ġple ased
el p
Ġle ad
M e
Ġmat ch
Ġb ake
Ġpr ay
Ġc ri
Ġc age
Ġsplas hed
Ġfl uffy
Ġball s
Ġm ic
ĠI f
Ġyour s
Ġ No
Ġmo v
at ing
Ġl ying
Ġcall ing
ag ed
Ġf is
Ġsail ed
Ġmo ving
ugg est
Ġlem on
Ġgl ow
Ġt ie
Ġs uggest
Ġdisapp eared
Ġbo ard
h ip
Ġse ll
Ġno isy
Ġgl ue
h a
ĠJo hnny
Ġwr ote
Ġso ap
Ġcle ar
et e
Ġrel ax
Ġr id
Ġo k
Ġwe ek
Ġe ld
H elp
Ġdec ide
Ġbec ome
Ġinc red
Ġmom s
Ġme asure
Ġju icy
Ġmir ror
Ġco vered
al ous
Ġplay ground
Jim my
Ġshow s
Ġje alous
y al
Ġh orn
Ġquest ions
Ġf ine
Ġr are
Ġcont ent
Ġboy s
in ation
Ġcra w
im p
Ġeag er
Ġcraw led
Ġtow el
ĠA t
Ġche ck
i pp
Ġsk ipped
Ġd ig
Ġf ather
Ġ ind
Ġclean ed
en ny
Ġex t
Ġor d
Ġfam ous
Ġey e
Ġtw ist
Ġneed s
S ally
Ġsho ot
ĠBl ue
Ġgar age
Ġjo ke
Ġincred ible
ĠE nd
Ġtruck s
ee z
Ġ ed
umb led
Ġsw ord
Ġt iger
Ġlo yal
J ill
ill i
Ġho se
Ġbubble s
or y
Ġm ap
Ġorgan ized
Ġun us
Ġhappen ing
t i
Ġreal ised
Ġbran ches
Ġl amp
Ġwor d
f ic
Ġb orrow
Ġt ag
Ġdisco vered
Ġmot or
Ġunus ual
Ġd ish
i pper
Ġhurt s
Ġwa nd
Ġext ra
c il
Ġs il
Ġfr own
Ġkn ife
Ġr ich
Ġpen cil
Ġeld erly
Ġth ick
Ġballoon s
l ies
Ġmo d
Ġwh ale
Ġco ver
Ġdif fic
Ġloud er
Ġfig ure
Ġon ce
Ġco st
p ort
as ing
i que
Ġf our
Ġgu ess
B illy
Ġbott om
ke ep
S pot
Ġdiffic ult
ĠK itty
Ġa w
Ġto ug
Ġlaugh s
Ġfl ash
Ġcolour ful
ĠS p
Ġun ique
Ġan g
Ġcomp et
Ġar g
Ġoff ered
G ra
Ġch ase
er y
Ġha m
Ġsh ake
Ġbox es
Ġbal ance
f ast
im ed
Ġa dded
ĠM ark
Ġsp un
ce pt
Ġt urt
Ġwra pped
Ġher o
Ġb arn
Ġadvent ur
Ġjew el
Ġstra w
Ġber ries
at ely
Ġco ins
Ġkind ness
ĠL ittle
Ġgi ving
Ġbreak fast
Ġlo g
?" .
Ġchick en
ag es
S ue
Ġbl oom
at ure
Ġba ld
Ġgo at
ur ed
Ġbanan a
ra g
Ġmight y
Ġn orm
Ġadventur ous
Ġsw an
Ġdo lp
y e
Ġf ool
Ġman aged
Ġfall s
l and
Ġp ump
Ġlift ed
y m
Ġtoug h
H ow
Ġc her
Ġpoin ting
j ect
Ġhelp s
ugg led
W ell
Ġd izzy
Ġcir cle
He re
Ġpe e
Ġwa gon
al k
ol og
Ġhard er
ous es
Ġdream ed
keep er
Ġcompet it
Ġwe ird
Jo e
Ġsmo ke
Ġm elt
Ġloud ly
Ġnorm al
o ppy
Ġbelong ed
Ġboss y
Ġmark et
Ġimpress ed
Ġf at
Ġe ars
Ġgr own
Ġwra p
ĠS usie
Ġap olog
Ġsk in
Ġshap e
Ġhat s
il t
Ġknow s
Ġ icy
Ġstu bb
Ġlearn ing
u nd
em o
Ġagain st
ĠM y
Ġsear ch
Ġh unt
Ġh ouses
Ġd epend
Ġsc are
Ġenjoy ing
p es
an ged
Ġmean s
Ġfav our
ĠBr own
Ġh arm
Ġsl ipped
ĠR ose
Ġbrother s
he ad
A my
Ġr ough
Ġpain ting
Ġed ge
re en
Ġch oose
Ġbr illi
Ġgra ce
Ġrec ord
Ġbutt ons
Ġre f
Ġfr ight
Ġstubb orn
app ing
re ady
Ġfavour ite
Ġshell s
Ġfool ish
Ġj ack
Ġsaf ely
Ġbrilli ant
Ġb atter
A l
Ġc udd
ĠTo day
Ġto ast
Ġfr idge
Ġcirc les
om ed
Ġsp ace
Ġst ri
i v
Ġg uit
Ġt er
Ġc ro
Ġhapp iness
ra ge
Ġal ready
Ġr at
Ġb itter
Ġturt le
a w
er ry
Ġy og
Ġwall s
Ġoff ice
Ġli br
Ġwa ke
Ġla w
Ġsound ed
Ġis land
Ġstraw ber
Ġmix ed
ed ient
Ġe gg
Ġsay ing
Ġcl ay
Ġdream s
Ġcra ck
Ġcheer ful
M ummy
e xt
er g
art h
Ġtr unk
ia ble
Ġbag s
Ġc am
Ġun l
Ġsmall er
Ġval u
Ġmov ie
Ġr oof
Ġesc ape
ac he
Ġno sy
Ġfi er
Ġguit ar
Ġsh ark
Ġnot ice
Ġexc la
Ġpour ed
Ġac cept
Ġpar rot
Ġstrong er
Ġca b
Ġst ream
Ġmag n
Ġtun n
s c
Ġcray on
Ġob edient
Ġinv ited
ar ry
Ġwe al
Ġnice ly
Ġexcla imed
Ġuse ful
Ġdepend able
Ġl ow
Ġtool s
ĠMr s
Ġsuggest ed
Ġrel iable
Ġcab in
ĠB obby
Ġfier ce
Ġt imes
Ġproud ly
Ġter ri
Ġth u
Ġcount ed
Ġscr at
Ġfing ers
Ġro se
Ġc ity
ad o
Ġind epend
Ġshow ing
ol a
Ġstu dy
Ġp il
ĠB u
Ġle an
ir p
Ġbus hes
Ġdes ign
Ġab ove
Ġexpl ored
Ġh oop
w ards
Ġt ummy
Ġbird ie
Ġjo ined
Ġfright ened
c orn
Ġst umbled
Ġde ad
Ġtw ig
Ġg em
ĠE lla
Ġkick ed
Ġf ountain
Ġspin ning
n a
c ient
Ġspoil ed
Ġf rag
Ġd ough
Ġlo cked
Ġlight s
Ġsuccess ful
Ġthem selves
Ġsto ve
Ġus ing
Ġc op
Ġme m
k n
Ġwip ed
Ġjo g
Ġbright ly
Ġexcited ly
Ġz ip
Ġvalu able
Ġro de
Ġen orm
Ġte le
Ġindepend ent
Ġenorm ous
am ond
Ġan cient
a z
Ġy arn
Ġsw e
Ġbe ak
Åĵ Let
Ġf re
ĠE llie
Ġclean ing
ĠYou r
Ġthought ful
Ġkind s
Ġdelic ate
an ut
Ġj am
Ġbu ilt
Ġres c
ent ion
Ġsee m
Ġen g
Ġdi amond
Ġremind ed
it her
Ġste al
Ġo w
Ġpop corn
in al
ĠN emo
Ġsh adow
ip e
Ġth irst
ĠP ete
or ge
Ġhold s
Ġsh one
Ġsn iff
ĠD an
Ġfrag ile
Ġen vel
Ġway s
mb re
o ot
Ġadm ired
Ġu mbre
Ġst at
Ġflut e
ig inal
Ġbe an
Ġt ank
Ġboun ce
Ġpract ice
ut h
up id
kn own
Ġbe es
ĠF in
Ġmar ble
ee ze
Ġflash light
Ġch anged
Ġgra ndpa
ĠD ucky
Ġcost um
ill a
Ġwhisp ered
Ġb ump
Ġru bb
Ġfind ing
Ġbra ce
Ġpain ted
Ġhel m
Ġpump kin
Ġha lf
Ġla b
umb ers
Ġsol ve
Ġcam era
Ġpig e
r ay
co d
Ġor iginal
Ġser ious
Ġst amp
Ġthirst y
Ġs uit
Ġun known
Ġtom ato
Ġst upid
ur ing
Ġpo st
Ġdo ve
Ġplay ful
Ġst airs
Ġra ced
Ġy et
Ġbe et
Ġsleep ing
Ġgu ard
Ġopen s
Ġweal thy
Ġ U
Ġcl um
Ġpick ing
Ġsal ad
Ġen c
in ary
Ġc one
Ġseed s
Ġcomp ut
g u
Ġpe bble
Ġm is
Ġcho se
Ġs on
Ġcro cod
e orge
il ty
Ġall owed
Ġpe anut
Ġmo le
ĠF red
Ġgu ilty
E m
Ġstop s
Ġang el
Ġdolp hin
Ġfor th
Ġf lex
Ġche ap
Ġn urse
d om
Ġwas hed
Ġdelight ed
Ġn ature
ie w
Ġdoes n
Ġsear ching
Ġmet al
Ġc ere
c om
Ġclo ck
Ġmo der
Ġsun f
Ġcomp ass
an ger
Ġjo lly
Ġmar ch
Ġboat s
Ġham mer
v ice
in es
Ġth ose
ug ged
Ġv iew
Ġn umbers
Ġlea ving
is k
Ġtell ing
Ġclum sy
S ee
Ġr ushed
ĠBob o
ĠAl ice
Ġfre sh
Ġh ay
Ġd ull
i ence
oom y
Ġp ant
Ġar row
Ġprin t
Ġhair y
ĠTweet y
ĠWhen ever
Ġd ust
Ġmiss ing
he t
Ġreg ular
g est
Ġflex ible
Ġac orn
ĠK im
Ġshe l
Ġterri ble
Ġfriends hip
Ġpri ze
Ġmoder n
!" .
Ġsp illed
Ġeng ine
Ġte m
Ġto r
Ġj ug
ation s
Ġto oth
Ġsa uce
Ġend ing
Ġbig gest
Ġlo ad
Ġdri ving
Ġav o
Ġa unt
ag het
Ġpot ato
aghet ti
Ġbar ber
Ġenvel ope
Ġs ink
Ġtow ers
Ġumbre lla
Ġsn e
Ġru b
Ġpir ate
Ġdest ro
ic t
Ġhand ed
Ġpee ked
f a
Ġpop ular
Ġp atter
Ġhand le
t ime
Ġlo ll
Ġcare less
Ġw ire
ĠS n
Ġdream ing
Ġcarry ing
Ġbeet le
Ġsc reen
ip op
Ġthu nder
Ġsp aghetti
Ġch ar
G o
W hile
Ġt ied
ĠM ar
Ġgrace ful
Ġ ing
Ġw ing
Ġcom b
Ġpre p
Ġcere al
Ġst age
ĠB ella
Ġloll ipop
Ġjack et
Ġtunn el
Ġstat ue
Ġmu sh
Ġru bbed
Ġcompass ion
Ġg oose
Ġkn ock
Ġpatter n
Ġdes k
Ġre ward
Ġsc atter
Ġslid es
red ient
Ġing redient
Ġsh ocked
Ġ er
Ġcomput er
Ġc ur
is ion
Ġnot e
Ġdel iver
Ġsc ale
Ġst ack
Ġm el
ro be
Ġsqu are
Ġgra nd
Ġme al
ars h
Ġbu ll
Ġtra p
Ġli z
Ġtr uth
Ġcra zy
Ġbrace let
Ġcrocod ile
ĠM ike
eez ed
Ġpen gu
Ġp ow
Ġtra vel
Ġw itch
Ġsh iver
Ġgas ped
Ġm ask
Ġimag ined
âĤ¬â Ģ
Ġimpress ive
Ġr ug
Ġtra sh
Ġperf orm
Ġpers ist
ell ig
Ġcoll ar
Ġe arth
ĠW hile
Ġint ellig
ĠP e
Ġear ly
Ġpu p
Ġjump s
O w
Ġthin king
Ġad vice
ho st
i o
udd y
em ent
ic hes
Ġwhe els
Ġstr anger
Ġcr ane
Ġspr ing
up er
Ġnam es
Ġen v
Ġper m
Ġwindow s
Ġent h
com fort
Ġfor k
Åĵ What
Ġspo ke
i bb
Ġg host
ill ie
ĠD ave
Ġb ent
i kes
ĠL ook
Ġbeaut y
oph ie
Ġstick ers
Ġcre ate
Ġob ject
Ġlibr ary
Ġenth us
Ġcelebr ate
Ġmush room
Ġingredient s
ac hes
comfort able
Ġwa ff
Ġm ill
Ġgrow ing
Ġor der
Ġwar ned
Ġph ot
Ġmail box
Ġun comfortable
Ġdisco ver
Ġbutterf lies
Ġread ing
Ġpa le
Ġh ipp
Ġtor n
a wn
Ġc amp
Ġsor ts
Ġspark led
ĠHe re
ÅĵLet Ã¢
Ġpige on
Ġquest ion
Ġso fa
eb ra
Ġharm less
Ġcomp let
Ġletter s
Ġpar ade
co a
Ġcompetit ive
Ġfl our
Åĵ Yes
Ġan x
t ter
Ġs udden
Åĵ It
Ġun cle
Ġpretend ing
Ġpen ny
Ġg or
Ġdestro y
Ġsandw iches
Ġnut s
Ġa head
Ġre ce
Ġblue ber
or ant
Ġcount ing
Ġpat ch
l oo
Ġbad ly
ip s
in ce
Ġp ony
Ġsh ut
Ġliz ard
Ġanx ious
Ġz ebra
Ġbe ep
Ġplac ed
Ġsur f
Ġcoo king
Ġpi ano
Ġne at
Ġhum ble
Ġh ook
ic es
Ġenc ou
Ġsad ly
Ġsn uggled
Ġco coa
Ġun iver
Ġhun g
Ġm ay
Ġign orant
ĠGra ndpa
ri c
Ġtwirl ed
Ġintellig ent
Ġst ation
Ġsunf lower
Ġb ase
Ġo tter
st ri
s es
Ġcouldn Ã¢
ĠM ummy
a id
o e
Ġpersist ent
Ġd ug
Ġpe pper
Ġtri ang
Ġn ail
Ġc ards
Ġre fused
Y ay
Ġt ask
Ġspe ed
Ġg um
ie f
Ġru les
c ream
Ġgl oomy
Ġcup board
Ġpant s
g ust
ar ian
Ġch ance
Ġfear ful
Ġt ur
Ġch asing
u d
Ġchar ming
Ġle ash
Ġstart s
Ġsh aking
Ġdis gust
Ġset t
Ġcreature s
Ġde af
Ġatt ract
ĠG ive
ĠB ear
us ed
Ġtri ck
Ġcar p
Ġord inary
M ary
Ġtra ck
ĠF r
Ġpast a
c u
Ġres ist
er able
ĠW h
Ġany where
Ġtr ump
Ġold er
Ġcart oon
Ġs uper
lc ano
Ġc urt
Ġgif ted
c ut
Ġhipp o
Ġcurt ain
Ġl ed
Ġy awn
Ġmis erable
ce ed
Ġsqu ash
Ġcou rage
Ġcri cket
ĠS m
Ġbright er
Ġgor illa
G ive
Ġimp at
R e
b led
Ġs end
Ġp urse
Ġg ir
Ġal ert
Ġj et
Ġpract iced
Ġtur key
Ġcl ub
Ġhur ry
Ġhelm et
Ġshout s
Ġval ue
Ġdecor ate
ĠP at
Ġband age
ĠS h
op us
ct opus
Ġsold ier
Ġf u
ur b
Ġcom pl
Ġo stri
Ġsc oot
ĠJoe y
Ġimpat ient
Ġt ire
Ġc ase
Ġdist urb
i est
ht ub
Ġall ig
Ġvo lcano
Ġcompassion ate
Ġtrump et
Ġbat htub
Ġsh ine
Ġo ctopus
Ġboun ced
Ġsupp ort
Ġit self
a ked
ĠTo by
Ġsp ell
Ġdraw er
Ġcarp et
Ġdisgust ing
Ġje ep
ĠE ventually
Ġpress ed
ĠA re
Ġsal t
Ġb icy
Ġme as
Ġgrab s
Ġfil thy
Ġmel on
ĠL ola
n oon
Ġc omet
Ġafter noon
Ġbark ing
Ġm ug
Ġrest less
a ff
Ġsho e
Ġhunt er
B ye
Ġenv ious
Ġb ri
Ġhelp less
Ġtr ay
Ġfire work
Ġsuc ceed
Ġpull s
ic op
ĠW here
icop ter
Ġstret ched
Ġtem p
Ġt en
u bby
Ġnow here
ĠA lex
Ġsk ip
Ġadm ire
Ġattract ive
Ġcry st
Ġlive ly
Ġno body
Ġmagn et
Ġhel icopter
ar oo
Ġsh ield
Ġexpl ain
ang aroo
gg ing
Ġhum an
Ġrep e
aur ant
Ġneed le
Ġorgan ize
g n
Ġsome where
I f
Ġf ive
Ġrest aurant
Ġgigg le
Ġc ush
a by
Ġcat s
Ġcow s
Ġle op
Ġv ine
Ġany way
Ġbar rel
s er
Ġk angaroo
Ġb et
Ġv ide
Ġmonkey s
Ġatt ic
Ġspl it
Ben ny
Ġstick er
Ġcoo ked
Ġli ons
ĠTweet ie
Ġre co
Ġwis hes
Ġostri ch
ĠP olly
oph one
Ġd ess
en ry
Ġth ief
Åĵ That
Ġth read
Ġch ubby
Ġpo em
Ġa nts
Ġsand box
Ġfur ther
Ġback pack
Ġse al
Ġp un
Ġgo al
Ġdist ant
Ġrespect ful
ĠM andy
eb ook
Ġt ap
in king
Ġsc rew
ĠC l
Ġrad io
Ġnot ebook
Ġv i
Ġpaw s
um mer
ast ic
Ġr ibb
st airs
Ġho les
Ġh arsh
Ġun pack
Ġfind s
Ġra ven
p ar
Ġmu ff
Ġs ent
Ġse par
Ġpus hes
Every one
isk ers
Ġm ath
Ġfire man
Ġmod est
Ġstir red
Ġsw itch
arl ie
Al ice
Ġallig ator
Ġstep s
s hed
Ġst ared
Ġele v
or able
Ġfrown ed
ĠEvery thing
Ġpack age
n ight
Ġswe ater
Ġleop ard
Ġhe dge
Ġavo c
Ġp and
Ġcard board
Ġbicy cle
h ood
st ic
Ġwhe at
Ġmic r
i pping
Ġs ize
Ġl id
Ġr ice
Ġcu be
Ġshe et
Ġelev ator
Ġso ar
Ġfor t
Ġdraw ings
cy cle
Ġb ikes
Ġbeh ave
Ġjo kes
Ġlight ning
Ġcand le
ĠSm ith
Ġu r
Ġad orable
Ġimp ro
ia stic
Ġsil ver
Ġenthus iastic
Ġme at
Ġbre at
ĠBrown ie
c i
Ġh ive
ir on
Ġbear s
Ġsor t
Ġhair cut
el ery
Ġexp er
Ġspe ak
g ie
Ġhapp ier
he art
Ġdess ert
Ġmicr ophone
ĠB uddy
c ome
Ġs le
Ġloo p
Ġch ain
ir it
Ġqu ite
Ġrep air
Ġha ll
Ġe ither
a ila
c col
Ġp al
ĠB ill
uc t
ĠG eorge
D aisy
ccol i
Ġen erg
Ġstret ch
Ġreco gn
Ġtrou bled
Ġqu ar
re ci
Ġmar ry
Ġo y
ĠL ee
Ġch alk
ĠR ed
Ġpro v
aul if
Ġtri pped
Ġswing ing
c ast
Ġf le
Ġbo ots
Ġpo le
Ġapp reci
Ġro ared
Ġlisten ing
Ġrid ing
Ġpa id
Ġjelly fish
Ġg ro
Ġst om
Ġdis hes
aila ble
Ġgo lf
Ġpap ers
Ġp or
Ġforg ave
Ġsho vel
Ġca ct
Ġo at
y ear
Ġli p
Ġche cked
Ġsand cast
ap a
Ġresc ue
Ġcl apping
Ġsc old
Ġro d
Ġshel ter
e er
Ġdidn Ã¢
Ġm ama
Ġin se
Ġwall et
Ġb in
co nd
Ġse cond
Ġbu zz
Ġav ailable
Ġc elery
Ġso ck
Ġob ser
fe e
Ġin k
Ġsh akes
Ġpus hing
ha ppy
Ġtriang le
H a
Ġer aser
f fee
Ġmess age
Ġc aulif
Ġpe ek
Ġgra pes
Ġpal ace
Ġal ive
Ġtra ins
Ġshop keeper
L ittle
Ġtr op
Ġcol ours
Ġfall ing
Ġkn ot
Ġfeel ings
Ġbro ccoli
Ġsail or
Ġpoin t
ĠWh iskers
u be
Ġr ag
Ġcount ry
Ġbreak s
Ġcostum e
Ġcact us
Ġsp irit
Ġle ar
Ġra ft
Ġsmell s
Ġju dge
Ġy ach
ol in
Ġlear nt
Ġs ummer
Ġl aser
Ġon ion
Ġsoft ly
Ġtun a
r on
re nder
Ġshr imp
Dad dy
Ġscoot er
Ġtrop hy
Ġl uck
Ġput ting
Ġclimb ing
Ġend ed
Ġpol ish
Ġrain ing
ĠSn ow
Ġcryst al
Ġm en
Ġm ild
Ġre ind
Ġar t
a zz
pl ay
b ul
Ġstart ing
ree ze
uck ed
Ġvis ited
ĠGra ce
Ġzoom ed
Ġrubb er
ed y
Ġtreasure s
Ġbasket ball
oo ped
Ġun happy
ĠO r
Ġstr ugg
Ġhop ing
Ġroll ing
Ġspr ink
e f
Ġapp l
Ġenerg y
ĠW ould
Ġgi ven
Ġcaulif lower
J enny
Ġt ube
Ġo l
Ġyach t
s ist
Ġla und
Ġpil ot
Ġp ipe
al ed
Ġp ed
Ġlaund ry
Ġunl ock
Ġpengu in
Ġsa us
ic er
Ġneighb our
Ġcool er
ĠB unny
ĠJ erry
Ġhot el
Gra ndma
Ġfr ame
Ġhad n
Ġreind eer
Ġfl ies
ĠP aul
Ġd ive
Ġdis play
Ġtri cks
Ġcup s
Ġbark s
Ġk ay
Ġqu it
Ġbel t
Ġsh ort
ag gie
Ġthank s
Ġbu l
Ġsweet heart
Ġb ur
Ġco ffee
a it
ĠS andy
ec ause
Ġpe ach
Ġdis ag
Ġair port
Ġinc l
p e
ĠB et
ke let
sel y
ĠAnd y
ĠS ophie
Ġo il
Ġeven ing
Ġdrop s
Ġjourn al
Ġfil m
Ġs ym
Ġsh ade
Ġthrow s
Ġlaw y
Ġt ax
Ġc ord
id es
Ġstuff ed
Ġcush ion
n ey
Ġfold er
Ġbul b
Ġli ves
Ġp ad
ĠT r
Ġsk ill
Ġ iron
se um
Ġmar ched
hin o
Ġclo sely
Ġbanan as
Ġphot o
z zy
Ġam bul
Ġve nd
Ġlean ed
n ger
Ġt ub
Ġpand a
Ġsur render
Ġfoot ball
Ġfis her
Ġstrawber ry
en se
Ġin sist
Ġmu seum
Ġplan et
Ġw ool
Ġp air
Ġfa uc
Ġcount er
Ġpor ch
g es
kelet on
Ġl end
bo l
it o
Ġdi ary
Ġpain ter
af fe
Ġsym bol
Ġthe ater
Ġcher ries
Ġambul ance
Ġtax i
Ġa x
Ġr hino
Ġsw ung
Ġcomplet e
Ġwa ving
it es
Ġfrog s
e ath
Ġhead s
Ġste ak
Ġfield s
Ġapolog ized
Ġfauc et
iz es
Ġvi olin
Ġli e
c cer
qu ito
ma nd
ĠR o
Ġforgot ten
Ġinse ct
Ġpl astic
Ġre ef
n am
Ġh ut
Ġmu le
Ġche ek
. .
Ġp age
ck ey
Ġho ckey
Ġpow der
âĤ¬âĢ ľ
Ġso ccer
Åĵ You
Ġmag az
Ġimag ine
Ġl ime
Ġc able
Ġimag ination
er op
Ġshould n
erop l
Ġa eropl
Ġv et
Ġmo s
Ġba king
w een
Ġtra il
Ġwin ter
Ġsun set
Ġs keleton
ĠP apa
Ġw ife
Ġcreat ed
Ġbet ween
ang u
Ġbelong s
Ġgir affe
Ġquar rel
Ġvend or
Ġl angu
Ġpir ates
Ġmos quito
an y
Ġso il
Ġplay er
Ġs ir
Ġch irp
ect ed
Ġgro cer
st ead
Ġk itty
Ġax e
ĠR os
Ġre ver
il ing
ctor y
u es
or ies
ac es
Ġpoin ts
ur ch
Ġb reeze
Ġwip e
Ġmotor cycle
Ġtemp le
Ġher b
Ġeag erly
Ġyog urt
Ġsne ak
Ġsle pt
an ic
ĠM illie
Ġfa ctory
Ġminut e
ipper y
Ġshout ing
nam ent
Ġsl ippery
Ġatt ention
Ġstu d
Ġmeet ing
Ġkay ak
Ġlawy er
ch air
Ġblow ing
Ġfisher man
ch anic
Ġperfect ly
Ġmix er
Ġcan e
Ġno vel
Ġor nament
Ġsee ing
Ġpo ke
Ġarg ue
Ġglow ing
im i
Ġme chanic
Ġp it
Ġfis hing
Ġspray ed
Ġchick ens
Ġse as
Ġoff er
sp ap
im ney
Ġv est
Ġma ze
Ġhead ed
Ġnew spap
m en
Ġwe ather
Ġtw ink
Ġarm chair
Ġavoc ado
Ġnap kin
C h
Ġsk ull
Ġdon Ã¢
Ġblanket s
Ġcelebr ated
Ġr ot
Ġsun g
ĠMar ia
Ġch imney
is on
pl ace
Ġgl ove
Ġhop es
Ġit ch
Ġz ipper
l ass
Ġgre edy
it ure
Ġfl ame
urn iture
Ġbase ball
Ġsquirrel s
You r
in arian
eter inarian
Ġf urniture
ĠW ill
au d
Ġgold en
ĠB un
Ġmyster y
In side
Ġvide o
Ġfle a
Ġto il
Ġshow er
Ġmo ves
Ġv eterinarian
Ġkn ob
cer os
Ġwelc omed
Ġdoor s
Ġoy ster
E ventually
Ġsniff ed
Ġpet als
Ġwa gs
Ġpare nt
Ġking dom
Ġfollow s
Ġtoil et
Ġh ar
er c
Ġb le
Ġhapp ens
Ġcall s
Ġmem ories
Ġbu ry
Ġdis cu
Ġfree z
Ġm op
Ġj unk
Ġte ar
ree k
Ġhang ing
w as
Ġla wn
Ġwr iting
Ġrhino ceros
Ġc reek
Ġlot ion
Ġappl aud
m m
ĠGo d
Ġv room
Ġstick y
un ately
Ġsur round
was her
el come
To gether
Ġre ve
Ġsqu e
Ġfire place
Ġqu ack
Ġthrow ing
l er
Ġmin er
Ġdish washer
her o
Ġex erc
Ġco al
Ġtra ve
Ġsuper hero
Ġaeropl ane
lass es
Ġwe igh
Ġpr un
Ġpo pped
Ġmed al
Ġpass port
Ġp ine
Ġshould er
Ġburn ed
Ġsung lasses
t ain
Ġst aff
Ġch urch
Ġign ored
N ext
t ress
ĠL illy
Ġshr ugged
l ow
Ġde ar
Ġve il
Ġmat tress
Ġclass room
Ġb other
aw s
Ġ ig
ĠU n
Ġig loo
ro sc
Ġgr in
ors es
Ġreg ret
id ay
Ġco b
Ġfl apped
Ġcollect ed
ĠH arry
Ġag re
Ġwor th
Ġdan cer
ĠR u
Em ma
Ġsail ing
Ġcri b
rosc ope
r ight
Ġt ug
Ġs ince
Ġh orses
Ġinv est
Ġbatter y
r ing
as is
ĠIn stead
ore s
Ġcr ow
To day
un a
ss ible
Ġmist akes
Ġmic roscope
B ecause
Ġsw amp
Ġlangu age
Ġf ought
Ġboun cing
Ġpresent s
Ġsepar ate
Ġo ak
Ġflo at
Ġsk irt
Ġag ree
Ġinvest ig
et y
Ġquiet ly
Ġstre ng
Ġpast ry
ro d
w eb
in ked
Ġo asis
ĠI Ã¢
c ase
Ġin f
ĠCh arlie
Ġdress ed
Ġeat en
W ait
Ġc ared
ĠB aby
Ġint rod
Ġst able
Ġmake up
Ġbee f
Ġcand les
Ġstreng th
v ision
Ġho l
Ġblack board
Ġal arm
Ġcar ing
Ġpre vent
Ġmagaz ine
Ġnewspap er
Ġhol iday
r s
Ġap art
Ġcrawl ing
Ġs izes
ĠN ext
ĠAnn ie
Ġcob web
t e
med i
Thank s
ĠRos ie
Ġc ell
Ġstra ight
Ġmar ried
medi ately
ĠT ed
gg y
Ġcompl ain
Ġscold ed
ĠT ony
Sam my
Ġcho ice
Ġcoat s
Ġroom s
Ġsn ap
Ġsqu eezed
Ġtrust ed
ĠS ee
Ġinvestig ate
Ġfo g
ang es
Ġp ist
Ġp ur
Ġaccept ed
om es
Ġg ym
Ġth umb
Ġtele vision
ĠHe lp
Ġwe ep
Ġber ry
Ġpist ol
Ġp ra
Ġrad ish
ch ie
Ġkiss es
Ġste am
Q u
ct ion
uck ily
Ġsqu eeze
Ġatt ach
Ġshr ink
Ġwhisp er
A nn
a b
Ġre aches
Ġnew s
Ġtick et
Ġit Ã¢
Ġy ield
Ġpudd les
Ġsplas hing
Ġapp ro
Ġper fu
Ġce iling
Ġrelax ed
ĠJ ess
Ġmusic ian
Ġamaz ement
Ġent ered
D id
I s
Ġr ake
Ġs igh
Ġun if
Ġjewel ry
Ġbl ood
Ġbl inked
Ġlet ting
Ġli cks
Ġwander ed
Ġtele ph
Ġbird c
Ġcast les
Ġw igg
st ers
Ġperfu me
i ves
ĠH enry
Ġdel ay
up s
Ġchair s
Ġhar b
Ġunif orm
Ġbirdc age
m end
Ġst ro
Ġeas ily
ÅĵIt Ã¢
is ing
Ġy ucky
Ġop era
Ġde mand
Ġhelp er
Ġs uff
Ġfire f
Ġteleph one
Ġyog a
h ouse
Ġhurt ing
Ġser ve
ĠW ho
omed ay
om mend
Ġblueber ries
h ic
Ġr ise
Ġra z
Ġbook case
Ġgrow led
ch or
ĠK ate
Ġrec ommend
Ġpin ch
Ġfreez er
Ġre qu
Ġsp ear
Ġcl aws
Ġkeep ing
Ġve hic
s it
at ie
ĠM iss
Ġcl iff
Ġsandcast le
Ġgr ill
Ġche ss
Ġcra sh
Ġbat he
ache l
Ġwaff le
Ġs ub
Ġpuzz les
Ġmat ches
Ġpl ates
Ġdisapp ear
c akes
Ġt ucked
Ġcross ed
Ġmust ache
Ġto ng
Ġf ile
Ġwar d
Ċ Ġ
ĠM imi
Ġsurpr ises
Ġra il
Ġcon f
Ġheart s
Ġribb on
Ġharb or
iv al
Ġimpro ve
Ġd ried
Ġtr ade
Ġplan es
Ġward robe
Ġs i
ĠDan ny
i ved
Ġt ut
Ġmin t
Ġw ine
all ey
Ġbel ow
Ġrequ est
Ġcabin et
ĠSnow y
Ġb ill
ion ary
Ġan chor
Ġv ac
Ġs omeday
ra ged
Ġwarm th
Ġto es
Ġcap tain
ict ionary
Ġraz or
Ġref re
Ġap ron
M andy
Ġpo ked
Ġinc re
Ġble ed
Ġd ictionary
am ber
Ġv alley
fort unately
Ġscatter ed
l ier
Ġwas te
an ny
Ġpe ar
Ġfu el
J en
Ġbo ot
Ġsp ade
Ġkne el
Ġskill s
ĠS u
Ġm ass
uc ture
Ġsupp ly
ĠTr ue
Ġkn own
Ġstr ucture
Ġsaf ety
a h
Ġbl ouse
e ve
Ġlaug ht
Ġdiffere n
Ġspend ing
Ġlemon ade
Ġmuff in
Ġl umber
Ġspot s
Ġfollow ing
Ġdress es
Ġexper ience
Ġinst r
Ġcudd led
Ġis n
âĤ¬ .
Ġmoment s
Ġbal an
W ill
Ġa ut
Ġsa ving
Ġlaught er
le nd
Ġcu b
ĠA b
Ġfall en
' .
Ġsn apped
Ġide as
Ġunderstand ing
Y uck
Ġmy self
Ġfast est
Ġpr op
Ġstrawber ries
Ġair pl
amp oo
Ġca lend
or al
Ġworm s
Ġtorn ado
Ġf est
Ġra ise
Ġr ow
Ġmiss ile
Ġjew els
Ġcalend ar
Ġsn eeze
Ġrem ove
Ġflut ter
Ġbean s
Ġl ugg
ic ing
Ġbu ried
Ġlugg age
ap ed
Ġtall er
Ġyawn ed
Ġwe ap
L isa
ĠF o
Ġim mediately
r iger
Ġbrave ly
Ġspark ling
Ġring ing
Ġent er
Ġref riger
Ġbe gged
Ġrever se
Ġrefriger ator
Ġsh ampoo
Ġrabbit s
Ġear lier
Ġbump ed
Ġro ot
ĠR e
Ġbooks he
Ġhit s
Ġdestroy ed
W elcome
Ġli c
Ġign ore
Ġinf ant
Ġp ort
Ġsett led
er o
Ġhard ly
Ġd ire
Ġappreci ate
v et
Ġh omes
Ġwas hing
Ġg ear
Ġbe amed
ĠJ ul
r m
Ġp ages
Ġr hy
Ġso cks
ht ray
Ġas htray
ĠE ach
Ġdest ination
ĠCl ara
ĠH ave
as p
Ġch ores
Ġch amber
Ġclimb s
Ġprep are
Ġto re
Ġha nger
an na
Ġsign s
' ve
Ġcher ry
Ġbreat he
Ġrem ain
Ġthe rm
Ġtut or
W ith
Ġp alm
ĠIt s
Ġrepl ace
Ġspark le
ĠBu zz
ar i
iss ion
Ġinv ite
Ġplay s
Ġdecor ations
Ġvan ished
Ġuniver se
Ġt ide
re at
Ġsol ved
Ġperm ission
Ġpra ised
Ġpr ide
ink y
ĠPe ople
Ġvac ation
Ġtong ue
Ġbookshe lf
Ġpo ison
bb ie
Ġhill s
Ġadm ir
Ġdeep er
Ġsc ooped
Ġsit s
Ġsc ore
Ġspark les
Ġexam ine
Ġstom ach
Ġtherm omet
n ies
Ġfest ival
Ġteach ing
Ġinsist ed
om ob
Ġflo ated
Ġqu iz
Ġcr unch
Ġscrat ch
Ġal right
bble s
Ġaut omob
o sed
Ġs imp
ĠJ ames
s ing
ĠG ood
xt ure
Ġmail man
Ġrece ived
Ġdifferen ce
op s
Ġbelie ved
Ġchirp ing
Ġthermomet er
Ġd aisy
Ġb ang
Ġd igg
Ġor anges
Ġflo ating
Ġpatient ly
Ġpan ic
Ġstrugg ling
ent s
P eter
Ġa chie
Ġpull ing
Ġdigg ing
Ġher s
Ġdra in
ĠFr eddy
Ġpun ish
Ġlic ense
Ġmod el
M ark
Ġran ch
th m
Ġprov ide
Ġd are
Ġst y
Ġup stairs
Ġrepe at
O k
iz ard
Ġgif ts
ĠBe fore
Ġencou raged
Ġmeas ured
Ġbuzz ing
Ġrest ore
ĠSp ike
ig ail
ant ly
Ġshoot ing
Ġj ail
Ġgl o
Ġcollect ion
Ġneighbor hood
Ġinv it
i ers
Ġbra in
Ġgu y
Ġbath robe
Ġrhy thm
at ch
ĠM ay
Ġbit es
Ġn one
Ġe qu
Ġresp ons
be y
os ity
s ity
ĠO llie
Ġincl ud
Ġse w
Ġgra pe
Ġcollect ing
Ġlab el
Ġsaus age
Ġsh ot
Ġwor se
Ġpattern s
Ġappro ached
Ġsub way
r ise
Ġm ention
ĠM aggie
Ġdiscu ss
M mm
N ot
Ġm all
all en
Ġelephant s
Ġweek s
Ġwh ip
Ġte ase
Ġmass age
Ġj azz
Ġsp aces
Ġsprink les
g ing
x y
Ġ V
Ġso re
Ġmelt ed
The se
ĠI s
Ġch allen
Ġset ting
Ġsupp osed
Ġs ip
Ġshe d
a ct
Ġbuck le
A ll
Ġsun rise
Ġun ite
Ġbill board
Ġgirl s
Ġtwist ed
Ġbri cks
i um
Ġsp it
Ġle ak
Ġop er
Ġexerc ise
Ġit em
Ġme owed
Ġfl av
Ġairpl ane
ĠR achel
Ġvehic le
Ġw izard
all ow
Ġpart s
Ġwat ches
Ġdisco very
Ġjo gging
ĠK ing
Ġsold iers
f ied
Ġf ut
Ġhe sit
ĠC o
Ġb ak
F l
Ġpo ppy
Ġfut ure
Ġpillow s
ĠBet sy
Ġh ate
Ġgl owed
ĠP oppy
Ġautomob ile
Ġgre y
u de
Ġuniver sity
Ġmarble s
S h
Ġg ust
Ġsp ort
asp oon
ĠEvery day
Ġm ister
Ġte aspoon
Ġpig s
Ġwhist led
Ġgrocer y
Ġr ush
Ġbr ings
ĠN ut
Ġfix ing
J ake
g y
Ġg ain
Ġaw e
Ġe vent
ĠL ater
Ġact ually
Ġhe at
Ġman age
Ġur ge
Ġlet s
Ġwar ning
Ġscrat ched
Ġsuff er
Ġbe g
Ġsl ice
Ġrem ained
Ġthr illed
Ġburn ing
c les
as c
as es
Ġseat s
Ġgrin ned
b ers
Åĵ No
Ġgrow l
Ġpa used
Ġsurround ed
O uch
um ble
Ġproblem s
Ġs ings
Ġst ad
Ġli ck
Ġstad ium
W ould
Ġch ir
Ġwork s
Ġz ipped
u ing
Ġto e
ĠP enny
Ġchir ped
is hing
Ġsp ill
ĠZ oe
ĠSh aring
Ġn ation
Ġweap on
Ġdr inking
Ġdrink s
ĠCh irp
Ġtwig s
e ed
Ġc akes
Ġr ust
em ember
Ġwhist ling
ĠRu by
Ġsc ur
Ġpo ssible
Ġra cing
Ġord ered
Ġe ff
ĠSome one
Ġbe at
Ġbr us
Ġstr ang
Ġtra cks
Be fore
Ġhur ric
Ġobser ve
Ġl ect
Ġpaint s
Ġrece ive
Ġto ur
Ġd uring
Ġsn eezed
Ġmar ching
Ġpray ed
d o
Em ily
Ġwaff les
Ġla id
Ġdec ision
Ġwater ed
Ġhat ed
ĠT ina
ĠJo y
c ious
Ġour s
Ġslid ing
Ġmem ory
Ġ x
!" ,
Ġwhere ver
Ġpotato es
Ġcont ain
Ġscream s
Ġlect ure
ĠF ro
Ġra ised
Ġwait s
Re ady
Ġcrunch y
Ġspaces hip
Ġpet ted
Ġspoon s
Ġcartoon s
Ġinvit ation
Ġhurric ane
! '
Ġearth qu
Ġcra shed
Ġol ive
Ġsat is
Ġl ily
Ġwar n
ĠL iz
f y
w alk
Ġf asc
it ies
Ġfl ood
Ġsk ipping
Ġpeanut s
Ġstrang ers
E x
Ġtomato es
Ġf ed
Ġswim s
Ġcur led
Ġoper ation
o ved
Ġm itten
Ġfirework s
Ġsun light
Ġpu pp
Ġrecogn ized
ÅĵThat Ã¢
Ġminer al
c c
Ġrem em
Ġbed s
Ġstri p
Ġmeas uring
he st
Ġve l
Ġcirc us
Ġchew ed
L e
und ay
Ġdisag reed
Ġremem bers
Ġvel vet
Jo hnny
Ġsaf ari
Ġplant ed
Y um
Ġkind ly
ip ment
Ġtal ent
Ġcontin ue
Ġland s
Ġmouth s
ĠS unday
Ġbuild ings
Ġside walk
Ġeas ier
Ġpri ce
Ġadmir ing
Ġequ ipment
m other
ĠS ad
Ġcom fy
Ġwo nd
Ġmon sters
Ġbri ck
Ġb es
Ġsecret s
ÅĵI Ã¢
bb led
Ġatt ached
Ġfasc in
Ġme ow
Ġgl itter
Ġapp ear
Ġmountain s
Ġblueber ry
Ġhapp iest
Ġtre mb
Ġfl ap
Ġf et
ĠC at
Ġesc aped
dd y
Ġfold ed
Ġrefre shed
Ġb ones
Re ally
Ġcle aring
Ġeff ort
am ie
se ek
ĠM e
ĠLet Ã¢
Ġsell ing
" ,
Ġw re
Ġcomp any
Ġbring ing
s on
Ġg az
ĠL una
Ġapolog ize
Ġprep ared
Ġglo ves
Ġreve aled
ĠNut ty
Ġearthqu ake
Ġoff icer
Ġlip s
Ġbes ide
Ġw id
Ġo bey
Ġn avy
Ġon wards
Ġwere n
Ġturn ing
Ġtra pped
ĠSt eve
Ġbleed ing
Ġco pper
Ġany time
Ġsimp le
Ġwe ight
Ġdog gy
Ġmen u
Ġs ix
Ġmu ddy
Ġguess ed
Ġle ather
ĠK atie
Ġstri pes
ent y
Ġpre cious
Ġremind er
M oral
Ġlady b
Ġpet s
R o
Ġwant ing
Ġdinosaur s
Ġwa ist
ĠN ot
Ġsl ip
l oe
z ag
Ġgot ten
Ġsucceed ed
Ġhis t
Ġall ow
Ġby e
Ġcatch ing
Ġste el
Ġhist ory
ad ed
ĠM at
Ġkeep er
Ġsett le
S omet
Ġpe ered
Ġfiref ight
Ġbra nd
Ġcudd le
Ġf ash
Ġoat s
Åĵ We
joy ed
Ġser ved
Ġevery day
Ġover joyed
Ġvill ag
Ġsc oop
Ġfree ze
L uckily
id ges
Ġwis dom
Ġp ies
av id
Ġg ained
Åĵ Thank
Ġrest ed
Ġperm it
Ġsty le
Ġrain ed
Ġper ched
ĠAb igail
Ġso ared
Ġeat s
Ġped al
Ġcut ting
ĠChirp y
Ġwond ers
Ġim age
Ġtast es
Ġsho pping
am b
Ġprin ter
Ġbow ed
Ġcomfort ed
Ġeag le
ig zag
ĠM illy
Ġwood en
Ġshadow s
Ġpup il
S usie
Ġbr idges
Ġran g
Ġwhat ever
Ġvo ices
Ġsnow ball
Ġansw ers
Ġfam il
Ġacorn s
m ble
Ġsteal ing
Ġfash ion
Ġdec ides
Ġvisit ing
F irst
ant a
Ġdra g
Ġhur ried
Ġcostum es
Ġst itch
Ġbr ushed
Ġagre ement
Ġdown stairs
Ġwr ites
Ġnail s
om ing
Ġbre aking
Ġem erg
i en
n ie
Ġcre pt
Ġex act
Ġstr uggled
Ġcre ation
Ġrespons ible
Ġvillag ers
Ġr ipped
ĠCh r
Ġtwirl ing
Ġsad ness
Ġcuri osity
Ġben eath
ĠSomet hing
Ġdisturb ed
d ing
ic orn
Ġunder ground
Ġun icorn
Ġemerg en
Ġp itch
n eath
Ġt ip
Ġb un
Ġwe ighed
Ġtre mble
iz ing
Ġaccident s
T weet
Ġm ice
Ġpan cakes
g en
Ġche f
ĠRe my
Ġfire men
Ġcomp le
Ġpract icing
ay s
igg y
l en
ist en
ĠThe se
Ġneighb ors
ter day
ĠJ e
Ġexam ined
Ġv ict
Ġdoctor s
Ġgrand mother
anna h
xy gen
Ġb are
Ġd ied
ĠFl oppy
Ġdecor ated
Ġlem ons
Ġarg ued
Ġ Qu
ir a
Ġkn elt
Ġspid ers
Ġclap s
Ġbeg in
Ġown ed
Ġnet work
Ġrid es
Ġpad d
ĠS unny
Ġst ing
Ġso ak
Ġrecogn ize
Ġladyb ug
Ġreal ize
Ha ppy
r r
ĠL ike
Ġpe el
Ġyell ing
Ġbeh a
Ġact iv
ĠSp ark
is hes
Ġbe nd
Ġare a
ĠK e
Good bye
Ġin ch
Ġkeep s
Ġz ero
a les
Ġre le
Ġpin ched
Ġsn ail
Ġsit u
Ġmiss ion
Ġkey s
Ġencou rage
Ġprun e
as hed
Somet imes
v a
ĠE l
ff ic
Ġwin ning
le y
Ġex it
ro l
Ġwonder ing
Ġru in
O r
m are
Ġwa gging
Ġjo gged
Ġtra ffic
Ġacc om
Fl uffy
Ġexact ly
Ġloo se
Ġzoom ing
Ġstir ring
Ġol ives
Ġstud ied
Ġl ines
ĠH oppy
Ġz igzag
Ġpast el
Ġtun e
R ex
r in
Ġc ape
ri age
la ire
Ġsne aked
Ġt ugged
Ġre lease
Ġtick ets
Ġsatis fied
Ġwre ck
i b
Ġo xygen
Ġe ight
Ġsi ren
Ġbun nies
loo king
g ers
Ġunder neath
Ġunl ocked
u ke
Ġag o
ĠR a
Ġnight mare
Ġbucket s
Ġchallen ge
Y e
Ġout do
ĠF irst
Ġsl apped
Ġland sc
Ġhon k
Ġinstr uct
Ġfascin ated
Ġc aut
Ġn icer
ul u
Ġaccom pl
U n
Ġwe b
ĠSt op
Ġshiver ing
ĠB ir
Ġlo ving
Ġpocket s
Ġstret ching
ĠT iny
ĠHow ever
Ġpil es
Ġpun ished
z en
Ġd ent
Ġm ittens
ĠL ucky
Ġplan ned
Ġprotect ed
Ġsol ut
Ġneighbour hood
Ġcompetit ion
Ġdraw s
ĠO l
Ġgather ing
Ġprop erly
ĠBu bbles
ĠUn cle
Ġitem s
ĠT w
us an
Ġcont rol
Ġsupp lies
Ġemergen cy
Ġli ed
Ġshould ers
ind y
Ġpar ked
Ġtrave ll
Ġsight s
Ġso aring
Ġmark ers
Ġlandsc ape
D ave
i k
k ins
Åĵ Can
Ġperf or
ĠJ an
Ġpe arl
Åĵ Don
Ġru ler
Ġdes er
Ġfet ch
ĠIt Ã¢
Ġfro sting
Ġboun cy
ĠS anta
Ġan n
Ġstr uck
Ġtouch ing
Ġinstruct ions
ay la
ic a
And y
Ġbur row
. '
Ġpe aches
Ġprin ted
Ġload ed
ind a
Ġsister s
ĠAnn e
om as
th ank
Ġfood s
Ġmus cles
Ġintrod uc
Ġbare ly
Åĵ Look
Ġmark s
bb ing
Ġop in
Ġsto le
Ġcr umb
Ġdri ft
Ġmix ing
Ġincre ase
Ġvict ory
Ġto night
Ġd am
ĠB ig
ag ull
Jo ey
Ġfro zen
Ġrainbow s
Ġapplaud ed
Ġm ast
Ġbu dge
Ġsil ence
M ar
b ric
u ry
Ġs ides
Ġe ast
Ġfa bric
Ġstr ings
Ġrock ed
s hing
u x
Ġour selves
T eddy
ĠD id
Ġte asing
Ġrubb ing
Ġv ent
Ġgigg ling
âĤ¬âĢ Ŀ
B ella
Ġso aked
Ġgun s
Ġb ank
Ġse agull
Ġoutdo ors
ĠA n
Ġpret ti
ak y
Ġplan ets
Ġpretti est
Ġbott les
Ġbrus hes
Ġcomple ted
Ġrele ased
ed ding
Ġch ases
Ġsweet ies
Ġpour ing
ues day
Ġscur ried
Ġdrag ons
Ġb unch
Ġv owed
Ġpe ars
Ġprin ts
Ġseas on
o ed
Ġw est
Ġst air
Ġmov ies
Ġsurf ace
ĠFr ank
Ġpur red
Ġt im
Ġpo king
Ġbloom ed
Ġdemand ed
n es
o h
ĠB eth
Ġlet Ã¢
Ġba ked
b ies
Ġtick le
Ġintrod uce
M r
Ġ 1
Ġm ater
Ġste ep
Ġdiscover ing
Ġcamp ing
ĠSu zy
Ġmater i
Ġbro om
Ġdra gged
Ġwin ner
Ġmuff ins
uct antly
Ġsigh s
ed nes
im y
Ġcat ches
ĠJo sh
Ġba bies
ednes day
G eorge
Ġmach ines
Ġur ged
Ġ Once
ĠT uesday
Ġmention ed
z ie
Ġl ux
Ġherb s
Ġd a
ick ed
Åĵ Hello
Åĵ This
Ġbe ard
Ġro aring
C l
ĠC arl
Ġsing er
Ġscream ing
Ġstamp s
Ġconf ident
or a
ĠW ednesday
Ġcon es
Ġpro ject
Ġintere st
Ġguy s
en a
Ġdri ves
Ġhorn s
d am
j am
Ġpretend s
av i
Ġpow ers
Ġte xture
ĠBet ty
th ough
Ġpass ing
ĠCh loe
A h
ĠA m
ĠJ ones
M ike
er n
ĠP ip
Ġcont est
Ġribb ons
Ġcrow d
Ġw ound
Ġgo als
as on
Ġran ger
Ġch ips
Ġstudy ing
Ġbalan cing
L ola
Ġmat ched
Ġexp ect
Ġres ult
Ġsaus ages
Ġdisag ree
Ġc al
Ġp out
il o
ĠH a
Ġsor ted
Ġmar riage
B obby
Ġhig hest
Ġpebble s
Ġcur ly
Ġkick ing
Ġsu itc
Ġgaz ed
Ġsh ock
ĠD avid
Ġforg i
Ġcut s
Ġrel uctantly
Ġpat ience
ĠCo co
Ġshel ves
Ġshiver ed
ĠRa bbit
H enry
Ġg e
Ġhug ging
Ġch at
Ġstri ke
Ġrepe ated
u zz
M aggie
f it
u ly
Ġyou th
Ġwait er
Ġcurtain s
ĠJul ie
Ġfa ult
Ġact ed
E lla
Ġs way
Ġw edding
Ġgr ant
Ġflag s
P aul
Ġpl enty
d ie
Ġt i
ĠJ amie
ex p
Ġfig ured
ĠH op
Ġgood night
Ġmat ching
Ġth reat
Ġpaint ings
Ġtwink ling
Ġf art
ĠB ye
Ġout fit
Ġinclud ed
Ġcaut ious
P ete
R emember
Ġsl imy
Ġpolice man
Ġchew ing
eez ing
Ġdust y
Ġregret ted
K itty
es ome
Ġtheir s
Ġsweet s
Ġent ire
Ġsolut ion
Ġintroduc ed
Ġtow els
ir ts
Ġsor ting
ĠAl ways
Ġbloom ing
Ġpengu ins
Ġsitu ation
ĠT illy
Ġth ro
ust ed
led ge
Gra ndpa
Ġrecord ed
low ly
exp ected
Ġst are
Ġgu est
Gra ce
Ġincl ude
Ġthro at
i very
y ou
Ġfl at
ĠC ar
Ġrock ing
ul ts
Ġachie ve
h ins
Ġun expected
U h
b l
m as
Ġhe el
Ġknow ledge
ber t
After wards
Ġcan Ã¢
ĠR ob
Ġprun es
Ġdent ist
ĠS ure
ig i
Ġbl ink
Ġstick ing
Ġcheer ing
izz ie
Ġlibr arian
Ġresc ued
Ġagre es
ĠS usan
Ġst aring
Ġtr uly
Ġsn ugg
Ġspray ing
cu se
Ġro ots
ĠL ulu
Ġaw esome
Le o
Ġlux ury
jam as
v in
Ġcomplet ely
ĠChr ist
Ye ah
ÅĵDon Ã¢
i ar
he ll
Ġa st
it ely
Ġhome work
Ġwr itten
Ġca used
Ġfo c
Ġmot ion
.. .
S ophie
Ġla p
Ġlearn s
Ġus es
Ġgrow ling
Ġarg uing
Ġbo om
Ġimport ance
Ġcreat ing
Ġzoo keeper
ess ie
Ġbra very
Ġwander ing
Ex cuse
Ġtremb ling
he llo
Ġd ared
Ġsh ined
Ġex ha
Ġsc ales
Ġroll s
Ġroad s
ĠZ oom
ĠChrist mas
g o
Ġsl ap
Ġdel ivery
Ġwork ers
Ġcrack ers
n joy
ver s
oy s
ĠG r
Ġarri ve
Ġdire ction
im mer
Åĵ Oh
Ġreach ing
Ġsaf er
Ġrepl ac
M ittens
Ġbe ad
Ġkneel ed
Ġbe lly
as m
Ġsn akes
Ġwire s
M rs
Ġsc ra
Ġcom m
Ġstrugg le
op es
bo at
Ġexp ected
ĠSad ly
Ġexha usted
un e
ick y
Ġheal ed
Ġorgan izing
Ġvent ured
a a
Ġw ink
ĠJ u
Ġman e
low ers
ĠMat t
Ġ Yes
Ġl amb
Ġbec oming
Ġgre et
Ġcrumb s
en ces
le e
Ġfl ames
Ġus ual
ĠLe ave
Ġcrab s
Ġdolp hins
ĠJohn son
Ġpa jamas
ol ine
Ġinv iting
Ġwor ries
ang led
Ġlead er
Ġpencil s
ir m
Ġun ited
Ġown ers
Ġstore keeper
il es
Åĵ Why
Ġpack ing
Ġrelie f
Ġbak er
Ġhe av
ĠM art
Ġb oo
Ġf irm
ĠL ou
Ġpol ishing
Ġpot s
Ġtrave led
Ġtim er
Ġc ash
Ġfair ies
ĠJess ie
Ġsuitc ase
Ġyou Ã¢
Ġclos es
Ġc ough
ĠP ipp
Ġwork er
Ġpart ic
Ġrocket s
ĠA bby
Ġpat ted
Ġtrip s
Ġvan ish
Ġrad ishes
How ever
Ġpee king
Ġdire ct
Ġwasn Ã¢
Ġval ued
Ġpray er
Ġseem s
Ġquack ed
in t
Ġf ara
Ġstart led
Ġmiss es
Ġdes p
Ġfara way
Ġc ent
id ing
Ġcountry side
Ġmelt ing
Ġphot os
Ġitch y
Ġus ually
Ġgrocer ies
ĠUn fortunately
Ġflav or
J ames
Ġcan s
Ġrest ored
Ġreve al
Ġwigg led
Ġinterest ed
or ds
Ġst ern
Ġrem oved
Ġfu zzy
Ġbalan ced
Ġsees aw
Ġrest ing
ĠO ut
Ġscr u
Ġknight s
B ad
Ġst em
Ġch uck
ĠC laire
Ġopen ing
ĠJen na
Ġteac hes
F ine
Ġr isk
Ġwr ist
ĠTh omas
Ġcra cked
Ġwin ked
ĠBe ing
ĠJe ff
Ġopin ion
Ġc ous
id s
Ġle ap
Ġevery body
Ġdes ert
Ġsneak y
Ġhis sed
ĠF or
Ġrub s
Ġobser ved
Ġtwink le
Ann ie
Ġc ause
Ġc ott
Ġsl ed
Ġun f
Ġpartic ular
Ġl ined
Ġd en
Ġse ven
Ġro ses
Ġprincess es
Ġpast els
Ġpoem s
Ġsign ed
Ġtick led
Ġfa ced
ĠL inda
Ġtra ctor
Ġmagn ets
Ġactiv ities
R un
ĠB oth
Ġwas ted
Ġsw ooped
br ush
Ġseas hell
ĠFo llow
Ġsnowball s
F red
S p
d ies
r ance
Ġr ings
ĠB y
Ġrep ly
oph ia
Ġsil ent
A lex
M illie
Ġstay ing
ĠP andy
Ġsing le
Ġadd ing
Ġcub es
Ġbead s
a ze
um m
ĠL uke
Ġcolour ed
Ġsandcast les
Ġreplac ed
R ose
Ġh i
Ġk ites
Ġsw irl
Ġsto len
ac ob
Ġtri cked
Ġmark er
Ġprov ided
Ġfirefight ers
F r
ĠS orry
Ġhow ever
Ġrem ote
Ch arlie
ĠFo x
Ġfart her
Ġf reed
is ies
ĠJ on
Ġnap s
Ġlollipop s
Ġda isies
Ġl ung
Ġd ipped
Ġwe ars
ĠP ut
Ġbowl s
ÅĵWhat Ã¢
Ġpadd led
Ġsp ike
Ġcash ier
Ġcolor ed
Ġpast ries
ĠQu ack
he e
Ġne ct
ĠL izzy
ĠE arth
ĠE njoy
Ġbad ge
ĠDo ggy
Ġnect ar
Ġso bbed
Ġcelebr ation
ĠKe ep
B l
Ġlo gs
ĠJ azz
co at
Ġ Y
Ġsl am
Åĵ Mommy
Ġdark ness
Ġprotect ing
Ġminer als
Ġa ff
an a
Ġli qu
Ġtall est
Ġmar ked
Ġaw ake
ĠBu zzy
Ġcop y
Ġsque aled
Ġstro ll
Ġt y
Ġb umpy
Ġsn at
Ġfore head
Ġsmile y
Ġfill ing
Ġsplas hes
Ġro bb
ĠG igi
ĠO w
Ġwip es
Ġhelm ets
Ġmask s
ab el
Ġtalent ed
ĠHa ppy
D anny
Ġyou nger
bb ly
Ġtw in
Ġgem s
Ġcautious ly
t le
Ġg aze
at y
Ġyour selves
Ġstay s
Ġglass es
y ond
Ġw ow
ĠS lowly
Ġbe yond
Ġexplore rs
Ġrain coat
Ġread s
Ġpol ished
Ġblow s
Ġcover s
Ġdirect ions
S ome
Ġc ust
ĠH annah
st y
ĠL uckily
ĠF riend
Ġheal th
Ġti pt
b oo
ĠW atch
Ġlisten s
Ġatt ack
Ġact ions
ĠM el
ĠĊ Ġ
ĠW ater
Ġsail boat
Ġmil es
Ġent rance
Ġflutter ed
Ġaccompl ish
Ġbeh avi
Ġmushroom s
Ġped als
Ġfamil ies
Ġchuck led
H arry
Ġd ots
Ġyes terday
Ġsec ure
Ġclown s
Ġref le
f l
Ġsome body
Ġkne es
Ġspe aking
Ġtrick y
c ited
c ers
Ġb ars
Ġjo king
Ġbuy ing
Ġseek er
aff es
Ġinsect s
Ġcust om
S andy
Ġo pp
Ġr ipe
pp ers
ĠM ad
ĠA unt
Ġcon n
Ġhid er
ik i
S ad
ĠG et
Ġfro ze
Ġbump s
Ġknock s
Ġcheek s
n ers
Ġpart ies
Ġgir affes
Ġbegin ning
Ë ľ
Ġm es
ĠT ess
ĠM on
âĤ¬ Ëľ
itc hes
ĠSu zie
Ġliqu id
Ġmes mer
Ġth orn
Ġsc aring
ĠMom o
Ġscar ves
Ġple asure
Ġdeterm ination
Ġcand ies
Un fortunately
Ġm i
Ġback ed
Ġhand ful
Ġfold ing
Ġdrum s
Ġvide os
Ġlead ing
Ġrecord ing
Ġpad dle
D ays
ou ch
ĠM any
Ġde al
ĠDo lly
Ġmi xture
Ġp ause
au ra
ĠC he
ĠK ayla
Ġarrow s
ĠNot hing
E llie
M ay
Ġt angled
Ġg lee
ĠB o
ĠM ilo
ĠA dam
Th ose
Ġcho ices
Ġinstr um
b and
Ġp iggy
al ph
Ġlight er
Ġtask s
Ġweep ing
Ġs ense
Ġl ower
ĠS qu
Ġyell s
Ġimpro ved
Ġrecommend ed
Ġcal med
Ġpout ed
ig ers
ur ry
Ġcl ick
ĠFin n
e ke
th s
Ġcup cakes
Ġsal ty
Ġrust y
Ġin sp
Ġfe ver
Ġpay ing
Ġsnat ched
ar ter
ar ling
Ġde f
Ġste er
Ġbak ery
v est
Ġr umble
Ġbed time
Ġru ining
ĠC indy
Ġdi ving
Ġcelebr ating
Ġhesit ated
Ġwid ened
l ay
r ig
ĠM o
ind r
Ġra indr
Ġafter wards
Ġsnow men
Ġkick s
A b
ri ous
Ġsm arter
?" ,
Ġjack ets
Ġbeha ved
Ġw ins
Ġfl apping
ak er
Ġsn uck
Ġstro ked
Ġl un
il ed
ĠM ira
ĠL izzie
Ġsquare s
R u
Ġdan ces
To by
Ġobject s
ĠJess ica
K ate
n o
Ġsh irts
se qu
Ġcow b
o ssible
Ġimp ossible
Ġunpack ed
ĠRo ver
ĠJul ia
ĠSpark y
Ġperfor man
Ġann oy
Ġt igers
an s
ĠB ird
ish y
Ġcon sequ
Ġstom ped
P olly
b ell
c ope
Ġcream y
Ġact ing
Ġdeliver ed
Ġhall way
Ġachie ved
Ġare n
Ġch oo
Ġtr amp
Ġru le
ron aut
Ġart ist
rin cess
Ġdeser ve
Ġmateri als
Ġast ronaut
at ur
ig ning
Ġno on
Ġno ses
Ġind eed
Ġchef s
it ched
Ġr ip
Ġwouldn Ã¢
Ġpan s
Ġtemp er
Ġornament s
cc oon
Ġraindr ops
B un
t uce
ĠM a
are n
Ġra ccoon
Ġlet tuce
Ġto dd
ĠL arry
Ġneed les
ĠP inky
Ġpoin ty
ĠEm my
Ġwrap s
Ġscrat ches
Ġbase ment
Ġcompl ained
Ġcomplain ing
Ġsi bl
Sh h
Ġsibl ings
il ity
ll en
Ġlo sing
iv ity
? '
Ġsa le
on i
Ġdark er
Ġtem pt
Ġdrift ed
Ġscru bbed
Ġtramp oline
c l
Ġre fu
Ġme als
Bob o
Ġpass en
Ġscrew s
Ġbur st
Ġflutter ing
Ġtravell ed
Ġh us
Ġdad s
Ġte ased
ndp are
ĠWith out
Ġch op
ĠEvery body
ĠN ina
ĠR obby
Ġcreat ivity
Ġexper ien
Ġdiscu ssed
Ġswims uit
Ġpupp ies
ĠTw o
rig ued
Ġconsequ ences
F in
Ġne ither
Ġforget s
n e
Ġc oup
Ġm erry
ĠT ara
Ġst ool
Ġwe eke
umb ling
Ġwra pping
Ġweeke nd
N ina
Ġhelp ers
Ġgra ndpare
Åĵ Do
G reat
P at
Ġst ung
Ġgrace fully
Ġinclud ing
Ġperforman ce
T ime
e al
ad es
Ġfe ars
Åĵ Wow
Ġtunn els
Ġtipt oed
d ed
Ġwa dd
Ġm er
Ġth ird
Ġst ain
Ġdoll ars
ĠP o
ĠBlue y
Ġcudd ly
Ġavo id
Ġenthus i
ĠGood bye
Ġtemper ature
o ey
ar mer
Ġg ross
ep t
Ġwon Ã¢
ang ing
Ġsour ce
Ġenthusi asm
K atie
Ġhe aring
ĠS ophia
itt ed
Ġfa ct
Ġsepar ated
d ri
Ġ Q
Ġon ions
el ia
ĠP rincess
Ġcolor ing
Ġhands ome
Ġshr inking
Ġneat ly
Ġgrowl s
ĠFro sty
ĠOl ive
immer ing
P e
t he
Ġl imes
ĠM ick
Ġch ip
us ing
Åĵ Come
Ġz ipping
Mar ia
Ġaff ord
Ġhus band
Ġcoup le
at ul
an es
Ġe ch
Ġr ising
st ep
ue en
Ġsnow fl
Ġhid es
Ġriver s
Me ow
Ġaccomplish ment
W h
s a
ĠS que
Ġsl ices
Ġdoll house
ugg les
Ġcous in
M illy
k y
ĠH oot
nt il
Ġsw ept
Ġgra bbing
Ġbu lly
Ġwind y
Ġbel oved
Ġprom ises
Ġplan s
E w
Ġc or
Ġg ri
Ġbe am
ĠB inky
ch oo
Ġgrass y
Ġpeace fully
Ġhor iz
F or
ĠJ ay
Ġblock ing
Ġbow s
ho g
Ġbatter ies
Ġreward ed
m allow
w eed
Ġn ine
Ġthr own
ĠSn uggles
arsh mallow
Ġsprink led
Ro ar
Ġhoriz on
D an
F o
H ave
Ġplay ers
Ġwill ing
Ġstud ents
Ġdam age
W hee
Ġ ĠĊ
Ġam ong
Ġdream t
Ġmus cle
Ġnap kins
Ġneighb ours
Ġmatter s
Ġlean ing
O ops
Ġa ud
Ġd arling
Ġback wards
ĠW ally
Ġpe cked
ĠTh ose
Ġrec ipe
A n
Ġbo dies
ie ce
Ġtail s
Ġsea weed
Ġwis hing
Ġsecond s
Ġforgi ven
Ġh itting
Ġwe pt
Ġprin ting
Ġdecor ating
Ġh our
Ġal ien
us hing
Ġpret t
Åĵ Hi
Ġhead ing
Ġplan ning
Bl ue
W oof
Ġdo d
Ġre ass
Ġgo bbled
Ġstar fish
Ġfeed ing
Ġpray ing
Ġbuzz ed
ĠBir thday
Ġcon cer
Ġtriang les
ÅĵYou Ã¢
Ġcent er
D ucky
Ġdan cers
Ġpop s
Ġrep a
Ġgas p
Ġfork s
Ġrust ling
Ġsnugg le
Ġheav ier
Ġprett ier
ĠL aura
Ġdra wn
Ġsurround ings
Ġrequest ed
Ġwarn ings
Ġrepa ired
w k
Ġd et
Ġsp ong
ĠL isten
ĠN ick
Ġstreet s
Ġdesign ed
Ġhedge hog
B oo
Ġd ie
ad os
Ġar r
ĠJ acob
Ġtree house
Ġtw ice
Ġslow er
Ġ1 0
L illy
M iss
Ġw oof
Ġto uc
Ġpl ain
ĠL ena
Ġpo ster
Ġmagic ian
Ġwip ing
Ġvan illa
ĠQ ueen
it ude
Ġm arshmallow
ar row
Ġha wk
fu s
Ġac he
ĠR emember
Ġembarra ss
ĠRo bert
Ġslam med
Ġlun gs
B y
f all
u rious
ed s
ir rel
es p
Ġr opes
ong r
Ġint rigued
Ġcre ations
Ġforget ting
Ġthu d
Ġsuperhero es
Ġhesit ant
Ġs y
Ġad ult
Ġcount s
ment s
Ġspoon ful
Ġavoc ados
Ġn ood
Ġsk unk
ĠJack y
Ġpot ion
Ġaud ience
ongr atul
- -
T ina
Y ummy
i ppy
Ġwa g
Ġp ens
Ġsc amp
Ġfl as
Ġspread ing
Ġborrow ed
Ġresist ed
Ġbl ast
Ġstand s
Ġbreat hed
Ġge ese
Ġtodd ler
T w
j o
it ion
Ġso fter
ent ly
Ġsw ords
ĠC ra
Ġwarm er
Ġfamil iar
Ġspong e
c ake
y an
Ġsa n
Ġpe ppers
Ġjoy ful
Ġimag ining
Ġpress es
Ġdeliver ing
ĠMike y
ĠFriend s
Ġscrew dri
Ġscra ped
Ru by
Ġtouc hes
B aby
N emo
Ġp ours
id o
Ġag e
ĠP am
Ġthrough out
ĠO wl
S urpr
Ġm unch
Ġn ibb
end y
Ġch anging
oun ce
Ġhon ked
Ġzebra s
Ġsque ak
Ġfirefight er
Ġmesmer ized
s ure
Ġro ars
ĠF armer
Ġgl ued
Ġwr ink
Ġremember ing
Ġtalk s
Ġpol ar
Ġbath s
ĠThank s
Ġshop s
ab ly
Ġsport s
Cl ara
Ġfoc used
Ġscrewdri ver
ĠS un
ĠA bbie
op sy
Ġcurious ly
Ġdro pping
Ġcorn ers
Ġwhisp ers
Ġsan k
Ġn ur
all owed
Ġle ast
Ġsw allowed
ast er
Ġlift s
a el
Ġsp ices
Ġbl inking
Ġpu ff
ĠAs h
ich ael
Ġmin ts
oun ced
Ġexp ress
Ġgrant ed
ĠJu dy
Ġsp ikes
Ġsqu ishy
Ġsail ors
ĠTo dd
Ġhope ful
Ġtoast er
L ike
Ġne are
ĠJ une
ara c
Ġpe ck
Ġcre w
Ġneckl aces
ĠOn ly
Ġpost man
Ġrefle ction
ĠT ake
ĠT una
Ġfe ast
Ġco nd
Ġpo ss
Ġsl ips
Ġste ady
Ġpen nies
Ġrefre shing
K im
e ars
s ie
im on
Ġwo bbled
Ġtest ed
Ġsniff s
ĠMay a
Ġgrandpare nts
Ġmarshmallow s
u zzy
y es
Ġwa kes
Ġo h
Ġr out
Ġch os
Ġsn eezing
Ġshap ed
Ġdi ved
ĠNo body
Ġoy sters
Ġincre ased
Ġchos en
J ul
v il
w orm
Ġre ason
Ġsp ins
Ġfl ight
ĠZ ip
ĠU ntil
Qu ick
Ġsew ing
Ġgreet ed
O ur
m ates
Ġt iss
er ate
Ġr ushing
Ġas ide
ĠL i
ott en
Ġjoin ing
Ġhero es
ĠAb i
Ġbeha ving
Ġ 2
an ie
un ched
Ġk ittens
atter ed
ĠO ur
Ġpige ons
st ick
ĠB ee
ert ain
ĠZ oey
Ġswan s
Ġwigg le
f ire
Ġa imed
Ġd ip
Ġo cc
Ġplay room
Ġta pped
Ġde fe
Ġdress er
Ġbit ing
ĠSt ay
ye ars
Ġpupp et
B ack
B ill
l ves
Ġr otten
Ġon ward
Ġpl ucked
Ġappreci ation
Tweet y
Sad ly
v ant
re ct
Ġm oo
Ġch arac
Ġtr ot
Ġad ults
Ġwr igg
Ġspark s
Ġencou rag
Ġsend ing
Ġconf l
Ġtremb led
ĠMick ey
Ġscamp ered
Ġcharac ter
B r
T r
im ent
Ġsc ored
ĠD r
Ġexpl o
Ġoff ic
ĠP r
eez es
e el
Ġsp at
Ġco c
Åĵ Now
Ġwar ri
Ġhop s
me al
Ġbell s
Ġflav ors
Ġmast er
w hile
Ġd aring
ĠF ire
Ġcon vers
Ġstrong est
Ġdraw ers
Ġpan icked
Ġguest s
ĠMart ha
ĠPipp in
Ġwadd led
Ġto ssed
Ġp ins
Ġn apping
Ġman ag
Ġrain y
Ġam ount
Ġworry ing
ĠK iki
Ġstack ed
Ġperform ing
Ġoat meal
rr r
ĠSqu irrel
M ine
Ġsa dd
ck y
Ġsc en
ĠL ove
Ġwo bbly
Åĵ My
Ġca using
Ġrespect ed
Ġsunf lowers
Ġprop er
Ġfreed om
Ġnood les
Ġm ate
Ġe vil
ret ty
Ġang els
Ġload ing
Ġseashell s
S u
ĠT ry
Ġg est
Ġbat tle
.. ."
ĠFro g
ĠSad ie
Ġcor rect
Ċ Ċ
is c
Ġst itches
Ġgarden er
Ġlesson s
Ġpro ve
Ġresp ond
pp ies
ĠB essie
ĠW ell
Ġdoor way
Ġun sure
Ġcra ft
Ġtable s
Ġcloud y
Ġshr ug
Ġcush ions
ĠBir dy
V ery
Ġf aded
on na
Ġwor n
ĠL ia
Ġbra vest
Ġgrow s
ĠSt ella
Ġlead s
ĠPat ty
ĠAm elia
Ġwater ing
ile y
Åĵ Mom
Ġrain s
Ġcra shing
Ġduck ling
Ġact ion
Ġcoo p
Ġfrown ing
Ġdesign s
Ġfiref ly
Ġfirm ly
ĠSque aky
Ġc oral
Ġe arn
Ġu nd
ĠB aa
Ġcl ues
Ġsmall est
Ġmon ths
Ġsail s
Ġsur v
Ġtwist y
Ġwid er
ĠGr anny
Ġdef in
Ġpassen gers
Ġtiss ue
o dy
p lease
Ġa is
Ġhe ight
Ġco sy
pl ash
bb ling
ĠF ido
ĠR ay
ĠThat Ã¢
Ġpol itely
Ġpay s
Ġnervous ly
Ġhuman s
Ġbehavi or
d ress
n ow
Ġbr u
Ġover come
Ġbel ts
Be ep
Ġstream ers
Ġrobb er
Fo llow
Ġencourag ing
Ġt ies
on ies
Ġplay time
ch ild
Ġfl own
ĠE x
em ma
Ġdriver s
Ġsurrender ed
i el
Ġg onna
en ing
Ġnear ly
Ġpump kins
Ġgrand child
Ġfle as
Ġyield ed
Ġmer ma
Ġdefin itely
D uring
b ird
Ġn i
Ġin j
Ġpo ppies
ion a
Ġcross ing
und red
Ġtravell ing
he w
Ġt uck
Ġn uzz
an while
Ġy el
Ġthat Ã¢
Ġsh ady
Åĵ Well
Ġra ces
Ġblock ed
Ġlift ing
Ġlay ing
Ġign oring
Ġshovel s
Ġquarrel ing
allow een
ĠMe g
Ġperfor med
le ts
Ġe ase
ĠA ng
Ġsc ient
ĠE lly
ant astic
Ġwo bble
ath y
iss a
Ġres ults
ĠAl ong
Ġsuggest ion
Ġsuit s
Ġcamp fire
Ġsymbol s
Ġtwink led
Ġbrus hing
Ġcomm un
Ġyel ped
Ġscient ist
E ven
J erry
W atch
i bbit
u pt
re y
ĠH alloween
Ġsh own
Ġre un
ro ken
Ġscur ry
Ġleap t
Ġp ound
Ġp onies
ĠS c
ong o
ĠE va
ac les
Ġcold er
Ġqui eter
Ġappreci ated
f ly
Ġb less
ight ing
Ġwater fall
Ġfin al
Ġsqu eezing
Ġfill s
Ġhair dress
ĠZ ero
Ġfis hes
ĠRo bbie
Ġcobweb s
ĠJan ie
Ġthorn s
Ġsnowfl akes
a bby
Ġf antastic
el ie
Ġsurpr ising
Ġtri cycle
ĠSt an
Ġed ges
Ġprep aring
Ġgrand d
Ġrever sed
Ġpunish ment
Ġoffic ers
L isten
ĠM abel
Ġan ger
Ġfin ishing
ĠR ock
Ġcho pped
Ġpath s
Ġgen ie
Ġpassport s
B et
r up
ook y
Ġhand ing
ĠR alph
ĠR yan
Ġtight er
Ġpaint brush
ĠSt ar
Ġloop s
Ġbury ing
Ġsuff ered
esp ite
Ġocc as
Ġhairdress er
Ġse ver
Ġsl ither
Ġbra ver
When ever
Ġun w
Ġheal ing
Ġdist ract
Ġband ages
Ġgigg les
Ġremind ing
ĠDave y
Ġdisturb ing
Ġech oed
f ia
Ġt ying
Ġg ap
pp a
Ġnot es
Ġforest s
Ġsmell ing
Ġbasket s
ĠAl though
Ġsniff ing
Ġsurf ing
Ġsurf board
lay ing
Ġsever al
c ent
Ġ X
Ġc ertain
Åĵ Where
Ġclean er
Ġcoll ap
Ġfit s
ĠLou ise
Ġconn ected
Ġsy rup
H annah
Ġt ipped
Ġs ou
Ġc ongratul
Ġr ays
ri er
Ġsn ort
ÅĵI f
ĠZ ara
Ġspit s
Ġlick ing
Ġrisk s
Ġconfl ict
R os
Ġh undred
Ġc oug
Ġm aker
Ġsto pping
Ġsweet est
Ġpack ages
Ġpuzz led
Ġsell er
ĠU nder
Ġtravel s
ĠSnow man
Ġcott age
isc uit
b roken
v room
ing er
ĠM ouse
Ġsp ooky
Ġcon qu
ĠG ina
Ġdr own
Ġbelie ving
Ġship s
Ġexam ining
Ġmagn if
Ġbreat hing
Ġsque aked
Ġpur r
Ġeffort s
J amie
b age
c a
Åĵ But
Åĵ Okay
Åĵ Of
ath an
ĠFl opsy
Ġmail ed
Ġgar bage
Ġcudd les
Ex cited
Surpr ise
er m
ĠB ow
Ġpr ob
Ġsl ipping
ĠG reen
ĠZ oomy
Ġfrown s
Ġlend ing
Ġwhisper ing
Ġsuffer ing
eel ing
Ġprob ably
M ad
c her
Ġl ent
ad ing
Ġsh oo
ast y
Ġbus es
Ġel f
Ġadd ress
Ġaw o
Ġtub es
Ġinch worm
Ġmerma id
B unny
M ira
P oppy
l ine
is ions
an cy
on se
ĠI m
Ġthought s
ink le
Ġgu ide
Ġplant ing
Ġresp onse
Ġspell s
Ġrepe ating
Ġbother ing
Ġge ars
Ġarr anged
? !"
b ut
Ġ Okay
Ġd ump
Ġex cept
Ġme mb
Ġch arge
Ġtable t
Ġhum ming
Ġshark s
ĠU p
Ġmast erp
Ġforgi ving
Ġtrot ted
Ġgest ure
Ġmemb ers
G et
f ound
ĠW endy
Ġco ach
Ġfin s
Ġluck ily
Ġrespons ib
Ġsew ed
Ġdam aged
Ġcustom ers
Ġgri p
Ġt il
ĠH oney
ut ter
Ġr ather
Ġwith in
Ġgood by
Ġdec isions
ĠD in
bb a
Ġexplore r
Ġdrive way
Ġchocol ates
Ġsupport ed
ĠQu ick
Ġinstrum ents
S ince
V room
Ġwas ting
Ġli es
âĤ¬ ,
Ġwho se
ant ha
Ġcott on
Ġannoy ed
Ġgoodby es
T ed
T ony
ĠS atur
Ġso aking
Ġwe eds
Ġkn ots
ĠF ighting
ĠR ain
Ġunderstand s
Ġant ic
ĠPat ch
Ġrot ting
Ġvehic les
Ġpupil s
Ġaccompl ished
Ġnur ses
Ġwarri or
Ġreun ited
ĠSatur day
Ġre app
Ġal though
Ġpe as
Ġte les
Ġche ers
Ġdan gers
ail s
Ġcalm ly
Ġrobot s
Ġnovel s
ĠAsh ley
Ġteles cope
Ġm ood
am my
Ġst umble
ĠB ongo
as ers
Ġnew found
Ġtw eet
ild a
ac le
Ġel bow
Ġswe at
Ġstom p
Ġdiscuss ing
Ġmateri al
Ġdesp ite
Fr ank
ĠQuack ers
Ġcowb oy
M imi
a ven
m ies
ĠS imon
Ġheart broken
Ġcrown s
Ġwis ely
Ġtwist ing
Ġperm itted
step s
Ġconvers ation
R achel
Ġb uddy
oo king
Ġch anges
Ġsw o
Ġbelong ings
Ġwhist les
Ġtid ied
Ġclass mates
ĠPe pper
Ġspill s
c row
i ens
Ġt ar
Ġd arl
ĠM ichael
iz a
Ġbit s
ugg ing
Ġteacher s
Ġfoot steps
Ġguess ing
Ġweal th
Ġcryst als
Ġexplain s
Ġrefu se
Ġreass ured
Ġawo ke
Ġmasterp iece
Ġswo llen
Ġdarl ings
d a
w ise
Ġa im
ĠB ecause
Ġal iens
Ġdec l
ĠC le
Åĵ Please
Ġve gg
Ġpray ers
Ġbrace lets
Ġinsist ing
Ġstud ent
Ġpeel ed
T ake
m ered
Ġd ot
Ġg erm
Ġn asty
Ġr in
ĠA ny
Ġsc ent
Ġv ines
ĠSt itch
Ġfigure s
Al ways
Ġspeed ing
Ġnibb led
Ġs ill
ll e
Ġsp ies
Ġfl ipped
Ġtrouble s
Ġtool box
Ġsol ving
Ġenc ount
Ġvi br
Ġseagull s
Ab igail
Ġni bble
P enny
w he
re st
Ġfor m
Ġtre ated
Ġch illy
Ġunt ied
ĠJo an
Ġbeauti fully
Ġstor ed
Ġtow ard
Ġbus iness
Ġem er
Ġcomfort ing
St eve
Al right
Ġart work
Ġtar get
or der
ch y
Ġex ch
Ġbird house
au la
so l
Ġun fortunately
Jo sh
Ġaf ar
Good night
Ġtap ed
Ġexerc ises
Ġsurv ive
Ġgrandd aughter
Ġcongratul ated
l or
w hat
ide y
Ġpo sit
Ġmar ve
Ġhon king
Ġser vant
Ġban ged
Ġaw are
Ġstat ues
Ġmosquito es
Ġdelay ed
Ġsimp ly
Ġinsp ired
Ġvegg ies
B oys
C ar
Ġfor ce
Ġk ings
ĠM ag
ĠJane y
Ġturt les
Ġrat s
Ġswe aty
f ive
f ather
ig hing
art led
Ġthan king
Ġtr ans
Ġsqu ished
Ġgaz ing
Ġactiv ity
Ġwound s
M at
g ain
p en
on nie
Ġre ly
Ġlo ses
ec ca
ĠA lly
Ġman ners
dd ing
Ġta pping
Ġunt ie
ĠAl i
Ġapolog ised
Tweet ie
Ġfoc us
J essie
w e
Ġto ss
Ġd ep
ri an
el vet
Ġsm ashed
Ġj ars
Ġsp y
Ġjo ins
ip es
Ġfox es
ĠO ther
Ġscr am
Ġswe ep
Ġlab els
Ġbeep ed
ĠPipp a
Ġscurry ing
Ġemer ged
s m
u el
Ġb itten
or ter
Ġtw enty
Åĵ The
Ġcon vin
Ġdress ing
Ġwarm ly
Ġpurp ose
Ġshr unk
Ġpresent ed
Ġple aded
Ġcur l
Ġghost s
Ġpand as
Ġflap s
Ġopp os
Ġconcer t
Ġcorrect ly
C laire
Ġhe n
Ġst all
Ġsp ed
ĠL ion
ĠF uzzy
Ġsqu aw
iv ia
Ġtire s
Ann e
Ġencourage ment
Ġsway ing
Tw o
Ġwrink led
Ġais le
Ġantic ip
L ena
ĠS mo
Ġr owed
Ġbe a
Ġwh imp
ort un
ĠC la
Ġju d
ĠK aren
Ġnest s
Ġtrust ing
Ġpri ck
Ġmagaz ines
ĠFro ggy
Ġglitter ing
umm ies
Ġopp ortun
Ġneare st
Ġtrans f
at s
Ġsa v
Ġin ter
Ġr amp
Ġcle ared
ĠSo fia
Ġtast ing
Ġpicnic s
Ġresc uing
Ġgrand father
Ġotter s
Ġped aled
Ġwigg ly
Ġty pe
Ġnuzz led
Ġoppos ite
J oy
e ven
Ġg all
at ors
ĠI zzy
Ġsh immering
Ġlo c
Ġgirl Ã¢
dd ie
Ġbl ond
Åĵ Hey
Ġswim mer
ĠK elly
Ġadd s
Me anwhile
Ġcover ing
Ġscare crow
Ġwindows ill
Ġdisplay ed
Ġuniform s
Le ave
Ġsway ed
int ment
Ġcoc oon
ĠAng el
Ġdecl ared
Ġanticip ation
A bby
h il
r ily
it s
id ence
ĠS k
am ma
ac y
Ġvisit s
Ġdes igning
sc reen
Ġlip stick
Ġdod ged
J e
r is
ĠT iger
Ġbe ating
Ġend s
Ġdoor bell
Ġdis c
Ġdiscover ies
Ġpur rs
Qu ack
ĠChr is
ĠKe vin
Un cle
Ġattack ed
Ġsadd er
Ġcollap sed
Ġscram bled
J ess
m unk
o or
Ġt umbled
Ġshe ets
ri e
ĠA na
Ġfl ick
Ġfl ips
Ġpe ep
Ġjo ked
Ġsn ug
Ġcra cks
Ġimag es
Ġdecor ation
illi am
ĠPe ppa
Ġbackpack s
mand a
Ġforgiven ess
Ġrout ine
Ġmanag er
C o
R ob
p it
Ġ icing
Ġt ummies
in nie
Ġh oo
Ġwh oo
ĠM ina
rom ise
ĠJ ax
Ġfa iled
Ġsw ap
Ġsun screen
ord inary
Ġbat hing
Ġgener osity
Ġtooth brush
Ch loe
Ġexperien ced
D ear
D avid
w ater
Ġt ing
Ġy um
Ġgood ies
Ġfl ip
ĠD espite
ust y
Ġgr at
Ġsing ers
Ġspr out
Ġbee h
ĠSp idey
ĠRu dy
Ġobey ed
ĠRob o
Ġencount ered
A m
B ang
K e
Ġs ens
Ġhe aven
ĠS plash
ĠA va
Ġno dding
ĠW elcome
Ġla pt
ro ll
ĠF iona
ort unately
em pt
Ġbad ger
Ġcon v
bo ards
Ġdri pping
ĠSp ring
Ġadmir ation
Ġstern ly
Ġcustom er
Ġastronaut s
Ġgrat itude
l o
il ities
at ive
ĠH olly
Ġin ches
Ġsh all
um ent
Ġbright est
Ġslow ed
Ġatt empt
Ġmind s
Ġcrawl s
Ġsnap s
ĠEx cited
Ġconv ince
O ut
l ied
ll as
ĠYou Ã¢
ell e
Ġbl own
Åĵ See
Ġste w
Ġvisit ors
Ġrob in
ĠZ ee
