{"<|endoftext|>":0,"!":1,"\"":2,"#":3,"$":4,"%":5,"&":6,"'":7,"(":8,")":9,"*":10,"+":11,",":12,"-":13,".":14,"/":15,"0":16,"1":17,"2":18,"3":19,"4":20,"5":21,"6":22,"7":23,"8":24,"9":25,":":26,";":27,"<":28,"=":29,">":30,"?":31,"@":32,"A":33,"B":34,"C":35,"D":36,"E":37,"F":38,"G":39,"H":40,"I":41,"J":42,"K":43,"L":44,"M":45,"N":46,"O":47,"P":48,"Q":49,"R":50,"S":51,"T":52,"U":53,"V":54,"W":55,"X":56,"Y":57,"Z":58,"[":59,"\\":60,"]":61,"^":62,"_":63,"`":64,"a":65,"b":66,"c":67,"d":68,"e":69,"f":70,"g":71,"h":72,"i":73,"j":74,"k":75,"l":76,"m":77,"n":78,"o":79,"p":80,"q":81,"r":82,"s":83,"t":84,"u":85,"v":86,"w":87,"x":88,"y":89,"z":90,"{":91,"|":92,"}":93,"~":94,"¡":95,"¢":96,"£":97,"¤":98,"¥":99,"¦":100,"§":101,"¨":102,"©":103,"ª":104,"«":105,"¬":106,"®":107,"¯":108,"°":109,"±":110,"²":111,"³":112,"´":113,"µ":114,"¶":115,"·":116,"¸":117,"¹":118,"º":119,"»":120,"¼":121,"½":122,"¾":123,"¿":124,"À":125,"Á":126,"Â":127,"Ã":128,"Ä":129,"Å":130,"Æ":131,"Ç":132,"È":133,"É":134,"Ê":135,"Ë":136,"Ì":137,"Í":138,"Î":139,"Ï":140,"Ð":141,"Ñ":142,"Ò":143,"Ó":144,"Ô":145,"Õ":146,"Ö":147,"×":148,"Ø":149,"Ù":150,"Ú":151,"Û":152,"Ü":153,"Ý":154,"Þ":155,"ß":156,"à":157,"á":158,"â":159,"ã":160,"ä":161,"å":162,"æ":163,"ç":164,"è":165,"é":166,"ê":167,"ë":168,"ì":169,"í":170,"î":171,"ï":172,"ð":173,"ñ":174,"ò":175,"ó":176,"ô":177,"õ":178,"ö":179,"÷":180,"ø":181,"ù":182,"ú":183,"û":184,"ü":185,"ý":186,"þ":187,"ÿ":188,"Ā":189,"ā":190,"Ă":191,"ă":192,"Ą":193,"ą":194,"Ć":195,"ć":196,"Ĉ":197,"ĉ":198,"Ċ":199,"ċ":200,"Č":201,"č":202,"Ď":203,"ď":204,"Đ":205,"đ":206,"Ē":207,"ē":208,"Ĕ":209,"ĕ":210,"Ė":211,"ė":212,"Ę":213,"ę":214,"Ě":215,"ě":216,"Ĝ":217,"ĝ":218,"Ğ":219,"ğ":220,"Ġ":221,"ġ":222,"Ģ":223,"ģ":224,"Ĥ":225,"ĥ":226,"Ħ":227,"ħ":228,"Ĩ":229,"ĩ":230,"Ī":231,"ī":232,"Ĭ":233,"ĭ":234,"Į":235,"į":236,"İ":237,"ı":238,"Ĳ":239,"ĳ":240,"Ĵ":241,"ĵ":242,"Ķ":243,"ķ":244,"ĸ":245,"Ĺ":246,"ĺ":247,"Ļ":248,"ļ":249,"Ľ":250,"ľ":251,"Ŀ":252,"ŀ":253,"Ł":254,"ł":255,"Ń":256,"he":257,"Ġt":258,"Ġa":259,"Ġs":260,"Ġw":261,"nd":262,"Ġthe":263,"ed":264,"Ġand":265,"Ġto":266,"Ġb":267,"in":268,"Ġh":269,"Ġwa":270,"re":271,"ou":272,"Ġf":273,"it":274,"Ġl":275,"Ġc":276,"Ġd":277,"er":278,"Ġhe":279,"Ġm":280,"Ġp":281,"Ġwas":282,"ĠT":283,"om":284,"Ġo":285,"ay":286,"ar":287,"is":288,"ing":289,"il":290,"Ġg":291,"id":292,"at":293,"en":294,"Ġn":295,"Ġsa":296,"Ġha":297,"ĠThe":298,"ĠS":299,"an":300,"im":301,"or":302,"on":303,"Ġit":304,"Ġth":305,"ll":306,"le":307,"ĠH":308,"ot":309,"Ġher":310,"et":311,"ir":312,"ĠShe":313,"es":314,"ĠHe":315,"Ġin":316,"ver":317,"ĠThey":318,"ut":319,"ow":320,"ck":321,"Ġe":322,"Ġu":323,"Ġy":324,"ld":325,"oo":326,"ily":327,"Ġsaid":328,"ig":329,"Ġr":330,"Ġbe":331,"Ġ\"":332,"am":333,"ĠI":334,"Ġst":335,"ke":336,"ce":337,"ve":338,"ith":339,"pp":340,"Ġshe":341,"Lily":342,"Ġwith":343,"On":344,"Ġon":345,"Ġyou":346,"ked":347,"Ġof":348,"ri":349,"Ġpl":350,"nt":351,"Ġhis":352,"ad":353,"Ġso":354,"very":355,"Ġday":356,"Ġthat":357,"Ġup":358,"ĠLily":359,"Ġplay":360,"Ġhad":361,"Ġthey":362,"st":363,"Ġwe":364,"Ġmom":365,"ĠB":366,"Ġfor":367,"el":368,"un":369,"ould":370,"'s":371,"my":372,"Ġli":373,"The":374,"ch":375,"Ġhapp":376,"Ġwant":377,"ent":378,"Ġsh":379,"itt":380,"her":381,"out":382,"Ġnot":383,"Ġdo":384,"ome":385,"se":386,"Ġvery":387,"ly":388,"end":389,"all":390,"ound":391,"Ġwh":392,"Ġk":393,"ime":394,"ittle":395,"Ġtime":396,"al":397,"Ġlittle":398,"Ġne":399,"ĠM":400,"Ġthere":401,"ht":402,"Ġis":403,"Ġhappy":404,"Ġbig":405,"ĠIt":406,"Ġre":407,"Ġsm":408,"Ġbut":409,"Ġsaw":410,"Ġan":411,"ra":412,"ry":413,"riend":414,".\"":415,"ĠĊ":416,"Ġfriend":417,"Ġas":418,"ack":419,"One":420,"ide":421,"ake":422,"ug":423,"'t":424,"!\"":425,"Ġloo":426,"Ġwere":427,"ter":428,"ved":429,"Ġlo":430,"ore":431,"Once":432,"Ġse":433,"Ġtoo":434,"Ġhim":435,"Ġbo":436,"Ġgo":437,"Ġare":438,"ec":439,"ĠTim":440,"Ġj":441,"Ġwanted":442,"ard":443,"ill":444,"irl":445,"Ġthem":446,"Ġupon":447,"Ġgirl":448,"Ġtheir":449,"Ġout":450,"Ġat":451,"ind":452,"ur":453,"Ġdid":454,"way":455,"fu":456,"Ġsp":457,"ĠA":458,"Ġcould":459,"Ġsmil":460,"hen":461,"Ġhave":462,"ain":463,"hed":464,"art":465,"ĠBen":466,"rom":467,"Ġex":468,"Ġcan":469,"Ġwent":470,"ic":471,"Ġar":472,"lp":473,"ood":474,"ful":475,"Ġfriends":476,"?\"":477,"hing":478,"Ġnam":479,"Ġkn":480,"ĠJ":481,"ight":482,"Ġhelp":483,"Ġsay":484,"Ġall":485,"one":486,"um":487,"ark":488,"Ġback":489,"You":490,"Ġfun":491,"ĠTom":492,"Ġcl":493,"are":494,"Ġno":495,"Ġle":496,"op":497,"Ġsc":498,"Ġnamed":499,"Ġal":500,"elt":501,"oug":502,"Ġman":503,"Ġloved":504,"side":505,"Ġsmiled":506,"ĠOne":507,"Ġtoy":508,"Ġlike":509,"ick":510,"Ġfelt":511,"Ġasked":512,"Ġfe":513,"Ġsome":514,"Ġsee":515,"Ġlooked":516,"Ġme":517,"ame":518,"Ġaround":519,"Ġro":520,"ĠTimmy":521,"omet":522,"ĠW":523,"ure":524,"Ġbr":525,"Ġbir":526,"get":527,"ice":528,"Ġboy":529,"Ġwould":530,"ong":531,"Ġstart":532,"as":533,"Ġbird":534,"Ġsomet":535,"ings":536,"Ġfa":537,"ade":538,"Ġmake":539,"Ġag":540,"Ġwhat":541,"Ġwor":542,"dd":543,"ĠYou":544,",\"":545,"Ġsays":546,"ĠBut":547,"king":548,"Ġran":549,"Ġaway":550,"own":551,"gether":552,"Ġtre":553,"Ã¢":554,"âĤ":555,"âĤ¬":556,"ag":557,"ared":558,"ie":559,"oud":560,"Ġmade":561,"Ġstarted":562,"if":563,"Ġcar":564,"Ġtogether":565,"Ġsomething":566,"Ġco":567,"ther":568,"Ġpark":569,"Ġsad":570,"Ġother":571,"ited":572,"Ġput":573,"Ġnew":574,"Ġfrom":575,"ell":576,"Ġhug":577,"Ġpr":578,"ble":579,"Ġagain":580,"ook":581,"Ġexc":582,"ach":583,"ĠL":584,"Ġgood":585,"Ġhome":586,"Ġla":587,"Ġmu":588,"ss":589,"Ġwhen":590,"Ġfl":591,"ried":592,"ep":593,"Ġwho":594,"est":595,"Ġthen":596,"Ġfound":597,"Ġch":598,"Ġdec":599,"pped":600,"hat":601,"Ġget":602,"Ġwal":603,"Ġplaying":604,"qu":605,"Ġsw":606,"ought":607,"nn":608,"Ġliked":609,"uck":610,"Ġthings":611,"ĠE":612,"ally":613,"pl":614,"ous":615,"Ġgot":616,"Ġbl":617,"Ġexcited":618,"ro":619,"ided":620,"ave":621,"Ġcame":622,"ara":623,"Ġevery":624,"Ġdecided":625,"Ġyour":626,"Ġdog":627,"ĠMom":628,"ax":629,"Ġscared":630,"ĠD":631,"Ġone":632,"Ġdown":633,"ust":634,"Ġv":635,"Ġfind":636,"Ġcare":637,"They":638,"nna":639,"ouse":640,"ap":641,"Ġbec":642,"ist":643,"Ġthan":644,"ny":645,"Ġfeel":646,"ue":647,"Ġdad":648,"Ġab":649,"Ġwill":650,"Ġmy":651,"arn":652,"Ġlook":653,"udd":654,"our":655,"Ġgr":656,"ers":657,"Ġke":658,"Ġgra":659,"us":660,"Ġdidn":661,"ways":662,"ess":663,"Ġpo":664,"Ġtoys":665,"Ġtook":666,"fe":667,"nder":668,"Ġabout":669,"Ġball":670,"Ġalways":671,"Ġlot":672,"Ġmommy":673,"ĠSam":674,"ant":675,"Ġkne":676,"bb":677,"Ġtree":678,"ise":679,"ĠF":680,"Ġoutside":681,"Ġthought":682,"ite":683,"Ġmore":684,"Ġta":685,"ened":686,"Ġlearn":687,"ret":688,"Ġho":689,"ched":690,"Ġknow":691,"eci":692,"Ġint":693,"ged":694,"Ġsor":695,"Ġcat":696,"Ġlaug":697,"Ġtake":698,"Ġold":699,"ive":700,"ia":701,"ĠMax":702,"Ġspeci":703,"Ġspecial":704,"Ġknew":705,"Ġany":706,"Ġpe":707,"udden":708,"fter":709,"Ġhow":710,"Ġsorry":711,"Ġtr":712,"ma":713,"ink":714,"But":715,"Ġshow":716,"ish":717,"uddenly":718,"Ġrun":719,"au":720,"Ġsl":721,"Ġmuch":722,"Ġtw":723,"Ġhand":724,"and":725,"Ġor":726,"Ġhouse":727,"Ġop":728,"Ġmo":729,"Ġwater":730,"Ġsk":731,"ven":732,"Ġtried":733,"Ġinto":734,"Ġsun":735,"ank":736,"Ġinside":737,"Tom":738,"Ġclo":739,"ate":740,"Ġtold":741,"Ġgave":742,"ump":743,"ĠSara":744,"ty":745,"Ġproud":746,"Ġeach":747,"Ġqu":748,"Ġen":749,"ĠWe":750,"Ġif":751,"Ġover":752,"Ġroom":753,"Ġcouldn":754,"Ġheard":755,"ace":756,"Ġnever":757,"Ġeat":758,"Ġthis":759,"ĠAnna":760,"Ġpret":761,"other":762,"dy":763,"ĠEvery":764,"ause":765,"by":766,"ak":767,"Ġplayed":768,"Ġpick":769,"ion":770,"Mom":771,"etter":772,"Ġhugged":773,"Ġexpl":774,"here":775,"ge":776,"Ġcom":777,"Ġgre":778,"Ġjust":779,"Ġnice":780,"Ġbox":781,"Ġmany":782,"Ġneed":783,"Ġwat":784,"oth":785,"Ġstr":786,"sed":787,"Ġbecause":788,"Ġoff":789,"ile":790,"'m":791,"gry":792,"Ġsmall":793,"iz":794,"Ġbu":795,"ving":796,"Ġlong":797,"Ġjo":798,"Ġsn":799,"ine":800,"Ġfo":801,"imal":802,"Ġanimal":803,"Ġbear":804,"Ġtry":805,"ough":806,"uc":807,"ort":808,"urt":809,"Ġlearned":810,"Ġunt":811,"sel":812,"ild":813,"Ġlove":814,"Ġuntil":815,"ĠMia":816,"Ġkind":817,"ft":818,"Ġbetter":819,"Ġflow":820,"ĠJack":821,"He":822,"ĠAnd":823,"Ġte":824,"Ġend":825,"Ġim":826,"urn":827,"Ġdon":828,"ves":829,"Ġcle":830,"Ġpu":831,"Ġcall":832,"Ġbest":833,"ady":834,"ars":835,"ream":836,"aut":837,"Ġad":838,"Yes":839,"vent":840,"Ġfast":841,"Ġcareful":842,"urp":843,"arden":844,"Ġgarden":845,"ĠC":846,"ĠJo":847,"Ġbeaut":848,"Ġfi":849,"Th":850,"ber":851,"Ġsky":852,"Ġthanked":853,"Ġbra":854,"Ġjump":855,"Ġeven":856,"ies":857,"Ġloud":858,"ase":859,"pt":860,"Ġby":861,"ĠSo":862,"Ġlaughed":863,"em":864,"ĠHer":865,"Ġche":866,"iny":867,"wn":868,"self":869,"Ġgl":870,"lly":871,"Ġlist":872,"It":873,"Ġcome":874,"Ġbeauti":875,"Ġhard":876,"Ġstill":877,"Ġhurt":878,"lew":879,"Ġbeautiful":880,"Ġanimals":881,"Ġlots":882,"Ġfam":883,"Ġway":884,"Ġwo":885,"Åĵ":886,"Ġra":887,"Ġunder":888,"ĠThen":889,"hes":890,"Ġlet":891,"Ġstay":892,"be":893,"ĠFrom":894,"ect":895,"Ġbad":896,"ning":897,"ct":898,"Ġsafe":899,"Ġcol":900,"ool":901,"Ġcu":902,"ast":903,"Ġboth":904,"ĠHis":905,"ople":906,"ock":907,"kay":908,"Ġrem":909,"Ġbook":910,"Tim":911,"Ġangry":912,"Ġlived":913,"ished":914,"Ġits":915,"Ġimp":916,"ree":917,"ress":918,"Ġtwo":919,"ĠÃ¢":920,"Ġpeople":921,"ane":922,"Ġbrave":923,"Ġfamily":924,"Ġshould":925,"No":926,"Ġred":927,"urpr":928,"igh":929,"Ġwalked":930,"Ġsurpr":931,"Ġflew":932,"Ġfin":933,"Ġstor":934,"Ġshare":935,"Ġdan":936,"Ġsoon":937,"ucy":938,"When":939,"Ġfly":940,"ob":941,"xt":942,"Ġpic":943,"Ġdoll":944,"fore":945,"led":946,"Ġkept":947,"Ġcalled":948,"ip":949,"Ġfore":950,"Ben":951,"Let":952,"Ġrock":953,"Ġclean":954,"Ġpretty":955,"ised":956,"Ġdoor":957,"dded":958,"Ġshiny":959,"ĠP":960,"ĠWhen":961,"Ġgoing":962,"Ġkeep":963,"Ġdra":964,"hn":965,"Ġnoise":966,"Ġnow":967,"Ġreal":968,"Ġwind":969,"Ġopened":970,"Ġadvent":971,"Ġturn":972,"ummy":973,"Ġide":974,"ary":975,"so":976,"Ġcry":977,"Ġbefore":978,"Ġcon":979,"age":980,"Ġground":981,"Ġalso":982,"Ġsto":983,"les":984,"âĤ¬â":985,"illy":986,"oon":987,"Ġey":988,"Ġcolor":989,"Ġexplore":990,"ied":991,"Ġfar":992,"Ġhas":993,"Ġidea":994,"Ġfr":995,"What":996,"kes":997,"imb":998,"Ġwar":999,"th":1000,"ture":1001,"Ġun":1002,"thing":1003,"Ġnext":1004,"Ġpicked":1005,"Ġclimb":1006,"uch":1007,"Ġnodded":1008,"That":1009,"oy":1010,"aybe":1011,"Ġsmile":1012,"Ġthr":1013,"Ġfeeling":1014,"Ġtruck":1015,"Ġwhile":1016,"Ġbed":1017,"ĠDad":1018,"Ġwalking":1019,"Ħ¢":1020,"âĤ¬âĦ¢":1021,"eet":1022,"Ġwr":1023,"Ġadventure":1024,"Thank":1025,"ger":1026,"ĠLucy":1027,"Ġpicture":1028,"ac":1029,"ĠG":1030,"Ġbeing":1031,"Ġthink":1032,"Ġgive":1033,"Ġfood":1034,"Ġma":1035,"ff":1036,"iced":1037,"Ġtra":1038,"Ġdif":1039,"Ġbre":1040,"pot":1041,"joy":1042,"Ġbro":1043,"Ġtow":1044,"ted":1045,"ious":1046,"Ġlisten":1047,"Ġclos":1048,"Ġeyes":1049,"Ġwait":1050,"ught":1051,"Ġown":1052,"Ġfish":1053,"Ġstopped":1054,"Ġafter":1055,"Ġlooking":1056,"ting":1057,"Ġflowers":1058,"ember":1059,"Ġdel":1060,"Ġwalk":1061,"Ġhands":1062,"Ġblue":1063,"ized":1064,"She":1065,"Ġslide":1066,"Ġshout":1067,"Ġrepl":1068,"Ġgreat":1069,"Ġever":1070,"Ġmean":1071,"Ġenjoy":1072,"Ġvo":1073,"Ġhead":1074,"irst":1075,"ila":1076,"Ġrain":1077,"ĠSuddenly":1078,"Suddenly":1079,"Ġnear":1080,"Ġnoticed":1081,"Ġdis":1082,"Ġforest":1083,"Ġus":1084,"Ġask":1085,"Ġimport":1086,"Ġquick":1087,"Ġremember":1088,"bbit":1089,"Ġsound":1090,"Ġapp":1091,"llow":1092,"Ġokay":1093,"Ġde":1094,"maz":1095,"Ġwork":1096,"Ġshowed":1097,"Ġwonder":1098,"Ġamaz":1099,"Ġtal":1100,"lease":1101,"Ġstick":1102,"Ġwatch":1103,"Ġimportant":1104,"bbed":1105,"We":1106,"bye":1107,"Ġstrong":1108,"gan":1109,"Ġac":1110,"Anna":1111,"Ġeveryone":1112,"Ġbright":1113,"day":1114,"fere":1115,"Ġrabbit":1116,"Ġdiffere":1117,"Ġboat":1118,"Ġour":1119,"Ġreplied":1120,"Ġsqu":1121,"Ġwhere":1122,"Ġright":1123,"Ġfollow":1124,"ĠSpot":1125,"Ġuse":1126,"Ġdoes":1127,"co":1128,"Ġwatched":1129,"able":1130,"Ġhop":1131,"Ġyell":1132,"Ġface":1133,"ath":1134,"Ġmor":1135,"Ġquickly":1136,"ĠSue":1137,"Look":1138,"ered":1139,"Ġstore":1140,"ĠN":1141,"Ġdress":1142,"Ġsure":1143,"Ġbeen":1144,"Ġbecame":1145,"ange":1146,"Ġplace":1147,"Sara":1148,"ng":1149,"Ġdifferent":1150,"Ġchild":1151,"ĠMommy":1152,"Ġcuri":1153,"aught":1154,"Ġwarm":1155,"Ġye":1156,"Ġgoodbye":1157,"Ġam":1158,"So":1159,"Ġmag":1160,"ĠBob":1161,"Ġhigh":1162,"Ġvoice":1163,"ĠR":1164,"Ġforg":1165,"Ġblock":1166,"Ġtell":1167,"Ġcake":1168,"more":1169,"Ġanymore":1170,"leep":1171,"ndma":1172,"Ġcloser":1173,"Ġcook":1174,"Ġcurious":1175,"itc":1176,"Ġfav":1177,"Ġbel":1178,"ount":1179,"Ġnight":1180,"Ġpull":1181,"Ġopen":1182,"ired":1183,"imes":1184,"ĠTh":1185,"Ġlea":1186,"ached":1187,"Ġpain":1188,"iss":1189,"Ġfirst":1190,"Ġz":1191,"Her":1192,"Ġbutter":1193,"Ġhere":1194,"Ġfell":1195,"Ġbus":1196,"Ġkid":1197,"ull":1198,"Ġgrabbed":1199,"Ġru":1200,"Ġsees":1201,"Jo":1202,"Can":1203,"unny":1204,"Ġsweet":1205,"orn":1206,"Ġonly":1207,"Ġflo":1208,"itchen":1209,"Ġkitchen":1210,"Ġthree":1211,"Ġsand":1212,"Ġhelped":1213,"Ġbirds":1214,"Ġstop":1215,"Ġdr":1216,"Ġcont":1217,"Ġcra":1218,"Ġbit":1219,"Ġba":1220,"Ġhappened":1221,"Ġjumped":1222,"Ġglad":1223,"Ġfire":1224,"Ġmon":1225,"ppy":1226,"Ġsing":1227,"Ġbeh":1228,"Ġgrass":1229,"Ġtri":1230,"Ġper":1231,"Ġcr":1232,"Ġbrother":1233,"Ġrealized":1234,"ĠDo":1235,"After":1236,"isy":1237,"Ġstory":1238,"Ġshouted":1239,"air":1240,"Ġreached":1241,"Ġmess":1242,"Ġsoft":1243,"akes":1244,"ass":1245,"ĠLet":1246,"Ġyummy":1247,"Ġlady":1248,"Ġgame":1249,"ins":1250,"Ġhaving":1251,"nts":1252,"Ġdraw":1253,"Ġate":1254,"Ġhat":1255,"Ġprin":1256,"ĠSarah":1257,"Ġpretend":1258,"zy":1259,"ĠEveryone":1260,"Ġpap":1261,"Ġthrough":1262,"Ġfavor":1263,"Ġunderst":1264,"ĠJane":1265,"'re":1266,"where":1267,"Ġcre":1268,"Ġless":1269,"Ġrest":1270,"Ġfavorite":1271,"Ġready":1272,"ater":1273,"ĠAs":1274,"Ġthing":1275,"Ġlooks":1276,"ken":1277,"Ġmaking":1278,"ather":1279,"ĠCan":1280,"Ġkids":1281,"Ġmagic":1282,"Ġreally":1283,"Ġduck":1284,"Ġpare":1285,"Ġtired":1286,"Ġpond":1287,"Ġfix":1288,"Ġcars":1289,"Ġcut":1290,"Ġworld":1291,"Wow":1292,"Ġdone":1293,"ĠThat":1294,"Ġbegan":1295,"Ġmum":1296,"Ġbunny":1297,"Mommy":1298,"Ġwaved":1299,"bo":1300,"Ġhimself":1301,"Ġcatch":1302,"Ġbutterf":1303,"Ġcoming":1304,"Ġtouch":1305,"Ġfunny":1306,"Ġcried":1307,"Ġused":1308,"fully":1309,"Ġworry":1310,"Ġpart":1311,"Ġwhy":1312,"Ġprom":1313,"uff":1314,"Ġname":1315,"ign":1316,"Ġblocks":1317,"Ġanother":1318,"Ġfill":1319,"ĠJoe":1320,"Ġste":1321,"Ġflower":1322,"Ġpus":1323,"Ġhold":1324,"Ġfro":1325,"Ġhair":1326,"Ġtast":1327,"Ġtop":1328,"Ġseen":1329,"Ġcool":1330,"ster":1331,"oney":1332,"Ġswim":1333,"rel":1334,"Ġwished":1335,"sh":1336,"eddy":1337,"iver":1338,"Ġthank":1339,"Ġmouse":1340,"Ġfloor":1341,"Ġlight":1342,"Ġgreen":1343,"Ġbag":1344,"ient":1345,"Ġdelic":1346,"Ġlikes":1347,"Ġgi":1348,"Ġpaper":1349,"Ġsmell":1350,"Ġfarm":1351,"hy":1352,"Timmy":1353,"Ġparents":1354,"As":1355,"Ġbehind":1356,"ation":1357,"olly":1358,"Ġlesson":1359,"Ġdri":1360,"Don":1361,"Ġsurprise":1362,"Ġdoing":1363,"Ġhopped":1364,"Ġdro":1365,"Ġbow":1366,"Ġworked":1367,"Ġsleep":1368,"Ġhole":1369,"ards":1370,"ĠJohn":1371,"Sam":1372,"Ġwindow":1373,"andy":1374,"Ġyellow":1375,"Ġread":1376,"Ġtrees":1377,"Ġdark":1378,"Ġdin":1379,"Ġfull":1380,"Ġsho":1381,"Ġlaugh":1382,"Ġrunning":1383,"aisy":1384,"ued":1385,"ike":1386,"ely":1387,"Ġcold":1388,"ren":1389,"Ġswing":1390,"rew":1391,"Ġsat":1392,"Ġspot":1393,"Ġwood":1394,"ul":1395,"\".":1396,"Ġsurprised":1397,"Ġslow":1398,"Ġremembered":1399,"aring":1400,"Ġbutterfly":1401,"Ġhappily":1402,"Ġset":1403,"Ġlost":1404,"Ġ-":1405,"Ġneeded":1406,"ons":1407,"Ġyears":1408,"Ġice":1409,"ĠIn":1410,"Ġheld":1411,"Ġbuy":1412,"Hell":1413,"Hello":1414,"Ġmove":1415,"Ġfrog":1416,"Ġanything":1417,"Ġwrong":1418,"Ġcarefully":1419,"uit":1420,"Ġsnow":1421,"John":1422,"Ġhear":1423,"Ġleft":1424,"Ġtall":1425,"Ġhun":1426,"ens":1427,"Ġperf":1428,"Ġdir":1429,"Ġdream":1430,"Ġfair":1431,"Ġfollowed":1432,"Ġair":1433,"Ġenjoyed":1434,"ĠLila":1435,"Ġel":1436,"Ġfinished":1437,"Ġcast":1438,"Ġchildren":1439,"cess":1440,"Ġbug":1441,"Ġbooks":1442,"Ġhot":1443,"Ġtable":1444,"inally":1445,"ined":1446,"Ġherself":1447,"Ġhill":1448,"Ġhid":1449,"reed":1450,"ĠAfter":1451,"Ġarri":1452,"Ġfriendly":1453,"Ġunderstand":1454,"ds":1455,"Ġarm":1456,"Ġcontin":1457,"Ġclose":1458,"Ġplease":1459,"Ġforgot":1460,"ross":1461,"Ġmight":1462,"Ġcolors":1463,"Ġelse":1464,"ĠBenny":1465,"Ġdelicious":1466,"Ġbroken":1467,"Ġbuild":1468,"Ġwants":1469,"asure":1470,"Ġrel":1471,"lf":1472,"ash":1473,"Ġgone":1474,"sp":1475,"Ġgent":1476,"ield":1477,"OK":1478,"Ġbaby":1479,"room":1480,"atter":1481,"Ġarrived":1482,"Ġcreat":1483,"Ġtight":1484,"Ġable":1485,"ĠNow":1486,"Ġleaves":1487,"Ġsong":1488,"Ġwonderful":1489,"Ġsomeone":1490,"Then":1491,"Ġyes":1492,"Ġwall":1493,"Ġsquir":1494,"ner":1495,"ĠSally":1496,"Ġfilled":1497,"av":1498,"Ġcontinued":1499,"ich":1500,"ĠThere":1501,"ask":1502,"Ġlion":1503,"Ġcount":1504,"Ġbreak":1505,"Ġsquirrel":1506,"Ġagreed":1507,"Ġju":1508,"Ġpink":1509,"ĠMaybe":1510,"Ġscary":1511,"Ġpoin":1512,"Ġfall":1513,"Ġenough":1514,"From":1515,"ĠDaisy":1516,"ey":1517,"Ġcastle":1518,"icy":1519,"ries":1520,"ee":1521,"man":1522,"Ġgrandma":1523,"ĠEm":1524,"Ġvis":1525,"Ġstayed":1526,"Ġhungry":1527,"Ġmakes":1528,"Jack":1529,"Ġmoment":1530,"Ġmorning":1531,"Ġsmiles":1532,"'ll":1533,"Ġfinally":1534,"Ġwet":1535,"Ġfight":1536,"Ġcomp":1537,"Ġcookies":1538,"Ġgetting":1539,"oup":1540,"Ġturned":1541,"Ġsometimes":1542,"gon":1543,"app":1544,"row":1545,"Ġpictures":1546,"Ġpi":1547,"Ġtalk":1548,"Ġbeach":1549,"rot":1550,"Ġcream":1551,"ama":1552,"ĠTommy":1553,"Ġclimbed":1554,"ĠThis":1555,"Ġothers":1556,"Ġtrying":1557,"Ġclot":1558,"Ġballoon":1559,"ĠK":1560,"Ġlistened":1561,"oom":1562,"Ġdinner":1563,"Ġamazing":1564,"Ġtail":1565,"Ġclothes":1566,"ced":1567,"Ġmus":1568,"ĠWhat":1569,"Ġfew":1570,"ance":1571,"apped":1572,"Ġmar":1573,"This":1574,"Ġmet":1575,"Ġpuppy":1576,"lc":1577,"At":1578,"Ġmother":1579,"ence":1580,"Ġdaddy":1581,"Ġperfect":1582,"oring":1583,"amp":1584,"Ġasks":1585,"Ġspl":1586,"ĠBilly":1587,"ĠGra":1588,"Ġwhite":1589,"ĠJen":1590,"key":1591,"red":1592,"Ġfur":1593,"Ġalone":1594,"ctor":1595,"uffy":1596,"Ġpet":1597,"His":1598,"Ġsail":1599,"Ġwasn":1600,"ucky":1601,"Ġsit":1602,"Ġbrought":1603,"Ġeverything":1604,"Ġsear":1605,"ister":1606,"Ġpol":1607,"der":1608,"Ġjoy":1609,"Oh":1610,"Ġgrow":1611,"ott":1612,"Ġroll":1613,"Ġstrange":1614,"Ġpulled":1615,"ated":1616,"Ġwaited":1617,"Ġpie":1618,"wl":1619,"Ġspark":1620,"Ġdeep":1621,"Ġride":1622,"ĠTo":1623,"Ġdanger":1624,"Ġwoods":1625,"Ġplan":1626,"Ġwon":1627,"Ġruns":1628,"Ġleave":1629,"Ġmusic":1630,"me":1631,"Ġthinks":1632,"Ġamazed":1633,"Ġvisit":1634,"zz":1635,"ower":1636,"Ġhide":1637,"ang":1638,"Ġteddy":1639,"Ġcloud":1640,"eter":1641,"Maybe":1642,"Ġfox":1643,"Ġpat":1644,"os":1645,"ever":1646,"Ġpen":1647,"Ġsilly":1648,"ugg":1649,"Ġliving":1650,"Ġflying":1651,"Max":1652,"ope":1653,"Ġshap":1654,"Ġem":1655,"Ġtowards":1656,"gs":1657,"Ġtreat":1658,"Ġowner":1659,"med":1660,"ames":1661,"ises":1662,"Ġpa":1663,"thy":1664,"Ġpre":1665,"Ġgu":1666,"Ġside":1667,"Okay":1668,"Ġland":1669,"Ġgrate":1670,"Ġfield":1671,"Ġlake":1672,"Ġshared":1673,"ained":1674,"Ġqui":1675,"Ġmoney":1676,"Ġpaint":1677,"cket":1678,"igg":1679,"Ġfaster":1680,"Ġparty":1681,"Ġpromised":1682,"Ġgrateful":1683,"ĠAmy":1684,"Ġsister":1685,"Ġbelie":1686,"Ġdance":1687,"Ġbott":1688,"avy":1689,"Ġrace":1690,"Ġmoral":1691,"ix":1692,"eces":1693,"Ġcup":1694,"cle":1695,"Ġtreasure":1696,"Ġbroke":1697,"up":1698,"Ġpieces":1699,"Ġcandy":1700,"Ġjob":1701,"Ġquiet":1702,"Ġworried":1703,"unch":1704,"Ġblank":1705,"Ġcolorful":1706,"sw":1707,"Ġtrain":1708,"ze":1709,"Ġbigger":1710,"Ġbran":1711,"Ġansw":1712,"Ġslowly":1713,"orm":1714,"Ġwear":1715,"outh":1716,"Ġgif":1717,"Ġdolls":1718,"Ġwelc":1719,"ually":1720,"Ġblanket":1721,"Ġreach":1722,"Ġmouth":1723,"ling":1724,"Ġmust":1725,"Ġve":1726,"Ġsnack":1727,"ol":1728,"Ġsuch":1729,"Ġcho":1730,"fort":1731,"Ġbike":1732,"Ġeverywhere":1733,"Ġele":1734,"Ġsmart":1735,"Ġscream":1736,"ased":1737,"Ġpro":1738,"Ġblack":1739,"less":1740,"ph":1741,"Ġriver":1742,"ĠAll":1743,"ire":1744,"Ġnap":1745,"Ġplant":1746,"Ġbar":1747,"Ġjoin":1748,"ĠJim":1749,"Ġmagical":1750,"Sure":1751,"Ġje":1752,"Ġpot":1753,"Ġsign":1754,"Ġprincess":1755,"Ġdangerous":1756,"Ġhelping":1757,"Ġwin":1758,"cked":1759,"Ġthrew":1760,"set":1761,"Ġdirty":1762,"ming":1763,"Ġcarrot":1764,"Ġtwins":1765,"Ġbowl":1766,"Ġdragon":1767,"Ġcrying":1768,"Ġtower":1769,"ipped":1770,"Ġbite":1771,"Ġhoped":1772,"Ġdoctor":1773,"ored":1774,"Ġmost":1775,"Ġteac":1776,"ĠFl":1777,"Ġspr":1778,"ident":1779,"Ġsame":1780,"Ġfarmer":1781,"Ġheavy":1782,"Ġbee":1783,"Ġwords":1784,"Ġmonster":1785,"Ġacc":1786,"Ġmonkey":1787,"bble":1788,"ear":1789,"ere":1790,"de":1791,"Ġheal":1792,"Ġacross":1793,"Ġcoll":1794,"Ġbath":1795,"Why":1796,"Ġdisapp":1797,"Hi":1798,"Ġbuck":1799,"Ġhig":1800,"Ġfruit":1801,"Ġstepped":1802,"ĠDaddy":1803,"Ġstre":1804,"Ġclosed":1805,"Ġstuck":1806,"eared":1807,"Mia":1808,"ĠJill":1809,"Ġheart":1810,"Ġtown":1811,"Ġfeels":1812,"chool":1813,"Ġbelieve":1814,"Ġwouldn":1815,"ĠMr":1816,"asket":1817,"Ġbasket":1818,"Ġmix":1819,"Ġteacher":1820,"Ġcray":1821,"Ġcour":1822,"Ġbutt":1823,"Ġatt":1824,"Ġeating":1825,"Ġhit":1826,"Ġschool":1827,"iting":1828,"Ġchair":1829,"ĠMolly":1830,"Ġpushed":1831,"Ġbrown":1832,"Ġyard":1833,"Ġgentle":1834,"Ġpack":1835,"Ġmin":1836,"Ġcourse":1837,"Ġneigh":1838,"Ġwithout":1839,"br":1840,"Ġclapped":1841,"issed":1842,"ord":1843,"ts":1844,"umb":1845,"Ġhigher":1846,"Ġpers":1847,"pping":1848,"Ġsmo":1849,"Ġsec":1850,"Ġneighb":1851,"Ġswings":1852,"Ġaccident":1853,"Ġfairy":1854,"Lila":1855,"ier":1856,"vel":1857,"Ġtoday":1858,"orrow":1859,"Ġgames":1860,"Ġwelcome":1861,"Ġdry":1862,"Ġstand":1863,"Ġnoises":1864,"ors":1865,"Ġdrove":1866,"Ġpocket":1867,"Ġthrow":1868,"Ġsuddenly":1869,"ventually":1870,"Ġforget":1871,"Ġlon":1872,"Ġturns":1873,"Ġhugs":1874,"Ġpiece":1875,"Ġcheered":1876,"ract":1877,"Ġfree":1878,"Ġben":1879,"Ġlonely":1880,"Ġfence":1881,"Ġhappen":1882,"Ġwings":1883,"cy":1884,"ho":1885,"ourn":1886,"Ġneck":1887,"Ġjourn":1888,"Ġlonger":1889,"Ġsang":1890,"ible":1891,"Ġexplained":1892,"ead":1893,"Ġsea":1894,"Ġalong":1895,"Ġsoup":1896,"Ġcorn":1897,"Finally":1898,"Ġstories":1899,"Ġlate":1900,"Ġupset":1901,"Ġwell":1902,"itting":1903,"Ġshoes":1904,"Ġinst":1905,"Ġsecret":1906,"Ġadventures":1907,"Ġmiss":1908,"Ġmat":1909,"Ġstars":1910,"Ġtrou":1911,"Ġcaught":1912,"phant":1913,"Ġwhe":1914,"ches":1915,"Ġsinging":1916,"Ġph":1917,"Ġrocks":1918,"oun":1919,"Ġbucket":1920,"Ġlunch":1921,"ape":1922,"ces":1923,"Ġswam":1924,"Ġdropped":1925,"Ġdist":1926,"Ġwish":1927,"Ġyoung":1928,"Ġshook":1929,"ocked":1930,"Ġdrink":1931,"Ġelephant":1932,"Ġbring":1933,"Ġmoved":1934,"yard":1935,"ment":1936,"Ġplac":1937,"Ġbelong":1938,"Ġjuice":1939,"Ġnaught":1940,"ountain":1941,"Ġstar":1942,"Ġnaughty":1943,"Ġbackyard":1944,"ek":1945,"llo":1946,"ĠGrandma":1947,"Ġmine":1948,"fused":1949,"Ġjar":1950,"Ġstreet":1951,"bow":1952,"Ġtom":1953,"Ġpast":1954,"Ġkey":1955,"ĠThank":1956,"Ġtakes":1957,"Ġtaking":1958,"ĠMary":1959,"Ġapple":1960,"Do":1961,"Ġshapes":1962,"Ġpurp":1963,"Ġorange":1964,"Ġexploring":1965,"ward":1966,"Ġshop":1967,"Ġowl":1968,"Ġcou":1969,"ush":1970,"ub":1971,"Ġnothing":1972,"Ġexp":1973,"Ġnearby":1974,"Ġpig":1975,"ĠEmma":1976,"bby":1977,"Ġwise":1978,"Ġnose":1979,"Ġwondered":1980,"Ġresp":1981,"Ġwoke":1982,"ĠFluffy":1983,"ung":1984,"Ġcomes":1985,"Ġes":1986,"Ġseemed":1987,"Ġcow":1988,"col":1989,"Ġbusy":1990,"Ġaf":1991,"Ġdes":1992,"Ġsounds":1993,"Ġmail":1994,"Ġbench":1995,"Ġtiny":1996,"Ġrelie":1997,"Ġsick":1998,"Ġinv":1999,"Ġstu":2000,"Ġpurple":2001,"Ġmark":2002,"cing":2003,"Ġrainbow":2004,"aughter":2005,"Ġarms":2006,"Ġca":2007,"Ġthough":2008,"adow":2009,"Ġnest":2010,"Ġmad":2011,"ions":2012,"fish":2013,"ose":2014,"ining":2015,"Ġmil":2016,"Ġyear":2017,"sy":2018,"pper":2019,"thday":2020,"ese":2021,"Ġ3":2022,"Ġsitting":2023,"cks":2024,"Ġob":2025,"Ġdriver":2026,"Ġholding":2027,"And":2028,"Ġround":2029,"Ġking":2030,"Ġcarry":2031,"raid":2032,"read":2033,"Ġafraid":2034,"ity":2035,"Ġbranch":2036,"ittens":2037,"Ġforever":2038,"ĠInside":2039,"Ġcir":2040,"Ġwhist":2041,"Ġhello":2042,"Ġgift":2043,"ĠO":2044,"Ġkite":2045,"weet":2046,"Ġspoon":2047,"board":2048,"Ġboun":2049,"vered":2050,"Ġcute":2051,"Ġdaughter":2052,"Ġpeace":2053,"Ġshell":2054,"Ġlift":2055,"idge":2056,"to":2057,"Ġfit":2058,"Ġcoat":2059,"Ġswimming":2060,"Ġhuge":2061,"uched":2062,"Ġtouched":2063,"ĠCome":2064,"Ġbread":2065,"Ġpatient":2066,"Of":2067,"ours":2068,"let":2069,"Ġletter":2070,"Ġbirthday":2071,"Ġpromise":2072,"Ġgrab":2073,"Ġrelieved":2074,"ĠFinally":2075,"cer":2076,"sting":2077,"Ġgives":2078,"Ġaccidentally":2079,"Ġwra":2080,"eth":2081,"Ġputs":2082,"Ġband":2083,"Ġhope":2084,"Ġmilk":2085,"gg":2086,"Ġbottle":2087,"Ġcreature":2088,"Hey":2089,"Ġfing":2090,"shine":2091,"Ġdays":2092,"Ġcheese":2093,"Ġintere":2094,"Ġlife":2095,"Ġlaughing":2096,"Ġgigg":2097,"Ġcozy":2098,"Ġcollect":2099,"alm":2100,"Ġlucky":2101,"Ġonto":2102,"Ġexciting":2103,"Ġkick":2104,"ĠSammy":2105,"Ġret":2106,"Ġmist":2107,"Ġpower":2108,"Ġspin":2109,"Ġcave":2110,"Ġcomfort":2111,"Ġdisco":2112,"Ġjourney":2113,"Ġact":2114,"Ġsunshine":2115,"og":2116,"Ġsunny":2117,"gged":2118,"Ġfan":2119,"Ġear":2120,"Ġbush":2121,"Later":2122,"Ġinstead":2123,"Ġreturn":2124,"ped":2125,"ten":2126,"arp":2127,"Ġpudd":2128,"Ġpointed":2129,"Ġinc":2130,"ness":2131,"Ġsmiling":2132,"Ġimag":2133,"ize":2134,"Ġeas":2135,"ĠMama":2136,"Ġsearched":2137,"els":2138,"Ġhoney":2139,"itch":2140,"Ġsharp":2141,"Ġroad":2142,"Ġanyone":2143,"Ġhor":2144,"ĠSoon":2145,"Ġtalked":2146,"Ġspo":2147,"Ġbought":2148,"oman":2149,"ball":2150,"Ġlater":2151,"Ġsuc":2152,"Ġwoman":2153,"Ġsandw":2154,"Ġplane":2155,"Ġgather":2156,"blem":2157,"Tommy":2158,"Ġproblem":2159,"Ġsnowman":2160,"Ġperson":2161,"mer":2162,"Ġwatching":2163,"unt":2164,"Ġcrayons":2165,"Ġsmelled":2166,"Ġhealthy":2167,"Ġrope":2168,"Ġtasty":2169,"irt":2170,"Ġtrouble":2171,"Good":2172,"Ġmeet":2173,"Ġce":2174,"Ġsu":2175,"Ġducks":2176,"round":2177,"Ġpop":2178,"Ġloves":2179,"Ġkiss":2180,"Bob":2181,"itten":2182,"Ġpile":2183,"een":2184,"Ġclouds":2185,"Ġent":2186,"Ġapples":2187,"Ġshining":2188,"Ġpar":2189,"ove":2190,"Ġstorm":2191,"Ġspid":2192,"Ġbutton":2193,"Ġinteresting":2194,"Ġmach":2195,"Ġzoom":2196,"amed":2197,"Ġorgan":2198,"Ġcard":2199,"Ġadm":2200,"Ġzoo":2201,"ĠTweet":2202,"Ġpres":2203,"Ġwide":2204,"Ġclever":2205,"Ġres":2206,"ont":2207,"Ġfeather":2208,"Ġmatter":2209,"owed":2210,"Ġpill":2211,"ale":2212,"eb":2213,"ĠSomet":2214,"ndp":2215,"Ġbark":2216,"Ġhon":2217,"Ġpract":2218,"ĠWith":2219,"Ġprot":2220,"aur":2221,"lla":2222,"Ġap":2223,"Ġrespect":2224,"Ġeag":2225,"Ġfront":2226,"Ġscreamed":2227,"epend":2228,"Ġgoes":2229,"ail":2230,"Ġmud":2231,"Ġseat":2232,"Ġprotect":2233,"Ġneighbor":2234,"Ġsaf":2235,"Ġshr":2236,"Ġquest":2237,"ex":2238,"Ġdanced":2239,"Ġhorse":2240,"isa":2241,"Ġsur":2242,"Ġtrip":2243,"Ġanswer":2244,"Ġpuzz":2245,"Ġasleep":2246,"Lucy":2247,"Ġvill":2248,"Ġpresent":2249,"Ġmyster":2250,"Ġspotted":2251,"Ġtries":2252,"Ġappeared":2253,"St":2254,"Ġsnake":2255,"erly":2256,"Come":2257,"Ġteach":2258,"Ġwhole":2259,"Ġpath":2260,"Ġgiant":2261,"Ġwild":2262,"Ġlovely":2263,"Ġcheer":2264,"ching":2265,"Ġphone":2266,"Ġslid":2267,"Ġplaces":2268,"Ġwhich":2269,"ÅĵI":2270,"Ġdi":2271,"Ġwearing":2272,"Ġteeth":2273,"Ġdirt":2274,"Ġforgive":2275,"Ġrolled":2276,"oose":2277,"Ġconfused":2278,"izz":2279,"ĠGo":2280,"ular":2281,"Just":2282,"Ġtasted":2283,"Ġminut":2284,"ones":2285,"Ġgently":2286,"Ġimpress":2287,"Ġval":2288,"Ġcouch":2289,"Ġtun":2290,"Ġfaces":2291,"Ġthin":2292,"Every":2293,"Ġrude":2294,"ĠMittens":2295,"ert":2296,"ĠHow":2297,"ssed":2298,"Ġpass":2299,"Ġcalm":2300,"Ġlive":2301,"itty":2302,"Ġmind":2303,"ndpa":2304,"Ġspent":2305,"Ġsplas":2306,"ĠJimmy":2307,"Ġpretended":2308,"Jim":2309,"Ġmed":2310,"Ġpan":2311,"cean":2312,"Ġocean":2313,"Ġash":2314,"Ġfeet":2315,"In":2316,"Ġsupp":2317,"Ġsal":2318,"Ġlad":2319,"nic":2320,"la":2321,"Ġser":2322,"Ġpour":2323,"Ġpicnic":2324,"Ġcoin":2325,"Ġmachine":2326,"Ġlay":2327,"unk":2328,"Molly":2329,"Ġsack":2330,"Ġcorner":2331,"Ġring":2332,"Ġwrite":2333,"Ġdrive":2334,"Ġworm":2335,"Ġbugs":2336,"Ġspider":2337,"Ġoven":2338,"Ġwave":2339,"Ġchocol":2340,"Ġemb":2341,"Mum":2342,"Ġpush":2343,"Ġbuilding":2344,"hile":2345,"Ġsmooth":2346,"Ġlast":2347,"Ġign":2348,"Ġtomorrow":2349,"Ġcookie":2350,"Ġhelpful":2351,"umber":2352,"arge":2353,"Ġcann":2354,"Ġcart":2355,"Ġhiding":2356,"Ġrec":2357,"als":2358,"Ġwip":2359,"Ġfurry":2360,"Ġladder":2361,"Ġremind":2362,"Ġcannot":2363,"Ġmountain":2364,"lex":2365,"ator":2366,"Ġtid":2367,"Ġblew":2368,"ĠEmily":2369,"Ġbell":2370,"Ġban":2371,"ato":2372,"Ġbubble":2373,"Ġchick":2374,"Ġpaw":2375,"Ġspread":2376,"Ġtalking":2377,"ife":2378,"Ġfighting":2379,"Ġfold":2380,"Ġfinish":2381,"Ġtool":2382,"ĠSometimes":2383,"Ġdelight":2384,"Ġembar":2385,"Ġleaf":2386,"Ġembarra":2387,"Soon":2388,"Ġsel":2389,"Ġwore":2390,"Ġpool":2391,"Ġrob":2392,"Ġfoot":2393,"Ġpuddle":2394,"Ġsongs":2395,"Ġshy":2396,"Ġknee":2397,"ĠCh":2398,"ighed":2399,"Ġspray":2400,"Ġeventually":2401,"Ġrep":2402,"Ġneckl":2403,"Ġwaiting":2404,"Ġmaybe":2405,"Ġchocolate":2406,"mo":2407,"Ġnet":2408,"Ġchased":2409,"Ġbat":2410,"Ġwhenever":2411,"Ġfixed":2412,"oph":2413,"Ġstret":2414,"ĠJust":2415,"ĠJenny":2416,"Ġbarked":2417,"Ġlarge":2418,"ult":2419,"Ġselfish":2420,"Ġstring":2421,"Ġcoo":2422,"Ġsol":2423,"ĠPlease":2424,"lebr":2425,"ĠEverywhere":2426,"Ġwash":2427,"Ġpeaceful":2428,"Ġwhistle":2429,"Ġcelebr":2430,"ĠSt":2431,"Ġstir":2432,"Ġcarrots":2433,"Ġant":2434,"Ġcross":2435,"urse":2436,"Ġspe":2437,"Ġcreative":2438,"Ġplate":2439,"Ġtaste":2440,"Ġhum":2441,"Ġbanan":2442,"Ġgen":2443,"Ġrobot":2444,"Ġtidy":2445,"ĠLe":2446,"My":2447,"Ġmoon":2448,"Ġknocked":2449,"iger":2450,"Ġtrust":2451,"Ġcrab":2452,"orry":2453,"Ġhears":2454,"Ġtells":2455,"box":2456,"Ġcloth":2457,"Ġvillage":2458,"Ġmissed":2459,"Ġstone":2460,"ungle":2461,"Ġstra":2462,"Ġcolour":2463,"Ġembarrassed":2464,"airs":2465,"Ġjungle":2466,"Ġstep":2467,"Ġrocket":2468,"Ġdecor":2469,"ĠTheir":2470,"ĠJake":2471,"ĠSome":2472,"Please":2473,"Ġspicy":2474,"Ġnecklace":2475,"elly":2476,"old":2477,"Dad":2478,"Ġtreats":2479,"Ġshelf":2480,"Ġscar":2481,"getable":2482,"Ġhel":2483,"umpy":2484,"arm":2485,"Ġshirt":2486,"Ġvegetable":2487,"Ġforward":2488,"Ġsplash":2489,"dge":2490,"Ġtea":2491,"llie":2492,"Ġsticks":2493,"Ġlegs":2494,"Ġemp":2495,"Now":2496,"Ġempty":2497,"inted":2498,"Ġsave":2499,"hnn":2500,"Ġjumping":2501,"Ġnut":2502,"Ġple":2503,"ĠAl":2504,"Ġgray":2505,"Ġwhis":2506,"Ġsharing":2507,"Ġ'":2508,"Ġgrew":2509,"Ġber":2510,"Ġsheep":2511,"aking":2512,"Ġtightly":2513,"ĠAnn":2514,"Ġlanded":2515,"Mama":2516,"most":2517,"Ġgener":2518,"Ġmeant":2519,"Ġdeter":2520,"Ġashamed":2521,"Ġbal":2522,"Ġnods":2523,"Ġdisappo":2524,"Ġpillow":2525,"ĠLisa":2526,"Ġdeterm":2527,"Ġalmost":2528,"ird":2529,"ĠTV":2530,"ying":2531,"Ġhonest":2532,"hnny":2533,"Ġpizz":2534,"ian":2535,"Ġsour":2536,"Ġgold":2537,"ĠWhy":2538,"ĠDon":2539,"Ġjew":2540,"Be":2541,"dle":2542,"Ġbreath":2543,"Ġcarried":2544,"Ġmeadow":2545,"Ġunderstood":2546,"ano":2547,"ĠOn":2548,"Ġyelled":2549,"Ġstood":2550,"Ġthese":2551,"Ġvan":2552,"erp":2553,"Ġpolice":2554,"Ġdrew":2555,"den":2556,"ground":2557,"Ġseed":2558,"Stop":2559,"Ġpay":2560,"Ġkitten":2561,"Ġwhisp":2562,"Ġsnacks":2563,"Ġprince":2564,"To":2565,"ned":2566,"Ġsuccess":2567,"Ġfear":2568,"Ġbored":2569,"Ġsparkly":2570,"gly":2571,"Ġav":2572,"Ġlem":2573,"ital":2574,"aul":2575,"Ġgun":2576,"Ġugly":2577,"ony":2578,"Ġgas":2579,"Ġshore":2580,"Ġvase":2581,"Ġdisappointed":2582,"Ġhosp":2583,"hin":2584,"Ġline":2585,"ork":2586,"ustr":2587,"kin":2588,"Ġhours":2589,"ĠTeddy":2590,"Ġhospital":2591,"Ġgroup":2592,"ĠRex":2593,"Ġclass":2594,"Ġpizza":2595,"itter":2596,"vous":2597,"Ġseek":2598,"Ġplants":2599,"iff":2600,"Ġblow":2601,"Ġknowing":2602,"Ġhidden":2603,"Ġgenerous":2604,"Ġreturned":2605,"Ġcries":2606,"oop":2607,"Ġtent":2608,"ĠZ":2609,"Ġpuzzle":2610,"ĠEven":2611,"Sarah":2612,"Ġpri":2613,"Ġmessy":2614,"Ġeasy":2615,"Ġfeed":2616,"Ġpoor":2617,"Ġglass":2618,"Ġfrustr":2619,"Ġstanding":2620,"Ġsleepy":2621,"Ġpin":2622,"Ġwaves":2623,"Ġjelly":2624,"Ġtest":2625,"Ġsighed":2626,"Ġfancy":2627,"There":2628,"Ġflag":2629,"Ġsandwich":2630,"Ġburn":2631,"ĠMum":2632,"ĠTogether":2633,"Sorry":2634,"Ġthankful":2635,"Where":2636,"Ġbedroom":2637,"Ġpowerful":2638,"Ġship":2639,"Ġtick":2640,"Ġtaught":2641,"body":2642,"Ġscarf":2643,"Ġsold":2644,"Ġkissed":2645,"Ġner":2646,"Ġcirc":2647,"ĠBe":2648,"lower":2649,"Ġcrown":2650,"Ġpir":2651,"Ġtwirl":2652,"era":2653,"Ġboring":2654,"'d":2655,"Ġdeer":2656,"Ġmot":2657,"ote":2658,"Ġnervous":2659,"Ġreg":2660,"Ġcaterp":2661,"Ġcaterpill":2662,"mb":2663,"Ġmysterious":2664,"Ġtears":2665,"arl":2666,"Ġfrustrated":2667,"Ġpolite":2668,"Ġspoil":2669,"Are":2670,"af":2671,"work":2672,"assed":2673,"Ġpassed":2674,"Ġscr":2675,"Ġcloset":2676,"Ġoften":2677,"oof":2678,"Ġhur":2679,"Ġyourself":2680,"Ġdrop":2681,"Ġminutes":2682,"Ġhang":2683,"obby":2684,"Ġdetermined":2685,"Ġfig":2686,"Ġleg":2687,"pack":2688,"Ġrad":2689,"Ġclown":2690,"Ġgets":2691,"Ġexcite":2692,"ensive":2693,"selves":2694,"issors":2695,"ina":2696,"Ġfil":2697,"Ġgate":2698,"Ġcap":2699,"Ġexpensive":2700,"Ġbridge":2701,"Ġchew":2702,"Ġdancing":2703,"iddle":2704,"Ġchest":2705,"Ġgathered":2706,"light":2707,"Ġscissors":2708,"Jane":2709,"Ġpicks":2710,"Ġflut":2711,"Ġsaved":2712,"ets":2713,"Ġfinger":2714,"usie":2715,"illed":2716,"Ġwagged":2717,"ates":2718,"ĠOK":2719,"ual":2720,"Ġesc":2721,"izzy":2722,"Ġcaterpillar":2723,"Ġwolf":2724,"ĠLeo":2725,"Ġboss":2726,"Ġwander":2727,"osaur":2728,"Ġgrumpy":2729,"Ġdrum":2730,"Ġcomfortable":2731,"Ġlock":2732,"Ġpacked":2733,"Ġqueen":2734,"Ġanswered":2735,"ond":2736,"Ġhopping":2737,"Ġworking":2738,"ots":2739,"Ġspend":2740,"Ġdogs":2741,"Ġmistake":2742,"Ġexcitement":2743,"Ġlit":2744,"Their":2745,"Ġmummy":2746,"Ġdinosaur":2747,"Ġstuff":2748,"Ġtaken":2749,"ĠPeter":2750,"Ġcand":2751,"ĠBl":2752,"Ġknight":2753,"Ġvegetables":2754,"uce":2755,"Ġmedic":2756,"Ġwheel":2757,"Ġwalks":2758,"Ġdrawing":2759,"Ġmiddle":2760,"Ġpress":2761,"Ġbone":2762,"ggs":2763,"Ġeggs":2764,"ĠBr":2765,"Ġtrue":2766,"Ġlazy":2767,"que":2768,"Ġlose":2769,"Ġgiggled":2770,"Ġcrawl":2771,"Ġones":2772,"Ġruined":2773,"Ġfruits":2774,"Ġmir":2775,"Ġwis":2776,"Who":2777,"Ġdest":2778,"ugar":2779,"Ġclap":2780,"Ġmedicine":2781,"Ġadd":2782,"Ġnumber":2783,"Ġbathroom":2784,"Ġsmelly":2785,"iness":2786,"Ġasking":2787,"ecially":2788,"Ġexam":2789,"Ġfake":2790,"Ġsugar":2791,"Ġfeathers":2792,"Ġsight":2793,"Ġstones":2794,"Ġbrush":2795,"Ġgar":2796,"Ġlicked":2797,"Ġsweetie":2798,"Ġtape":2799,"pecially":2800,"Ġespecially":2801,"ror":2802,"aser":2803,"Ġteam":2804,"Ġweak":2805,"Ġchange":2806,"ushed":2807,"Ġbody":2808,"Ġdistance":2809,"Ġnod":2810,"Ġroar":2811,"ella":2812,"Ġdrank":2813,"Ġpleased":2814,"elp":2815,"Ġlead":2816,"Me":2817,"Ġmatch":2818,"Ġbake":2819,"Ġpray":2820,"Ġcri":2821,"Ġcage":2822,"Ġsplashed":2823,"Ġfluffy":2824,"Ġballs":2825,"Ġmic":2826,"ĠIf":2827,"Ġyours":2828,"ĠNo":2829,"Ġmov":2830,"ating":2831,"Ġlying":2832,"Ġcalling":2833,"aged":2834,"Ġfis":2835,"Ġsailed":2836,"Ġmoving":2837,"uggest":2838,"Ġlemon":2839,"Ġglow":2840,"Ġtie":2841,"Ġsuggest":2842,"Ġdisappeared":2843,"Ġboard":2844,"hip":2845,"Ġsell":2846,"Ġnoisy":2847,"Ġglue":2848,"ha":2849,"ĠJohnny":2850,"Ġwrote":2851,"Ġsoap":2852,"Ġclear":2853,"ete":2854,"Ġrelax":2855,"Ġrid":2856,"Ġok":2857,"Ġweek":2858,"Ġeld":2859,"Help":2860,"Ġdecide":2861,"Ġbecome":2862,"Ġincred":2863,"Ġmoms":2864,"Ġmeasure":2865,"Ġjuicy":2866,"Ġmirror":2867,"Ġcovered":2868,"alous":2869,"Ġplayground":2870,"Jimmy":2871,"Ġshows":2872,"Ġjealous":2873,"yal":2874,"Ġhorn":2875,"Ġquestions":2876,"Ġfine":2877,"Ġrare":2878,"Ġcontent":2879,"Ġboys":2880,"ination":2881,"Ġcraw":2882,"imp":2883,"Ġeager":2884,"Ġcrawled":2885,"Ġtowel":2886,"ĠAt":2887,"Ġcheck":2888,"ipp":2889,"Ġskipped":2890,"Ġdig":2891,"Ġfather":2892,"Ġind":2893,"Ġcleaned":2894,"enny":2895,"Ġext":2896,"Ġord":2897,"Ġfamous":2898,"Ġeye":2899,"Ġtwist":2900,"Ġneeds":2901,"Sally":2902,"Ġshoot":2903,"ĠBlue":2904,"Ġgarage":2905,"Ġjoke":2906,"Ġincredible":2907,"ĠEnd":2908,"Ġtrucks":2909,"eez":2910,"Ġed":2911,"umbled":2912,"Ġsword":2913,"Ġtiger":2914,"Ġloyal":2915,"Jill":2916,"illi":2917,"Ġhose":2918,"Ġbubbles":2919,"ory":2920,"Ġmap":2921,"Ġorganized":2922,"Ġunus":2923,"Ġhappening":2924,"ti":2925,"Ġrealised":2926,"Ġbranches":2927,"Ġlamp":2928,"Ġword":2929,"fic":2930,"Ġborrow":2931,"Ġtag":2932,"Ġdiscovered":2933,"Ġmotor":2934,"Ġunusual":2935,"Ġdish":2936,"ipper":2937,"Ġhurts":2938,"Ġwand":2939,"Ġextra":2940,"cil":2941,"Ġsil":2942,"Ġfrown":2943,"Ġknife":2944,"Ġrich":2945,"Ġpencil":2946,"Ġelderly":2947,"Ġthick":2948,"Ġballoons":2949,"lies":2950,"Ġmod":2951,"Ġwhale":2952,"Ġcover":2953,"Ġdiffic":2954,"Ġlouder":2955,"Ġfigure":2956,"Ġonce":2957,"Ġcost":2958,"port":2959,"asing":2960,"ique":2961,"Ġfour":2962,"Ġguess":2963,"Billy":2964,"Ġbottom":2965,"keep":2966,"Spot":2967,"Ġdifficult":2968,"ĠKitty":2969,"Ġaw":2970,"Ġtoug":2971,"Ġlaughs":2972,"Ġflash":2973,"Ġcolourful":2974,"ĠSp":2975,"Ġunique":2976,"Ġang":2977,"Ġcompet":2978,"Ġarg":2979,"Ġoffered":2980,"Gra":2981,"Ġchase":2982,"ery":2983,"Ġham":2984,"Ġshake":2985,"Ġboxes":2986,"Ġbalance":2987,"fast":2988,"imed":2989,"Ġadded":2990,"ĠMark":2991,"Ġspun":2992,"cept":2993,"Ġturt":2994,"Ġwrapped":2995,"Ġhero":2996,"Ġbarn":2997,"Ġadventur":2998,"Ġjewel":2999,"Ġstraw":3000,"Ġberries":3001,"ately":3002,"Ġcoins":3003,"Ġkindness":3004,"ĠLittle":3005,"Ġgiving":3006,"Ġbreakfast":3007,"Ġlog":3008,"?\".":3009,"Ġchicken":3010,"ages":3011,"Sue":3012,"Ġbloom":3013,"ature":3014,"Ġbald":3015,"Ġgoat":3016,"ured":3017,"Ġbanana":3018,"rag":3019,"Ġmighty":3020,"Ġnorm":3021,"Ġadventurous":3022,"Ġswan":3023,"Ġdolp":3024,"ye":3025,"Ġfool":3026,"Ġmanaged":3027,"Ġfalls":3028,"land":3029,"Ġpump":3030,"Ġlifted":3031,"ym":3032,"Ġtough":3033,"How":3034,"Ġcher":3035,"Ġpointing":3036,"ject":3037,"Ġhelps":3038,"uggled":3039,"Well":3040,"Ġdizzy":3041,"Ġcircle":3042,"Here":3043,"Ġpee":3044,"Ġwagon":3045,"alk":3046,"olog":3047,"Ġharder":3048,"ouses":3049,"Ġdreamed":3050,"keeper":3051,"Ġcompetit":3052,"Ġweird":3053,"Joe":3054,"Ġsmoke":3055,"Ġmelt":3056,"Ġloudly":3057,"Ġnormal":3058,"oppy":3059,"Ġbelonged":3060,"Ġbossy":3061,"Ġmarket":3062,"Ġimpressed":3063,"Ġfat":3064,"Ġears":3065,"Ġgrown":3066,"Ġwrap":3067,"ĠSusie":3068,"Ġapolog":3069,"Ġskin":3070,"Ġshape":3071,"Ġhats":3072,"ilt":3073,"Ġknows":3074,"Ġicy":3075,"Ġstubb":3076,"Ġlearning":3077,"und":3078,"emo":3079,"Ġagainst":3080,"ĠMy":3081,"Ġsearch":3082,"Ġhunt":3083,"Ġhouses":3084,"Ġdepend":3085,"Ġscare":3086,"Ġenjoying":3087,"pes":3088,"anged":3089,"Ġmeans":3090,"Ġfavour":3091,"ĠBrown":3092,"Ġharm":3093,"Ġslipped":3094,"ĠRose":3095,"Ġbrothers":3096,"head":3097,"Amy":3098,"Ġrough":3099,"Ġpainting":3100,"Ġedge":3101,"reen":3102,"Ġchoose":3103,"Ġbrilli":3104,"Ġgrace":3105,"Ġrecord":3106,"Ġbuttons":3107,"Ġref":3108,"Ġfright":3109,"Ġstubborn":3110,"apping":3111,"ready":3112,"Ġfavourite":3113,"Ġshells":3114,"Ġfoolish":3115,"Ġjack":3116,"Ġsafely":3117,"Ġbrilliant":3118,"Ġbatter":3119,"Al":3120,"Ġcudd":3121,"ĠToday":3122,"Ġtoast":3123,"Ġfridge":3124,"Ġcircles":3125,"omed":3126,"Ġspace":3127,"Ġstri":3128,"iv":3129,"Ġguit":3130,"Ġter":3131,"Ġcro":3132,"Ġhappiness":3133,"rage":3134,"Ġalready":3135,"Ġrat":3136,"Ġbitter":3137,"Ġturtle":3138,"aw":3139,"erry":3140,"Ġyog":3141,"Ġwalls":3142,"Ġoffice":3143,"Ġlibr":3144,"Ġwake":3145,"Ġlaw":3146,"Ġsounded":3147,"Ġisland":3148,"Ġstrawber":3149,"Ġmixed":3150,"edient":3151,"Ġegg":3152,"Ġsaying":3153,"Ġclay":3154,"Ġdreams":3155,"Ġcrack":3156,"Ġcheerful":3157,"Mummy":3158,"ext":3159,"erg":3160,"arth":3161,"Ġtrunk":3162,"iable":3163,"Ġbags":3164,"Ġcam":3165,"Ġunl":3166,"Ġsmaller":3167,"Ġvalu":3168,"Ġmovie":3169,"Ġroof":3170,"Ġescape":3171,"ache":3172,"Ġnosy":3173,"Ġfier":3174,"Ġguitar":3175,"Ġshark":3176,"Ġnotice":3177,"Ġexcla":3178,"Ġpoured":3179,"Ġaccept":3180,"Ġparrot":3181,"Ġstronger":3182,"Ġcab":3183,"Ġstream":3184,"Ġmagn":3185,"Ġtunn":3186,"sc":3187,"Ġcrayon":3188,"Ġobedient":3189,"Ġinvited":3190,"arry":3191,"Ġweal":3192,"Ġnicely":3193,"Ġexclaimed":3194,"Ġuseful":3195,"Ġdependable":3196,"Ġlow":3197,"Ġtools":3198,"ĠMrs":3199,"Ġsuggested":3200,"Ġreliable":3201,"Ġcabin":3202,"ĠBobby":3203,"Ġfierce":3204,"Ġtimes":3205,"Ġproudly":3206,"Ġterri":3207,"Ġthu":3208,"Ġcounted":3209,"Ġscrat":3210,"Ġfingers":3211,"Ġrose":3212,"Ġcity":3213,"ado":3214,"Ġindepend":3215,"Ġshowing":3216,"ola":3217,"Ġstudy":3218,"Ġpil":3219,"ĠBu":3220,"Ġlean":3221,"irp":3222,"Ġbushes":3223,"Ġdesign":3224,"Ġabove":3225,"Ġexplored":3226,"Ġhoop":3227,"wards":3228,"Ġtummy":3229,"Ġbirdie":3230,"Ġjoined":3231,"Ġfrightened":3232,"corn":3233,"Ġstumbled":3234,"Ġdead":3235,"Ġtwig":3236,"Ġgem":3237,"ĠElla":3238,"Ġkicked":3239,"Ġfountain":3240,"Ġspinning":3241,"na":3242,"cient":3243,"Ġspoiled":3244,"Ġfrag":3245,"Ġdough":3246,"Ġlocked":3247,"Ġlights":3248,"Ġsuccessful":3249,"Ġthemselves":3250,"Ġstove":3251,"Ġusing":3252,"Ġcop":3253,"Ġmem":3254,"kn":3255,"Ġwiped":3256,"Ġjog":3257,"Ġbrightly":3258,"Ġexcitedly":3259,"Ġzip":3260,"Ġvaluable":3261,"Ġrode":3262,"Ġenorm":3263,"Ġtele":3264,"Ġindependent":3265,"Ġenormous":3266,"amond":3267,"Ġancient":3268,"az":3269,"Ġyarn":3270,"Ġswe":3271,"Ġbeak":3272,"ÅĵLet":3273,"Ġfre":3274,"ĠEllie":3275,"Ġcleaning":3276,"ĠYour":3277,"Ġthoughtful":3278,"Ġkinds":3279,"Ġdelicate":3280,"anut":3281,"Ġjam":3282,"Ġbuilt":3283,"Ġresc":3284,"ention":3285,"Ġseem":3286,"Ġeng":3287,"Ġdiamond":3288,"Ġreminded":3289,"ither":3290,"Ġsteal":3291,"Ġow":3292,"Ġpopcorn":3293,"inal":3294,"ĠNemo":3295,"Ġshadow":3296,"ipe":3297,"Ġthirst":3298,"ĠPete":3299,"orge":3300,"Ġholds":3301,"Ġshone":3302,"Ġsniff":3303,"ĠDan":3304,"Ġfragile":3305,"Ġenvel":3306,"Ġways":3307,"mbre":3308,"oot":3309,"Ġadmired":3310,"Ġumbre":3311,"Ġstat":3312,"Ġflute":3313,"iginal":3314,"Ġbean":3315,"Ġtank":3316,"Ġbounce":3317,"Ġpractice":3318,"uth":3319,"upid":3320,"known":3321,"Ġbees":3322,"ĠFin":3323,"Ġmarble":3324,"eeze":3325,"Ġflashlight":3326,"Ġchanged":3327,"Ġgrandpa":3328,"ĠDucky":3329,"Ġcostum":3330,"illa":3331,"Ġwhispered":3332,"Ġbump":3333,"Ġrubb":3334,"Ġfinding":3335,"Ġbrace":3336,"Ġpainted":3337,"Ġhelm":3338,"Ġpumpkin":3339,"Ġhalf":3340,"Ġlab":3341,"umbers":3342,"Ġsolve":3343,"Ġcamera":3344,"Ġpige":3345,"ray":3346,"cod":3347,"Ġoriginal":3348,"Ġserious":3349,"Ġstamp":3350,"Ġthirsty":3351,"Ġsuit":3352,"Ġunknown":3353,"Ġtomato":3354,"Ġstupid":3355,"uring":3356,"Ġpost":3357,"Ġdove":3358,"Ġplayful":3359,"Ġstairs":3360,"Ġraced":3361,"Ġyet":3362,"Ġbeet":3363,"Ġsleeping":3364,"Ġguard":3365,"Ġopens":3366,"Ġwealthy":3367,"ĠU":3368,"Ġclum":3369,"Ġpicking":3370,"Ġsalad":3371,"Ġenc":3372,"inary":3373,"Ġcone":3374,"Ġseeds":3375,"Ġcomput":3376,"gu":3377,"Ġpebble":3378,"Ġmis":3379,"Ġchose":3380,"Ġson":3381,"Ġcrocod":3382,"eorge":3383,"ilty":3384,"Ġallowed":3385,"Ġpeanut":3386,"Ġmole":3387,"ĠFred":3388,"Ġguilty":3389,"Em":3390,"Ġstops":3391,"Ġangel":3392,"Ġdolphin":3393,"Ġforth":3394,"Ġflex":3395,"Ġcheap":3396,"Ġnurse":3397,"dom":3398,"Ġwashed":3399,"Ġdelighted":3400,"Ġnature":3401,"iew":3402,"Ġdoesn":3403,"Ġsearching":3404,"Ġmetal":3405,"Ġcere":3406,"com":3407,"Ġclock":3408,"Ġmoder":3409,"Ġsunf":3410,"Ġcompass":3411,"anger":3412,"Ġjolly":3413,"Ġmarch":3414,"Ġboats":3415,"Ġhammer":3416,"vice":3417,"ines":3418,"Ġthose":3419,"ugged":3420,"Ġview":3421,"Ġnumbers":3422,"Ġleaving":3423,"isk":3424,"Ġtelling":3425,"Ġclumsy":3426,"See":3427,"Ġrushed":3428,"ĠBobo":3429,"ĠAlice":3430,"Ġfresh":3431,"Ġhay":3432,"Ġdull":3433,"ience":3434,"oomy":3435,"Ġpant":3436,"Ġarrow":3437,"Ġprint":3438,"Ġhairy":3439,"ĠTweety":3440,"ĠWhenever":3441,"Ġdust":3442,"Ġmissing":3443,"het":3444,"Ġregular":3445,"gest":3446,"Ġflexible":3447,"Ġacorn":3448,"ĠKim":3449,"Ġshel":3450,"Ġterrible":3451,"Ġfriendship":3452,"Ġprize":3453,"Ġmodern":3454,"!\".":3455,"Ġspilled":3456,"Ġengine":3457,"Ġtem":3458,"Ġtor":3459,"Ġjug":3460,"ations":3461,"Ġtooth":3462,"Ġsauce":3463,"Ġending":3464,"Ġbiggest":3465,"Ġload":3466,"Ġdriving":3467,"Ġavo":3468,"Ġaunt":3469,"aghet":3470,"Ġpotato":3471,"aghetti":3472,"Ġbarber":3473,"Ġenvelope":3474,"Ġsink":3475,"Ġtowers":3476,"Ġumbrella":3477,"Ġsne":3478,"Ġrub":3479,"Ġpirate":3480,"Ġdestro":3481,"ict":3482,"Ġhanded":3483,"Ġpeeked":3484,"fa":3485,"Ġpopular":3486,"Ġpatter":3487,"Ġhandle":3488,"time":3489,"Ġloll":3490,"Ġcareless":3491,"Ġwire":3492,"ĠSn":3493,"Ġdreaming":3494,"Ġcarrying":3495,"Ġbeetle":3496,"Ġscreen":3497,"ipop":3498,"Ġthunder":3499,"Ġspaghetti":3500,"Ġchar":3501,"Go":3502,"While":3503,"Ġtied":3504,"ĠMar":3505,"Ġgraceful":3506,"Ġing":3507,"Ġwing":3508,"Ġcomb":3509,"Ġprep":3510,"Ġcereal":3511,"Ġstage":3512,"ĠBella":3513,"Ġlollipop":3514,"Ġjacket":3515,"Ġtunnel":3516,"Ġstatue":3517,"Ġmush":3518,"Ġrubbed":3519,"Ġcompassion":3520,"Ġgoose":3521,"Ġknock":3522,"Ġpattern":3523,"Ġdesk":3524,"Ġreward":3525,"Ġscatter":3526,"Ġslides":3527,"redient":3528,"Ġingredient":3529,"Ġshocked":3530,"Ġer":3531,"Ġcomputer":3532,"Ġcur":3533,"ision":3534,"Ġnote":3535,"Ġdeliver":3536,"Ġscale":3537,"Ġstack":3538,"Ġmel":3539,"robe":3540,"Ġsquare":3541,"Ġgrand":3542,"Ġmeal":3543,"arsh":3544,"Ġbull":3545,"Ġtrap":3546,"Ġliz":3547,"Ġtruth":3548,"Ġcrazy":3549,"Ġbracelet":3550,"Ġcrocodile":3551,"ĠMike":3552,"eezed":3553,"Ġpengu":3554,"Ġpow":3555,"Ġtravel":3556,"Ġwitch":3557,"Ġshiver":3558,"Ġgasped":3559,"Ġmask":3560,"Ġimagined":3561,"âĤ¬âĢ":3562,"Ġimpressive":3563,"Ġrug":3564,"Ġtrash":3565,"Ġperform":3566,"Ġpersist":3567,"ellig":3568,"Ġcollar":3569,"Ġearth":3570,"ĠWhile":3571,"Ġintellig":3572,"ĠPe":3573,"Ġearly":3574,"Ġpup":3575,"Ġjumps":3576,"Ow":3577,"Ġthinking":3578,"Ġadvice":3579,"host":3580,"io":3581,"uddy":3582,"ement":3583,"iches":3584,"Ġwheels":3585,"Ġstranger":3586,"Ġcrane":3587,"Ġspring":3588,"uper":3589,"Ġnames":3590,"Ġenv":3591,"Ġperm":3592,"Ġwindows":3593,"Ġenth":3594,"comfort":3595,"Ġfork":3596,"ÅĵWhat":3597,"Ġspoke":3598,"ibb":3599,"Ġghost":3600,"illie":3601,"ĠDave":3602,"Ġbent":3603,"ikes":3604,"ĠLook":3605,"Ġbeauty":3606,"ophie":3607,"Ġstickers":3608,"Ġcreate":3609,"Ġobject":3610,"Ġlibrary":3611,"Ġenthus":3612,"Ġcelebrate":3613,"Ġmushroom":3614,"Ġingredients":3615,"aches":3616,"comfortable":3617,"Ġwaff":3618,"Ġmill":3619,"Ġgrowing":3620,"Ġorder":3621,"Ġwarned":3622,"Ġphot":3623,"Ġmailbox":3624,"Ġuncomfortable":3625,"Ġdiscover":3626,"Ġbutterflies":3627,"Ġreading":3628,"Ġpale":3629,"Ġhipp":3630,"Ġtorn":3631,"awn":3632,"Ġcamp":3633,"Ġsorts":3634,"Ġsparkled":3635,"ĠHere":3636,"ÅĵLetÃ¢":3637,"Ġpigeon":3638,"Ġquestion":3639,"Ġsofa":3640,"ebra":3641,"Ġharmless":3642,"Ġcomplet":3643,"Ġletters":3644,"Ġparade":3645,"coa":3646,"Ġcompetitive":3647,"Ġflour":3648,"ÅĵYes":3649,"Ġanx":3650,"tter":3651,"Ġsudden":3652,"ÅĵIt":3653,"Ġuncle":3654,"Ġpretending":3655,"Ġpenny":3656,"Ġgor":3657,"Ġdestroy":3658,"Ġsandwiches":3659,"Ġnuts":3660,"Ġahead":3661,"Ġrece":3662,"Ġblueber":3663,"orant":3664,"Ġcounting":3665,"Ġpatch":3666,"loo":3667,"Ġbadly":3668,"ips":3669,"ince":3670,"Ġpony":3671,"Ġshut":3672,"Ġlizard":3673,"Ġanxious":3674,"Ġzebra":3675,"Ġbeep":3676,"Ġplaced":3677,"Ġsurf":3678,"Ġcooking":3679,"Ġpiano":3680,"Ġneat":3681,"Ġhumble":3682,"Ġhook":3683,"ices":3684,"Ġencou":3685,"Ġsadly":3686,"Ġsnuggled":3687,"Ġcocoa":3688,"Ġuniver":3689,"Ġhung":3690,"Ġmay":3691,"Ġignorant":3692,"ĠGrandpa":3693,"ric":3694,"Ġtwirled":3695,"Ġintelligent":3696,"Ġstation":3697,"Ġsunflower":3698,"Ġbase":3699,"Ġotter":3700,"stri":3701,"ses":3702,"ĠcouldnÃ¢":3703,"ĠMummy":3704,"aid":3705,"oe":3706,"Ġpersistent":3707,"Ġdug":3708,"Ġpepper":3709,"Ġtriang":3710,"Ġnail":3711,"Ġcards":3712,"Ġrefused":3713,"Yay":3714,"Ġtask":3715,"Ġspeed":3716,"Ġgum":3717,"ief":3718,"Ġrules":3719,"cream":3720,"Ġgloomy":3721,"Ġcupboard":3722,"Ġpants":3723,"gust":3724,"arian":3725,"Ġchance":3726,"Ġfearful":3727,"Ġtur":3728,"Ġchasing":3729,"ud":3730,"Ġcharming":3731,"Ġleash":3732,"Ġstarts":3733,"Ġshaking":3734,"Ġdisgust":3735,"Ġsett":3736,"Ġcreatures":3737,"Ġdeaf":3738,"Ġattract":3739,"ĠGive":3740,"ĠBear":3741,"used":3742,"Ġtrick":3743,"Ġcarp":3744,"Ġordinary":3745,"Mary":3746,"Ġtrack":3747,"ĠFr":3748,"Ġpasta":3749,"cu":3750,"Ġresist":3751,"erable":3752,"ĠWh":3753,"Ġanywhere":3754,"Ġtrump":3755,"Ġolder":3756,"Ġcartoon":3757,"Ġsuper":3758,"lcano":3759,"Ġcurt":3760,"Ġgifted":3761,"cut":3762,"Ġhippo":3763,"Ġcurtain":3764,"Ġled":3765,"Ġyawn":3766,"Ġmiserable":3767,"ceed":3768,"Ġsquash":3769,"Ġcourage":3770,"Ġcricket":3771,"ĠSm":3772,"Ġbrighter":3773,"Ġgorilla":3774,"Give":3775,"Ġimpat":3776,"Re":3777,"bled":3778,"Ġsend":3779,"Ġpurse":3780,"Ġgir":3781,"Ġalert":3782,"Ġjet":3783,"Ġpracticed":3784,"Ġturkey":3785,"Ġclub":3786,"Ġhurry":3787,"Ġhelmet":3788,"Ġshouts":3789,"Ġvalue":3790,"Ġdecorate":3791,"ĠPat":3792,"Ġbandage":3793,"ĠSh":3794,"opus":3795,"ctopus":3796,"Ġsoldier":3797,"Ġfu":3798,"urb":3799,"Ġcompl":3800,"Ġostri":3801,"Ġscoot":3802,"ĠJoey":3803,"Ġimpatient":3804,"Ġtire":3805,"Ġcase":3806,"Ġdisturb":3807,"iest":3808,"htub":3809,"Ġallig":3810,"Ġvolcano":3811,"Ġcompassionate":3812,"Ġtrumpet":3813,"Ġbathtub":3814,"Ġshine":3815,"Ġoctopus":3816,"Ġbounced":3817,"Ġsupport":3818,"Ġitself":3819,"aked":3820,"ĠToby":3821,"Ġspell":3822,"Ġdrawer":3823,"Ġcarpet":3824,"Ġdisgusting":3825,"Ġjeep":3826,"ĠEventually":3827,"Ġpressed":3828,"ĠAre":3829,"Ġsalt":3830,"Ġbicy":3831,"Ġmeas":3832,"Ġgrabs":3833,"Ġfilthy":3834,"Ġmelon":3835,"ĠLola":3836,"noon":3837,"Ġcomet":3838,"Ġafternoon":3839,"Ġbarking":3840,"Ġmug":3841,"Ġrestless":3842,"aff":3843,"Ġshoe":3844,"Ġhunter":3845,"Bye":3846,"Ġenvious":3847,"Ġbri":3848,"Ġhelpless":3849,"Ġtray":3850,"Ġfirework":3851,"Ġsucceed":3852,"Ġpulls":3853,"icop":3854,"ĠWhere":3855,"icopter":3856,"Ġstretched":3857,"Ġtemp":3858,"Ġten":3859,"ubby":3860,"Ġnowhere":3861,"ĠAlex":3862,"Ġskip":3863,"Ġadmire":3864,"Ġattractive":3865,"Ġcryst":3866,"Ġlively":3867,"Ġnobody":3868,"Ġmagnet":3869,"Ġhelicopter":3870,"aroo":3871,"Ġshield":3872,"Ġexplain":3873,"angaroo":3874,"gging":3875,"Ġhuman":3876,"Ġrepe":3877,"aurant":3878,"Ġneedle":3879,"Ġorganize":3880,"gn":3881,"Ġsomewhere":3882,"If":3883,"Ġfive":3884,"Ġrestaurant":3885,"Ġgiggle":3886,"Ġcush":3887,"aby":3888,"Ġcats":3889,"Ġcows":3890,"Ġleop":3891,"Ġvine":3892,"Ġanyway":3893,"Ġbarrel":3894,"ser":3895,"Ġkangaroo":3896,"Ġbet":3897,"Ġvide":3898,"Ġmonkeys":3899,"Ġattic":3900,"Ġsplit":3901,"Benny":3902,"Ġsticker":3903,"Ġcooked":3904,"Ġlions":3905,"ĠTweetie":3906,"Ġreco":3907,"Ġwishes":3908,"Ġostrich":3909,"ĠPolly":3910,"ophone":3911,"Ġdess":3912,"enry":3913,"Ġthief":3914,"ÅĵThat":3915,"Ġthread":3916,"Ġchubby":3917,"Ġpoem":3918,"Ġants":3919,"Ġsandbox":3920,"Ġfurther":3921,"Ġbackpack":3922,"Ġseal":3923,"Ġpun":3924,"Ġgoal":3925,"Ġdistant":3926,"Ġrespectful":3927,"ĠMandy":3928,"ebook":3929,"Ġtap":3930,"inking":3931,"Ġscrew":3932,"ĠCl":3933,"Ġradio":3934,"Ġnotebook":3935,"Ġvi":3936,"Ġpaws":3937,"ummer":3938,"astic":3939,"Ġribb":3940,"stairs":3941,"Ġholes":3942,"Ġharsh":3943,"Ġunpack":3944,"Ġfinds":3945,"Ġraven":3946,"par":3947,"Ġmuff":3948,"Ġsent":3949,"Ġsepar":3950,"Ġpushes":3951,"Everyone":3952,"iskers":3953,"Ġmath":3954,"Ġfireman":3955,"Ġmodest":3956,"Ġstirred":3957,"Ġswitch":3958,"arlie":3959,"Alice":3960,"Ġalligator":3961,"Ġsteps":3962,"shed":3963,"Ġstared":3964,"Ġelev":3965,"orable":3966,"Ġfrowned":3967,"ĠEverything":3968,"Ġpackage":3969,"night":3970,"Ġsweater":3971,"Ġleopard":3972,"Ġhedge":3973,"Ġavoc":3974,"Ġpand":3975,"Ġcardboard":3976,"Ġbicycle":3977,"hood":3978,"stic":3979,"Ġwheat":3980,"Ġmicr":3981,"ipping":3982,"Ġsize":3983,"Ġlid":3984,"Ġrice":3985,"Ġcube":3986,"Ġsheet":3987,"Ġelevator":3988,"Ġsoar":3989,"Ġfort":3990,"Ġdrawings":3991,"cycle":3992,"Ġbikes":3993,"Ġbehave":3994,"Ġjokes":3995,"Ġlightning":3996,"Ġcandle":3997,"ĠSmith":3998,"Ġur":3999,"Ġadorable":4000,"Ġimpro":4001,"iastic":4002,"Ġsilver":4003,"Ġenthusiastic":4004,"Ġmeat":4005,"Ġbreat":4006,"ĠBrownie":4007,"ci":4008,"Ġhive":4009,"iron":4010,"Ġbears":4011,"Ġsort":4012,"Ġhaircut":4013,"elery":4014,"Ġexper":4015,"Ġspeak":4016,"gie":4017,"Ġhappier":4018,"heart":4019,"Ġdessert":4020,"Ġmicrophone":4021,"ĠBuddy":4022,"come":4023,"Ġsle":4024,"Ġloop":4025,"Ġchain":4026,"irit":4027,"Ġquite":4028,"Ġrepair":4029,"Ġhall":4030,"Ġeither":4031,"aila":4032,"ccol":4033,"Ġpal":4034,"ĠBill":4035,"uct":4036,"ĠGeorge":4037,"Daisy":4038,"ccoli":4039,"Ġenerg":4040,"Ġstretch":4041,"Ġrecogn":4042,"Ġtroubled":4043,"Ġquar":4044,"reci":4045,"Ġmarry":4046,"Ġoy":4047,"ĠLee":4048,"Ġchalk":4049,"ĠRed":4050,"Ġprov":4051,"aulif":4052,"Ġtripped":4053,"Ġswinging":4054,"cast":4055,"Ġfle":4056,"Ġboots":4057,"Ġpole":4058,"Ġappreci":4059,"Ġroared":4060,"Ġlistening":4061,"Ġriding":4062,"Ġpaid":4063,"Ġjellyfish":4064,"Ġgro":4065,"Ġstom":4066,"Ġdishes":4067,"ailable":4068,"Ġgolf":4069,"Ġpapers":4070,"Ġpor":4071,"Ġforgave":4072,"Ġshovel":4073,"Ġcact":4074,"Ġoat":4075,"year":4076,"Ġlip":4077,"Ġchecked":4078,"Ġsandcast":4079,"apa":4080,"Ġrescue":4081,"Ġclapping":4082,"Ġscold":4083,"Ġrod":4084,"Ġshelter":4085,"eer":4086,"ĠdidnÃ¢":4087,"Ġmama":4088,"Ġinse":4089,"Ġwallet":4090,"Ġbin":4091,"cond":4092,"Ġsecond":4093,"Ġbuzz":4094,"Ġavailable":4095,"Ġcelery":4096,"Ġsock":4097,"Ġobser":4098,"fee":4099,"Ġink":4100,"Ġshakes":4101,"Ġpushing":4102,"happy":4103,"Ġtriangle":4104,"Ha":4105,"Ġeraser":4106,"ffee":4107,"Ġmessage":4108,"Ġcaulif":4109,"Ġpeek":4110,"Ġgrapes":4111,"Ġpalace":4112,"Ġalive":4113,"Ġtrains":4114,"Ġshopkeeper":4115,"Little":4116,"Ġtrop":4117,"Ġcolours":4118,"Ġfalling":4119,"Ġknot":4120,"Ġfeelings":4121,"Ġbroccoli":4122,"Ġsailor":4123,"Ġpoint":4124,"ĠWhiskers":4125,"ube":4126,"Ġrag":4127,"Ġcountry":4128,"Ġbreaks":4129,"Ġcostume":4130,"Ġcactus":4131,"Ġspirit":4132,"Ġlear":4133,"Ġraft":4134,"Ġsmells":4135,"Ġjudge":4136,"Ġyach":4137,"olin":4138,"Ġlearnt":4139,"Ġsummer":4140,"Ġlaser":4141,"Ġonion":4142,"Ġsoftly":4143,"Ġtuna":4144,"ron":4145,"render":4146,"Ġshrimp":4147,"Daddy":4148,"Ġscooter":4149,"Ġtrophy":4150,"Ġluck":4151,"Ġputting":4152,"Ġclimbing":4153,"Ġended":4154,"Ġpolish":4155,"Ġraining":4156,"ĠSnow":4157,"Ġcrystal":4158,"Ġmen":4159,"Ġmild":4160,"Ġreind":4161,"Ġart":4162,"azz":4163,"play":4164,"bul":4165,"Ġstarting":4166,"reeze":4167,"ucked":4168,"Ġvisited":4169,"ĠGrace":4170,"Ġzoomed":4171,"Ġrubber":4172,"edy":4173,"Ġtreasures":4174,"Ġbasketball":4175,"ooped":4176,"Ġunhappy":4177,"ĠOr":4178,"Ġstrugg":4179,"Ġhoping":4180,"Ġrolling":4181,"Ġsprink":4182,"ef":4183,"Ġappl":4184,"Ġenergy":4185,"ĠWould":4186,"Ġgiven":4187,"Ġcauliflower":4188,"Jenny":4189,"Ġtube":4190,"Ġol":4191,"Ġyacht":4192,"sist":4193,"Ġlaund":4194,"Ġpilot":4195,"Ġpipe":4196,"aled":4197,"Ġped":4198,"Ġlaundry":4199,"Ġunlock":4200,"Ġpenguin":4201,"Ġsaus":4202,"icer":4203,"Ġneighbour":4204,"Ġcooler":4205,"ĠBunny":4206,"ĠJerry":4207,"Ġhotel":4208,"Grandma":4209,"Ġframe":4210,"Ġhadn":4211,"Ġreindeer":4212,"Ġflies":4213,"ĠPaul":4214,"Ġdive":4215,"Ġdisplay":4216,"Ġtricks":4217,"Ġcups":4218,"Ġbarks":4219,"Ġkay":4220,"Ġquit":4221,"Ġbelt":4222,"Ġshort":4223,"aggie":4224,"Ġthanks":4225,"Ġbul":4226,"Ġsweetheart":4227,"Ġbur":4228,"Ġcoffee":4229,"ait":4230,"ĠSandy":4231,"ecause":4232,"Ġpeach":4233,"Ġdisag":4234,"Ġairport":4235,"Ġincl":4236,"pe":4237,"ĠBet":4238,"kelet":4239,"sely":4240,"ĠAndy":4241,"ĠSophie":4242,"Ġoil":4243,"Ġevening":4244,"Ġdrops":4245,"Ġjournal":4246,"Ġfilm":4247,"Ġsym":4248,"Ġshade":4249,"Ġthrows":4250,"Ġlawy":4251,"Ġtax":4252,"Ġcord":4253,"ides":4254,"Ġstuffed":4255,"Ġcushion":4256,"ney":4257,"Ġfolder":4258,"Ġbulb":4259,"Ġlives":4260,"Ġpad":4261,"ĠTr":4262,"Ġskill":4263,"Ġiron":4264,"seum":4265,"Ġmarched":4266,"hino":4267,"Ġclosely":4268,"Ġbananas":4269,"Ġphoto":4270,"zzy":4271,"Ġambul":4272,"Ġvend":4273,"Ġleaned":4274,"nger":4275,"Ġtub":4276,"Ġpanda":4277,"Ġsurrender":4278,"Ġfootball":4279,"Ġfisher":4280,"Ġstrawberry":4281,"ense":4282,"Ġinsist":4283,"Ġmuseum":4284,"Ġplanet":4285,"Ġwool":4286,"Ġpair":4287,"Ġfauc":4288,"Ġcounter":4289,"Ġporch":4290,"ges":4291,"keleton":4292,"Ġlend":4293,"bol":4294,"ito":4295,"Ġdiary":4296,"Ġpainter":4297,"affe":4298,"Ġsymbol":4299,"Ġtheater":4300,"Ġcherries":4301,"Ġambulance":4302,"Ġtaxi":4303,"Ġax":4304,"Ġrhino":4305,"Ġswung":4306,"Ġcomplete":4307,"Ġwaving":4308,"ites":4309,"Ġfrogs":4310,"eath":4311,"Ġheads":4312,"Ġsteak":4313,"Ġfields":4314,"Ġapologized":4315,"Ġfaucet":4316,"izes":4317,"Ġviolin":4318,"Ġlie":4319,"ccer":4320,"quito":4321,"mand":4322,"ĠRo":4323,"Ġforgotten":4324,"Ġinsect":4325,"Ġplastic":4326,"Ġreef":4327,"nam":4328,"Ġhut":4329,"Ġmule":4330,"Ġcheek":4331,"..":4332,"Ġpage":4333,"ckey":4334,"Ġhockey":4335,"Ġpowder":4336,"âĤ¬âĢľ":4337,"Ġsoccer":4338,"ÅĵYou":4339,"Ġmagaz":4340,"Ġimagine":4341,"Ġlime":4342,"Ġcable":4343,"Ġimagination":4344,"erop":4345,"Ġshouldn":4346,"eropl":4347,"Ġaeropl":4348,"Ġvet":4349,"Ġmos":4350,"Ġbaking":4351,"ween":4352,"Ġtrail":4353,"Ġwinter":4354,"Ġsunset":4355,"Ġskeleton":4356,"ĠPapa":4357,"Ġwife":4358,"Ġcreated":4359,"Ġbetween":4360,"angu":4361,"Ġbelongs":4362,"Ġgiraffe":4363,"Ġquarrel":4364,"Ġvendor":4365,"Ġlangu":4366,"Ġpirates":4367,"Ġmosquito":4368,"any":4369,"Ġsoil":4370,"Ġplayer":4371,"Ġsir":4372,"Ġchirp":4373,"ected":4374,"Ġgrocer":4375,"stead":4376,"Ġkitty":4377,"Ġaxe":4378,"ĠRos":4379,"Ġrever":4380,"iling":4381,"ctory":4382,"ues":4383,"ories":4384,"aces":4385,"Ġpoints":4386,"urch":4387,"Ġbreeze":4388,"Ġwipe":4389,"Ġmotorcycle":4390,"Ġtemple":4391,"Ġherb":4392,"Ġeagerly":4393,"Ġyogurt":4394,"Ġsneak":4395,"Ġslept":4396,"anic":4397,"ĠMillie":4398,"Ġfactory":4399,"Ġminute":4400,"ippery":4401,"Ġshouting":4402,"nament":4403,"Ġslippery":4404,"Ġattention":4405,"Ġstud":4406,"Ġmeeting":4407,"Ġkayak":4408,"Ġlawyer":4409,"chair":4410,"Ġblowing":4411,"Ġfisherman":4412,"chanic":4413,"Ġperfectly":4414,"Ġmixer":4415,"Ġcane":4416,"Ġnovel":4417,"Ġornament":4418,"Ġseeing":4419,"Ġpoke":4420,"Ġargue":4421,"Ġglowing":4422,"imi":4423,"Ġmechanic":4424,"Ġpit":4425,"Ġfishing":4426,"Ġsprayed":4427,"Ġchickens":4428,"Ġseas":4429,"Ġoffer":4430,"spap":4431,"imney":4432,"Ġvest":4433,"Ġmaze":4434,"Ġheaded":4435,"Ġnewspap":4436,"men":4437,"Ġweather":4438,"Ġtwink":4439,"Ġarmchair":4440,"Ġavocado":4441,"Ġnapkin":4442,"Ch":4443,"Ġskull":4444,"ĠdonÃ¢":4445,"Ġblankets":4446,"Ġcelebrated":4447,"Ġrot":4448,"Ġsung":4449,"ĠMaria":4450,"Ġchimney":4451,"ison":4452,"place":4453,"Ġglove":4454,"Ġhopes":4455,"Ġitch":4456,"Ġzipper":4457,"lass":4458,"Ġgreedy":4459,"iture":4460,"Ġflame":4461,"urniture":4462,"Ġbaseball":4463,"Ġsquirrels":4464,"Your":4465,"inarian":4466,"eterinarian":4467,"Ġfurniture":4468,"ĠWill":4469,"aud":4470,"Ġgolden":4471,"ĠBun":4472,"Ġmystery":4473,"Inside":4474,"Ġvideo":4475,"Ġflea":4476,"Ġtoil":4477,"Ġshower":4478,"Ġmoves":4479,"Ġveterinarian":4480,"Ġknob":4481,"ceros":4482,"Ġwelcomed":4483,"Ġdoors":4484,"Ġoyster":4485,"Eventually":4486,"Ġsniffed":4487,"Ġpetals":4488,"Ġwags":4489,"Ġparent":4490,"Ġkingdom":4491,"Ġfollows":4492,"Ġtoilet":4493,"Ġhar":4494,"erc":4495,"Ġble":4496,"Ġhappens":4497,"Ġcalls":4498,"Ġmemories":4499,"Ġbury":4500,"Ġdiscu":4501,"Ġfreez":4502,"Ġmop":4503,"Ġjunk":4504,"Ġtear":4505,"reek":4506,"Ġhanging":4507,"was":4508,"Ġlawn":4509,"Ġwriting":4510,"Ġrhinoceros":4511,"Ġcreek":4512,"Ġlotion":4513,"Ġapplaud":4514,"mm":4515,"ĠGod":4516,"Ġvroom":4517,"Ġsticky":4518,"unately":4519,"Ġsurround":4520,"washer":4521,"elcome":4522,"Together":4523,"Ġreve":4524,"Ġsque":4525,"Ġfireplace":4526,"Ġquack":4527,"Ġthrowing":4528,"ler":4529,"Ġminer":4530,"Ġdishwasher":4531,"hero":4532,"Ġexerc":4533,"Ġcoal":4534,"Ġtrave":4535,"Ġsuperhero":4536,"Ġaeroplane":4537,"lasses":4538,"Ġweigh":4539,"Ġprun":4540,"Ġpopped":4541,"Ġmedal":4542,"Ġpassport":4543,"Ġpine":4544,"Ġshoulder":4545,"Ġburned":4546,"Ġsunglasses":4547,"tain":4548,"Ġstaff":4549,"Ġchurch":4550,"Ġignored":4551,"Next":4552,"tress":4553,"ĠLilly":4554,"Ġshrugged":4555,"low":4556,"Ġdear":4557,"Ġveil":4558,"Ġmattress":4559,"Ġclassroom":4560,"Ġbother":4561,"aws":4562,"Ġig":4563,"ĠUn":4564,"Ġigloo":4565,"rosc":4566,"Ġgrin":4567,"orses":4568,"Ġregret":4569,"iday":4570,"Ġcob":4571,"Ġflapped":4572,"Ġcollected":4573,"ĠHarry":4574,"Ġagre":4575,"Ġworth":4576,"Ġdancer":4577,"ĠRu":4578,"Emma":4579,"Ġsailing":4580,"Ġcrib":4581,"roscope":4582,"right":4583,"Ġtug":4584,"Ġsince":4585,"Ġhorses":4586,"Ġinvest":4587,"Ġbattery":4588,"ring":4589,"asis":4590,"ĠInstead":4591,"ores":4592,"Ġcrow":4593,"Today":4594,"una":4595,"ssible":4596,"Ġmistakes":4597,"Ġmicroscope":4598,"Because":4599,"Ġswamp":4600,"Ġlanguage":4601,"Ġfought":4602,"Ġbouncing":4603,"Ġpresents":4604,"Ġseparate":4605,"Ġoak":4606,"Ġfloat":4607,"Ġskirt":4608,"Ġagree":4609,"Ġinvestig":4610,"ety":4611,"Ġquietly":4612,"Ġstreng":4613,"Ġpastry":4614,"rod":4615,"web":4616,"inked":4617,"Ġoasis":4618,"ĠIÃ¢":4619,"case":4620,"Ġinf":4621,"ĠCharlie":4622,"Ġdressed":4623,"Ġeaten":4624,"Wait":4625,"Ġcared":4626,"ĠBaby":4627,"Ġintrod":4628,"Ġstable":4629,"Ġmakeup":4630,"Ġbeef":4631,"Ġcandles":4632,"Ġstrength":4633,"vision":4634,"Ġhol":4635,"Ġblackboard":4636,"Ġalarm":4637,"Ġcaring":4638,"Ġprevent":4639,"Ġmagazine":4640,"Ġnewspaper":4641,"Ġholiday":4642,"rs":4643,"Ġapart":4644,"Ġcrawling":4645,"Ġsizes":4646,"ĠNext":4647,"ĠAnnie":4648,"Ġcobweb":4649,"te":4650,"medi":4651,"Thanks":4652,"ĠRosie":4653,"Ġcell":4654,"Ġstraight":4655,"Ġmarried":4656,"mediately":4657,"ĠTed":4658,"ggy":4659,"Ġcomplain":4660,"Ġscolded":4661,"ĠTony":4662,"Sammy":4663,"Ġchoice":4664,"Ġcoats":4665,"Ġrooms":4666,"Ġsnap":4667,"Ġsqueezed":4668,"Ġtrusted":4669,"ĠSee":4670,"Ġinvestigate":4671,"Ġfog":4672,"anges":4673,"Ġpist":4674,"Ġpur":4675,"Ġaccepted":4676,"omes":4677,"Ġgym":4678,"Ġthumb":4679,"Ġtelevision":4680,"ĠHelp":4681,"Ġweep":4682,"Ġberry":4683,"Ġpistol":4684,"Ġpra":4685,"Ġradish":4686,"chie":4687,"Ġkisses":4688,"Ġsteam":4689,"Qu":4690,"ction":4691,"uckily":4692,"Ġsqueeze":4693,"Ġattach":4694,"Ġshrink":4695,"Ġwhisper":4696,"Ann":4697,"ab":4698,"Ġreaches":4699,"Ġnews":4700,"Ġticket":4701,"ĠitÃ¢":4702,"Ġyield":4703,"Ġpuddles":4704,"Ġsplashing":4705,"Ġappro":4706,"Ġperfu":4707,"Ġceiling":4708,"Ġrelaxed":4709,"ĠJess":4710,"Ġmusician":4711,"Ġamazement":4712,"Ġentered":4713,"Did":4714,"Is":4715,"Ġrake":4716,"Ġsigh":4717,"Ġunif":4718,"Ġjewelry":4719,"Ġblood":4720,"Ġblinked":4721,"Ġletting":4722,"Ġlicks":4723,"Ġwandered":4724,"Ġteleph":4725,"Ġbirdc":4726,"Ġcastles":4727,"Ġwigg":4728,"sters":4729,"Ġperfume":4730,"ives":4731,"ĠHenry":4732,"Ġdelay":4733,"ups":4734,"Ġchairs":4735,"Ġharb":4736,"Ġuniform":4737,"Ġbirdcage":4738,"mend":4739,"Ġstro":4740,"Ġeasily":4741,"ÅĵItÃ¢":4742,"ising":4743,"Ġyucky":4744,"Ġopera":4745,"Ġdemand":4746,"Ġhelper":4747,"Ġsuff":4748,"Ġfiref":4749,"Ġtelephone":4750,"Ġyoga":4751,"house":4752,"Ġhurting":4753,"Ġserve":4754,"ĠWho":4755,"omeday":4756,"ommend":4757,"Ġblueberries":4758,"hic":4759,"Ġrise":4760,"Ġraz":4761,"Ġbookcase":4762,"Ġgrowled":4763,"chor":4764,"ĠKate":4765,"Ġrecommend":4766,"Ġpinch":4767,"Ġfreezer":4768,"Ġrequ":4769,"Ġspear":4770,"Ġclaws":4771,"Ġkeeping":4772,"Ġvehic":4773,"sit":4774,"atie":4775,"ĠMiss":4776,"Ġcliff":4777,"Ġsandcastle":4778,"Ġgrill":4779,"Ġchess":4780,"Ġcrash":4781,"Ġbathe":4782,"achel":4783,"Ġwaffle":4784,"Ġsub":4785,"Ġpuzzles":4786,"Ġmatches":4787,"Ġplates":4788,"Ġdisappear":4789,"cakes":4790,"Ġtucked":4791,"Ġcrossed":4792,"Ġmustache":4793,"Ġtong":4794,"Ġfile":4795,"Ġward":4796,"ĊĠ":4797,"ĠMimi":4798,"Ġsurprises":4799,"Ġrail":4800,"Ġconf":4801,"Ġhearts":4802,"Ġribbon":4803,"Ġharbor":4804,"ival":4805,"Ġimprove":4806,"Ġdried":4807,"Ġtrade":4808,"Ġplanes":4809,"Ġwardrobe":4810,"Ġsi":4811,"ĠDanny":4812,"ived":4813,"Ġtut":4814,"Ġmint":4815,"Ġwine":4816,"alley":4817,"Ġbelow":4818,"Ġrequest":4819,"Ġcabinet":4820,"ĠSnowy":4821,"Ġbill":4822,"ionary":4823,"Ġanchor":4824,"Ġvac":4825,"Ġsomeday":4826,"raged":4827,"Ġwarmth":4828,"Ġtoes":4829,"Ġcaptain":4830,"ictionary":4831,"Ġrazor":4832,"Ġrefre":4833,"Ġapron":4834,"Mandy":4835,"Ġpoked":4836,"Ġincre":4837,"Ġbleed":4838,"Ġdictionary":4839,"amber":4840,"Ġvalley":4841,"fortunately":4842,"Ġscattered":4843,"lier":4844,"Ġwaste":4845,"anny":4846,"Ġpear":4847,"Ġfuel":4848,"Jen":4849,"Ġboot":4850,"Ġspade":4851,"Ġkneel":4852,"Ġskills":4853,"ĠSu":4854,"Ġmass":4855,"ucture":4856,"Ġsupply":4857,"ĠTrue":4858,"Ġknown":4859,"Ġstructure":4860,"Ġsafety":4861,"ah":4862,"Ġblouse":4863,"eve":4864,"Ġlaught":4865,"Ġdifferen":4866,"Ġspending":4867,"Ġlemonade":4868,"Ġmuffin":4869,"Ġlumber":4870,"Ġspots":4871,"Ġfollowing":4872,"Ġdresses":4873,"Ġexperience":4874,"Ġinstr":4875,"Ġcuddled":4876,"Ġisn":4877,"âĤ¬.":4878,"Ġmoments":4879,"Ġbalan":4880,"Will":4881,"Ġaut":4882,"Ġsaving":4883,"Ġlaughter":4884,"lend":4885,"Ġcub":4886,"ĠAb":4887,"Ġfallen":4888,"'.":4889,"Ġsnapped":4890,"Ġideas":4891,"Ġunderstanding":4892,"Yuck":4893,"Ġmyself":4894,"Ġfastest":4895,"Ġprop":4896,"Ġstrawberries":4897,"Ġairpl":4898,"ampoo":4899,"Ġcalend":4900,"oral":4901,"Ġworms":4902,"Ġtornado":4903,"Ġfest":4904,"Ġraise":4905,"Ġrow":4906,"Ġmissile":4907,"Ġjewels":4908,"Ġcalendar":4909,"Ġsneeze":4910,"Ġremove":4911,"Ġflutter":4912,"Ġbeans":4913,"Ġlugg":4914,"icing":4915,"Ġburied":4916,"Ġluggage":4917,"aped":4918,"Ġtaller":4919,"Ġyawned":4920,"Ġweap":4921,"Lisa":4922,"ĠFo":4923,"Ġimmediately":4924,"riger":4925,"Ġbravely":4926,"Ġsparkling":4927,"Ġringing":4928,"Ġenter":4929,"Ġrefriger":4930,"Ġbegged":4931,"Ġreverse":4932,"Ġrefrigerator":4933,"Ġshampoo":4934,"Ġrabbits":4935,"Ġearlier":4936,"Ġbumped":4937,"Ġroot":4938,"ĠRe":4939,"Ġbookshe":4940,"Ġhits":4941,"Ġdestroyed":4942,"Welcome":4943,"Ġlic":4944,"Ġignore":4945,"Ġinfant":4946,"Ġport":4947,"Ġsettled":4948,"ero":4949,"Ġhardly":4950,"Ġdire":4951,"Ġappreciate":4952,"vet":4953,"Ġhomes":4954,"Ġwashing":4955,"Ġgear":4956,"Ġbeamed":4957,"ĠJul":4958,"rm":4959,"Ġpages":4960,"Ġrhy":4961,"Ġsocks":4962,"htray":4963,"Ġashtray":4964,"ĠEach":4965,"Ġdestination":4966,"ĠClara":4967,"ĠHave":4968,"asp":4969,"Ġchores":4970,"Ġchamber":4971,"Ġclimbs":4972,"Ġprepare":4973,"Ġtore":4974,"Ġhanger":4975,"anna":4976,"Ġsigns":4977,"'ve":4978,"Ġcherry":4979,"Ġbreathe":4980,"Ġremain":4981,"Ġtherm":4982,"Ġtutor":4983,"With":4984,"Ġpalm":4985,"ĠIts":4986,"Ġreplace":4987,"Ġsparkle":4988,"ĠBuzz":4989,"ari":4990,"ission":4991,"Ġinvite":4992,"Ġplays":4993,"Ġdecorations":4994,"Ġvanished":4995,"Ġuniverse":4996,"Ġtide":4997,"reat":4998,"Ġsolved":4999,"Ġpermission":5000,"Ġpraised":5001,"Ġpride":5002,"inky":5003,"ĠPeople":5004,"Ġvacation":5005,"Ġtongue":5006,"Ġbookshelf":5007,"Ġpoison":5008,"bbie":5009,"Ġhills":5010,"Ġadmir":5011,"Ġdeeper":5012,"Ġscooped":5013,"Ġsits":5014,"Ġscore":5015,"Ġsparkles":5016,"Ġexamine":5017,"Ġstomach":5018,"Ġthermomet":5019,"nies":5020,"Ġfestival":5021,"Ġteaching":5022,"Ġinsisted":5023,"omob":5024,"Ġfloated":5025,"Ġquiz":5026,"Ġcrunch":5027,"Ġscratch":5028,"Ġalright":5029,"bbles":5030,"Ġautomob":5031,"osed":5032,"Ġsimp":5033,"ĠJames":5034,"sing":5035,"ĠGood":5036,"xture":5037,"Ġmailman":5038,"Ġreceived":5039,"Ġdifference":5040,"ops":5041,"Ġbelieved":5042,"Ġchirping":5043,"Ġthermometer":5044,"Ġdaisy":5045,"Ġbang":5046,"Ġdigg":5047,"Ġoranges":5048,"Ġfloating":5049,"Ġpatiently":5050,"Ġpanic":5051,"Ġstruggling":5052,"ents":5053,"Peter":5054,"Ġachie":5055,"Ġpulling":5056,"Ġdigging":5057,"Ġhers":5058,"Ġdrain":5059,"ĠFreddy":5060,"Ġpunish":5061,"Ġlicense":5062,"Ġmodel":5063,"Mark":5064,"Ġranch":5065,"thm":5066,"Ġprovide":5067,"Ġdare":5068,"Ġsty":5069,"Ġupstairs":5070,"Ġrepeat":5071,"Ok":5072,"izard":5073,"Ġgifts":5074,"ĠBefore":5075,"Ġencouraged":5076,"Ġmeasured":5077,"Ġbuzzing":5078,"Ġrestore":5079,"ĠSpike":5080,"igail":5081,"antly":5082,"Ġshooting":5083,"Ġjail":5084,"Ġglo":5085,"Ġcollection":5086,"Ġneighborhood":5087,"Ġinvit":5088,"iers":5089,"Ġbrain":5090,"Ġguy":5091,"Ġbathrobe":5092,"Ġrhythm":5093,"atch":5094,"ĠMay":5095,"Ġbites":5096,"Ġnone":5097,"Ġequ":5098,"Ġrespons":5099,"bey":5100,"osity":5101,"sity":5102,"ĠOllie":5103,"Ġinclud":5104,"Ġsew":5105,"Ġgrape":5106,"Ġcollecting":5107,"Ġlabel":5108,"Ġsausage":5109,"Ġshot":5110,"Ġworse":5111,"Ġpatterns":5112,"Ġapproached":5113,"Ġsubway":5114,"rise":5115,"Ġmention":5116,"ĠMaggie":5117,"Ġdiscuss":5118,"Mmm":5119,"Not":5120,"Ġmall":5121,"allen":5122,"Ġelephants":5123,"Ġweeks":5124,"Ġwhip":5125,"Ġtease":5126,"Ġmassage":5127,"Ġjazz":5128,"Ġspaces":5129,"Ġsprinkles":5130,"ging":5131,"xy":5132,"ĠV":5133,"Ġsore":5134,"Ġmelted":5135,"These":5136,"ĠIs":5137,"Ġchallen":5138,"Ġsetting":5139,"Ġsupposed":5140,"Ġsip":5141,"Ġshed":5142,"act":5143,"Ġbuckle":5144,"All":5145,"Ġsunrise":5146,"Ġunite":5147,"Ġbillboard":5148,"Ġgirls":5149,"Ġtwisted":5150,"Ġbricks":5151,"ium":5152,"Ġspit":5153,"Ġleak":5154,"Ġoper":5155,"Ġexercise":5156,"Ġitem":5157,"Ġmeowed":5158,"Ġflav":5159,"Ġairplane":5160,"ĠRachel":5161,"Ġvehicle":5162,"Ġwizard":5163,"allow":5164,"Ġparts":5165,"Ġwatches":5166,"Ġdiscovery":5167,"Ġjogging":5168,"ĠKing":5169,"Ġsoldiers":5170,"fied":5171,"Ġfut":5172,"Ġhesit":5173,"ĠCo":5174,"Ġbak":5175,"Fl":5176,"Ġpoppy":5177,"Ġfuture":5178,"Ġpillows":5179,"ĠBetsy":5180,"Ġhate":5181,"Ġglowed":5182,"ĠPoppy":5183,"Ġautomobile":5184,"Ġgrey":5185,"ude":5186,"Ġuniversity":5187,"Ġmarbles":5188,"Sh":5189,"Ġgust":5190,"Ġsport":5191,"aspoon":5192,"ĠEveryday":5193,"Ġmister":5194,"Ġteaspoon":5195,"Ġpigs":5196,"Ġwhistled":5197,"Ġgrocery":5198,"Ġrush":5199,"Ġbrings":5200,"ĠNut":5201,"Ġfixing":5202,"Jake":5203,"gy":5204,"Ġgain":5205,"Ġawe":5206,"Ġevent":5207,"ĠLater":5208,"Ġactually":5209,"Ġheat":5210,"Ġmanage":5211,"Ġurge":5212,"Ġlets":5213,"Ġwarning":5214,"Ġscratched":5215,"Ġsuffer":5216,"Ġbeg":5217,"Ġslice":5218,"Ġremained":5219,"Ġthrilled":5220,"Ġburning":5221,"cles":5222,"asc":5223,"ases":5224,"Ġseats":5225,"Ġgrinned":5226,"bers":5227,"ÅĵNo":5228,"Ġgrowl":5229,"Ġpaused":5230,"Ġsurrounded":5231,"Ouch":5232,"umble":5233,"Ġproblems":5234,"Ġsings":5235,"Ġstad":5236,"Ġlick":5237,"Ġstadium":5238,"Would":5239,"Ġchir":5240,"Ġworks":5241,"Ġzipped":5242,"uing":5243,"Ġtoe":5244,"ĠPenny":5245,"Ġchirped":5246,"ishing":5247,"Ġspill":5248,"ĠZoe":5249,"ĠSharing":5250,"Ġnation":5251,"Ġweapon":5252,"Ġdrinking":5253,"Ġdrinks":5254,"ĠChirp":5255,"Ġtwigs":5256,"eed":5257,"Ġcakes":5258,"Ġrust":5259,"emember":5260,"Ġwhistling":5261,"ĠRuby":5262,"Ġscur":5263,"Ġpossible":5264,"Ġracing":5265,"Ġordered":5266,"Ġeff":5267,"ĠSomeone":5268,"Ġbeat":5269,"Ġbrus":5270,"Ġstrang":5271,"Ġtracks":5272,"Before":5273,"Ġhurric":5274,"Ġobserve":5275,"Ġlect":5276,"Ġpaints":5277,"Ġreceive":5278,"Ġtour":5279,"Ġduring":5280,"Ġsneezed":5281,"Ġmarching":5282,"Ġprayed":5283,"do":5284,"Emily":5285,"Ġwaffles":5286,"Ġlaid":5287,"Ġdecision":5288,"Ġwatered":5289,"Ġhated":5290,"ĠTina":5291,"ĠJoy":5292,"cious":5293,"Ġours":5294,"Ġsliding":5295,"Ġmemory":5296,"Ġx":5297,"!\",":5298,"Ġwherever":5299,"Ġpotatoes":5300,"Ġcontain":5301,"Ġscreams":5302,"Ġlecture":5303,"ĠFro":5304,"Ġraised":5305,"Ġwaits":5306,"Ready":5307,"Ġcrunchy":5308,"Ġspaceship":5309,"Ġpetted":5310,"Ġspoons":5311,"Ġcartoons":5312,"Ġinvitation":5313,"Ġhurricane":5314,"!'":5315,"Ġearthqu":5316,"Ġcrashed":5317,"Ġolive":5318,"Ġsatis":5319,"Ġlily":5320,"Ġwarn":5321,"ĠLiz":5322,"fy":5323,"walk":5324,"Ġfasc":5325,"ities":5326,"Ġflood":5327,"Ġskipping":5328,"Ġpeanuts":5329,"Ġstrangers":5330,"Ex":5331,"Ġtomatoes":5332,"Ġfed":5333,"Ġswims":5334,"Ġcurled":5335,"Ġoperation":5336,"oved":5337,"Ġmitten":5338,"Ġfireworks":5339,"Ġsunlight":5340,"Ġpupp":5341,"Ġrecognized":5342,"ÅĵThatÃ¢":5343,"Ġmineral":5344,"cc":5345,"Ġremem":5346,"Ġbeds":5347,"Ġstrip":5348,"Ġmeasuring":5349,"hest":5350,"Ġvel":5351,"Ġcircus":5352,"Ġchewed":5353,"Le":5354,"unday":5355,"Ġdisagreed":5356,"Ġremembers":5357,"Ġvelvet":5358,"Johnny":5359,"Ġsafari":5360,"Ġplanted":5361,"Yum":5362,"Ġkindly":5363,"ipment":5364,"Ġtalent":5365,"Ġcontinue":5366,"Ġlands":5367,"Ġmouths":5368,"ĠSunday":5369,"Ġbuildings":5370,"Ġsidewalk":5371,"Ġeasier":5372,"Ġprice":5373,"Ġadmiring":5374,"Ġequipment":5375,"mother":5376,"ĠSad":5377,"Ġcomfy":5378,"Ġwond":5379,"Ġmonsters":5380,"Ġbrick":5381,"Ġbes":5382,"Ġsecrets":5383,"ÅĵIÃ¢":5384,"bbled":5385,"Ġattached":5386,"Ġfascin":5387,"Ġmeow":5388,"Ġglitter":5389,"Ġappear":5390,"Ġmountains":5391,"Ġblueberry":5392,"Ġhappiest":5393,"Ġtremb":5394,"Ġflap":5395,"Ġfet":5396,"ĠCat":5397,"Ġescaped":5398,"ddy":5399,"Ġfolded":5400,"Ġrefreshed":5401,"Ġbones":5402,"Really":5403,"Ġclearing":5404,"Ġeffort":5405,"amie":5406,"seek":5407,"ĠMe":5408,"ĠLetÃ¢":5409,"Ġselling":5410,"\",":5411,"Ġwre":5412,"Ġcompany":5413,"Ġbringing":5414,"son":5415,"Ġgaz":5416,"ĠLuna":5417,"Ġapologize":5418,"Ġprepared":5419,"Ġgloves":5420,"Ġrevealed":5421,"ĠNutty":5422,"Ġearthquake":5423,"Ġofficer":5424,"Ġlips":5425,"Ġbeside":5426,"Ġwid":5427,"Ġobey":5428,"Ġnavy":5429,"Ġonwards":5430,"Ġweren":5431,"Ġturning":5432,"Ġtrapped":5433,"ĠSteve":5434,"Ġbleeding":5435,"Ġcopper":5436,"Ġanytime":5437,"Ġsimple":5438,"Ġweight":5439,"Ġdoggy":5440,"Ġmenu":5441,"Ġsix":5442,"Ġmuddy":5443,"Ġguessed":5444,"Ġleather":5445,"ĠKatie":5446,"Ġstripes":5447,"enty":5448,"Ġprecious":5449,"Ġreminder":5450,"Moral":5451,"Ġladyb":5452,"Ġpets":5453,"Ro":5454,"Ġwanting":5455,"Ġdinosaurs":5456,"Ġwaist":5457,"ĠNot":5458,"Ġslip":5459,"loe":5460,"zag":5461,"Ġgotten":5462,"Ġsucceeded":5463,"Ġhist":5464,"Ġallow":5465,"Ġbye":5466,"Ġcatching":5467,"Ġsteel":5468,"Ġhistory":5469,"aded":5470,"ĠMat":5471,"Ġkeeper":5472,"Ġsettle":5473,"Somet":5474,"Ġpeered":5475,"Ġfirefight":5476,"Ġbrand":5477,"Ġcuddle":5478,"Ġfash":5479,"Ġoats":5480,"ÅĵWe":5481,"joyed":5482,"Ġserved":5483,"Ġeveryday":5484,"Ġoverjoyed":5485,"Ġvillag":5486,"Ġscoop":5487,"Ġfreeze":5488,"Luckily":5489,"idges":5490,"Ġwisdom":5491,"Ġpies":5492,"avid":5493,"Ġgained":5494,"ÅĵThank":5495,"Ġrested":5496,"Ġpermit":5497,"Ġstyle":5498,"Ġrained":5499,"Ġperched":5500,"ĠAbigail":5501,"Ġsoared":5502,"Ġeats":5503,"Ġpedal":5504,"Ġcutting":5505,"ĠChirpy":5506,"Ġwonders":5507,"Ġimage":5508,"Ġtastes":5509,"Ġshopping":5510,"amb":5511,"Ġprinter":5512,"Ġbowed":5513,"Ġcomforted":5514,"Ġeagle":5515,"igzag":5516,"ĠMilly":5517,"Ġwooden":5518,"Ġshadows":5519,"Ġpupil":5520,"Susie":5521,"Ġbridges":5522,"Ġrang":5523,"Ġwhatever":5524,"Ġvoices":5525,"Ġsnowball":5526,"Ġanswers":5527,"Ġfamil":5528,"Ġacorns":5529,"mble":5530,"Ġstealing":5531,"Ġfashion":5532,"Ġdecides":5533,"Ġvisiting":5534,"First":5535,"anta":5536,"Ġdrag":5537,"Ġhurried":5538,"Ġcostumes":5539,"Ġstitch":5540,"Ġbrushed":5541,"Ġagreement":5542,"Ġdownstairs":5543,"Ġwrites":5544,"Ġnails":5545,"oming":5546,"Ġbreaking":5547,"Ġemerg":5548,"ien":5549,"nie":5550,"Ġcrept":5551,"Ġexact":5552,"Ġstruggled":5553,"Ġcreation":5554,"Ġresponsible":5555,"Ġvillagers":5556,"Ġripped":5557,"ĠChr":5558,"Ġtwirling":5559,"Ġsadness":5560,"Ġcuriosity":5561,"Ġbeneath":5562,"ĠSomething":5563,"Ġdisturbed":5564,"ding":5565,"icorn":5566,"Ġunderground":5567,"Ġunicorn":5568,"Ġemergen":5569,"Ġpitch":5570,"neath":5571,"Ġtip":5572,"Ġbun":5573,"Ġweighed":5574,"Ġtremble":5575,"izing":5576,"Ġaccidents":5577,"Tweet":5578,"Ġmice":5579,"Ġpancakes":5580,"gen":5581,"Ġchef":5582,"ĠRemy":5583,"Ġfiremen":5584,"Ġcomple":5585,"Ġpracticing":5586,"ays":5587,"iggy":5588,"len":5589,"isten":5590,"ĠThese":5591,"Ġneighbors":5592,"terday":5593,"ĠJe":5594,"Ġexamined":5595,"Ġvict":5596,"Ġdoctors":5597,"Ġgrandmother":5598,"annah":5599,"xygen":5600,"Ġbare":5601,"Ġdied":5602,"ĠFloppy":5603,"Ġdecorated":5604,"Ġlemons":5605,"Ġargued":5606,"ĠQu":5607,"ira":5608,"Ġknelt":5609,"Ġspiders":5610,"Ġclaps":5611,"Ġbegin":5612,"Ġowned":5613,"Ġnetwork":5614,"Ġrides":5615,"Ġpadd":5616,"ĠSunny":5617,"Ġsting":5618,"Ġsoak":5619,"Ġrecognize":5620,"Ġladybug":5621,"Ġrealize":5622,"Happy":5623,"rr":5624,"ĠLike":5625,"Ġpeel":5626,"Ġyelling":5627,"Ġbeha":5628,"Ġactiv":5629,"ĠSpark":5630,"ishes":5631,"Ġbend":5632,"Ġarea":5633,"ĠKe":5634,"Goodbye":5635,"Ġinch":5636,"Ġkeeps":5637,"Ġzero":5638,"ales":5639,"Ġrele":5640,"Ġpinched":5641,"Ġsnail":5642,"Ġsitu":5643,"Ġmission":5644,"Ġkeys":5645,"Ġencourage":5646,"Ġprune":5647,"ashed":5648,"Sometimes":5649,"va":5650,"ĠEl":5651,"ffic":5652,"Ġwinning":5653,"ley":5654,"Ġexit":5655,"rol":5656,"Ġwondering":5657,"Ġruin":5658,"Or":5659,"mare":5660,"Ġwagging":5661,"Ġjogged":5662,"Ġtraffic":5663,"Ġaccom":5664,"Fluffy":5665,"Ġexactly":5666,"Ġloose":5667,"Ġzooming":5668,"Ġstirring":5669,"Ġolives":5670,"Ġstudied":5671,"Ġlines":5672,"ĠHoppy":5673,"Ġzigzag":5674,"Ġpastel":5675,"Ġtune":5676,"Rex":5677,"rin":5678,"Ġcape":5679,"riage":5680,"laire":5681,"Ġsneaked":5682,"Ġtugged":5683,"Ġrelease":5684,"Ġtickets":5685,"Ġsatisfied":5686,"Ġwreck":5687,"ib":5688,"Ġoxygen":5689,"Ġeight":5690,"Ġsiren":5691,"Ġbunnies":5692,"looking":5693,"gers":5694,"Ġunderneath":5695,"Ġunlocked":5696,"uke":5697,"Ġago":5698,"ĠRa":5699,"Ġnightmare":5700,"Ġbuckets":5701,"Ġchallenge":5702,"Ye":5703,"Ġoutdo":5704,"ĠFirst":5705,"Ġslapped":5706,"Ġlandsc":5707,"Ġhonk":5708,"Ġinstruct":5709,"Ġfascinated":5710,"Ġcaut":5711,"Ġnicer":5712,"ulu":5713,"Ġaccompl":5714,"Un":5715,"Ġweb":5716,"ĠStop":5717,"Ġshivering":5718,"ĠBir":5719,"Ġloving":5720,"Ġpockets":5721,"Ġstretching":5722,"ĠTiny":5723,"ĠHowever":5724,"Ġpiles":5725,"Ġpunished":5726,"zen":5727,"Ġdent":5728,"Ġmittens":5729,"ĠLucky":5730,"Ġplanned":5731,"Ġprotected":5732,"Ġsolut":5733,"Ġneighbourhood":5734,"Ġcompetition":5735,"Ġdraws":5736,"ĠOl":5737,"Ġgathering":5738,"Ġproperly":5739,"ĠBubbles":5740,"ĠUncle":5741,"Ġitems":5742,"ĠTw":5743,"usan":5744,"Ġcontrol":5745,"Ġsupplies":5746,"Ġemergency":5747,"Ġlied":5748,"Ġshoulders":5749,"indy":5750,"Ġparked":5751,"Ġtravell":5752,"Ġsights":5753,"Ġsoaring":5754,"Ġmarkers":5755,"Ġlandscape":5756,"Dave":5757,"ik":5758,"kins":5759,"ÅĵCan":5760,"Ġperfor":5761,"ĠJan":5762,"Ġpearl":5763,"ÅĵDon":5764,"Ġruler":5765,"Ġdeser":5766,"Ġfetch":5767,"ĠItÃ¢":5768,"Ġfrosting":5769,"Ġbouncy":5770,"ĠSanta":5771,"Ġann":5772,"Ġstruck":5773,"Ġtouching":5774,"Ġinstructions":5775,"ayla":5776,"ica":5777,"Andy":5778,"Ġburrow":5779,".'":5780,"Ġpeaches":5781,"Ġprinted":5782,"Ġloaded":5783,"inda":5784,"Ġsisters":5785,"ĠAnne":5786,"omas":5787,"thank":5788,"Ġfoods":5789,"Ġmuscles":5790,"Ġintroduc":5791,"Ġbarely":5792,"ÅĵLook":5793,"Ġmarks":5794,"bbing":5795,"Ġopin":5796,"Ġstole":5797,"Ġcrumb":5798,"Ġdrift":5799,"Ġmixing":5800,"Ġincrease":5801,"Ġvictory":5802,"Ġtonight":5803,"Ġdam":5804,"ĠBig":5805,"agull":5806,"Joey":5807,"Ġfrozen":5808,"Ġrainbows":5809,"Ġapplauded":5810,"Ġmast":5811,"Ġbudge":5812,"Ġsilence":5813,"Mar":5814,"bric":5815,"ury":5816,"Ġsides":5817,"Ġeast":5818,"Ġfabric":5819,"Ġstrings":5820,"Ġrocked":5821,"shing":5822,"ux":5823,"Ġourselves":5824,"Teddy":5825,"ĠDid":5826,"Ġteasing":5827,"Ġrubbing":5828,"Ġvent":5829,"Ġgiggling":5830,"âĤ¬âĢĿ":5831,"Bella":5832,"Ġsoaked":5833,"Ġguns":5834,"Ġbank":5835,"Ġseagull":5836,"Ġoutdoors":5837,"ĠAn":5838,"Ġpretti":5839,"aky":5840,"Ġplanets":5841,"Ġprettiest":5842,"Ġbottles":5843,"Ġbrushes":5844,"Ġcompleted":5845,"Ġreleased":5846,"edding":5847,"Ġchases":5848,"Ġsweeties":5849,"Ġpouring":5850,"uesday":5851,"Ġscurried":5852,"Ġdragons":5853,"Ġbunch":5854,"Ġvowed":5855,"Ġpears":5856,"Ġprints":5857,"Ġseason":5858,"oed":5859,"Ġwest":5860,"Ġstair":5861,"Ġmovies":5862,"Ġsurface":5863,"ĠFrank":5864,"Ġpurred":5865,"Ġtim":5866,"Ġpoking":5867,"Ġbloomed":5868,"Ġdemanded":5869,"nes":5870,"oh":5871,"ĠBeth":5872,"ĠletÃ¢":5873,"Ġbaked":5874,"bies":5875,"Ġtickle":5876,"Ġintroduce":5877,"Mr":5878,"Ġ1":5879,"Ġmater":5880,"Ġsteep":5881,"Ġdiscovering":5882,"Ġcamping":5883,"ĠSuzy":5884,"Ġmateri":5885,"Ġbroom":5886,"Ġdragged":5887,"Ġwinner":5888,"Ġmuffins":5889,"uctantly":5890,"Ġsighs":5891,"ednes":5892,"imy":5893,"Ġcatches":5894,"ĠJosh":5895,"Ġbabies":5896,"ednesday":5897,"George":5898,"Ġmachines":5899,"Ġurged":5900,"ĠOnce":5901,"ĠTuesday":5902,"Ġmentioned":5903,"zie":5904,"Ġlux":5905,"Ġherbs":5906,"Ġda":5907,"icked":5908,"ÅĵHello":5909,"ÅĵThis":5910,"Ġbeard":5911,"Ġroaring":5912,"Cl":5913,"ĠCarl":5914,"Ġsinger":5915,"Ġscreaming":5916,"Ġstamps":5917,"Ġconfident":5918,"ora":5919,"ĠWednesday":5920,"Ġcones":5921,"Ġproject":5922,"Ġinterest":5923,"Ġguys":5924,"ena":5925,"Ġdrives":5926,"Ġhorns":5927,"dam":5928,"jam":5929,"Ġpretends":5930,"avi":5931,"Ġpowers":5932,"Ġtexture":5933,"ĠBetty":5934,"though":5935,"Ġpassing":5936,"ĠChloe":5937,"Ah":5938,"ĠAm":5939,"ĠJones":5940,"Mike":5941,"ern":5942,"ĠPip":5943,"Ġcontest":5944,"Ġribbons":5945,"Ġcrowd":5946,"Ġwound":5947,"Ġgoals":5948,"ason":5949,"Ġranger":5950,"Ġchips":5951,"Ġstudying":5952,"Ġbalancing":5953,"Lola":5954,"Ġmatched":5955,"Ġexpect":5956,"Ġresult":5957,"Ġsausages":5958,"Ġdisagree":5959,"Ġcal":5960,"Ġpout":5961,"ilo":5962,"ĠHa":5963,"Ġsorted":5964,"Ġmarriage":5965,"Bobby":5966,"Ġhighest":5967,"Ġpebbles":5968,"Ġcurly":5969,"Ġkicking":5970,"Ġsuitc":5971,"Ġgazed":5972,"Ġshock":5973,"ĠDavid":5974,"Ġforgi":5975,"Ġcuts":5976,"Ġreluctantly":5977,"Ġpatience":5978,"ĠCoco":5979,"Ġshelves":5980,"Ġshivered":5981,"ĠRabbit":5982,"Henry":5983,"Ġge":5984,"Ġhugging":5985,"Ġchat":5986,"Ġstrike":5987,"Ġrepeated":5988,"uzz":5989,"Maggie":5990,"fit":5991,"uly":5992,"Ġyouth":5993,"Ġwaiter":5994,"Ġcurtains":5995,"ĠJulie":5996,"Ġfault":5997,"Ġacted":5998,"Ella":5999,"Ġsway":6000,"Ġwedding":6001,"Ġgrant":6002,"Ġflags":6003,"Paul":6004,"Ġplenty":6005,"die":6006,"Ġti":6007,"ĠJamie":6008,"exp":6009,"Ġfigured":6010,"ĠHop":6011,"Ġgoodnight":6012,"Ġmatching":6013,"Ġthreat":6014,"Ġpaintings":6015,"Ġtwinkling":6016,"Ġfart":6017,"ĠBye":6018,"Ġoutfit":6019,"Ġincluded":6020,"Ġcautious":6021,"Pete":6022,"Remember":6023,"Ġslimy":6024,"Ġpoliceman":6025,"Ġchewing":6026,"eezing":6027,"Ġdusty":6028,"Ġregretted":6029,"Kitty":6030,"esome":6031,"Ġtheirs":6032,"Ġsweets":6033,"Ġentire":6034,"Ġsolution":6035,"Ġintroduced":6036,"Ġtowels":6037,"irts":6038,"Ġsorting":6039,"ĠAlways":6040,"Ġblooming":6041,"Ġpenguins":6042,"Ġsituation":6043,"ĠTilly":6044,"Ġthro":6045,"usted":6046,"ledge":6047,"Grandpa":6048,"Ġrecorded":6049,"lowly":6050,"expected":6051,"Ġstare":6052,"Ġguest":6053,"Grace":6054,"Ġinclude":6055,"Ġthroat":6056,"ivery":6057,"you":6058,"Ġflat":6059,"ĠCar":6060,"Ġrocking":6061,"ults":6062,"Ġachieve":6063,"hins":6064,"Ġunexpected":6065,"Uh":6066,"bl":6067,"mas":6068,"Ġheel":6069,"Ġknowledge":6070,"bert":6071,"Afterwards":6072,"ĠcanÃ¢":6073,"ĠRob":6074,"Ġprunes":6075,"Ġdentist":6076,"ĠSure":6077,"igi":6078,"Ġblink":6079,"Ġsticking":6080,"Ġcheering":6081,"izzie":6082,"Ġlibrarian":6083,"Ġrescued":6084,"Ġagrees":6085,"ĠSusan":6086,"Ġstaring":6087,"Ġtruly":6088,"Ġsnugg":6089,"Ġspraying":6090,"cuse":6091,"Ġroots":6092,"ĠLulu":6093,"Ġawesome":6094,"Leo":6095,"Ġluxury":6096,"jamas":6097,"vin":6098,"Ġcompletely":6099,"ĠChrist":6100,"Yeah":6101,"ÅĵDonÃ¢":6102,"iar":6103,"hell":6104,"Ġast":6105,"itely":6106,"Ġhomework":6107,"Ġwritten":6108,"Ġcaused":6109,"Ġfoc":6110,"Ġmotion":6111,"...":6112,"Sophie":6113,"Ġlap":6114,"Ġlearns":6115,"Ġuses":6116,"Ġgrowling":6117,"Ġarguing":6118,"Ġboom":6119,"Ġimportance":6120,"Ġcreating":6121,"Ġzookeeper":6122,"essie":6123,"Ġbravery":6124,"Ġwandering":6125,"Excuse":6126,"Ġtrembling":6127,"hello":6128,"Ġdared":6129,"Ġshined":6130,"Ġexha":6131,"Ġscales":6132,"Ġrolls":6133,"Ġroads":6134,"ĠZoom":6135,"ĠChristmas":6136,"go":6137,"Ġslap":6138,"Ġdelivery":6139,"Ġworkers":6140,"Ġcrackers":6141,"njoy":6142,"vers":6143,"oys":6144,"ĠGr":6145,"Ġarrive":6146,"Ġdirection":6147,"immer":6148,"ÅĵOh":6149,"Ġreaching":6150,"Ġsafer":6151,"Ġreplac":6152,"Mittens":6153,"Ġbead":6154,"Ġkneeled":6155,"Ġbelly":6156,"asm":6157,"Ġsnakes":6158,"Ġwires":6159,"Mrs":6160,"Ġscra":6161,"Ġcomm":6162,"Ġstruggle":6163,"opes":6164,"boat":6165,"Ġexpected":6166,"ĠSadly":6167,"Ġexhausted":6168,"une":6169,"icky":6170,"Ġhealed":6171,"Ġorganizing":6172,"Ġventured":6173,"aa":6174,"Ġwink":6175,"ĠJu":6176,"Ġmane":6177,"lowers":6178,"ĠMatt":6179,"ĠYes":6180,"Ġlamb":6181,"Ġbecoming":6182,"Ġgreet":6183,"Ġcrumbs":6184,"ences":6185,"lee":6186,"Ġflames":6187,"Ġusual":6188,"ĠLeave":6189,"Ġcrabs":6190,"Ġdolphins":6191,"ĠJohnson":6192,"Ġpajamas":6193,"oline":6194,"Ġinviting":6195,"Ġworries":6196,"angled":6197,"Ġleader":6198,"Ġpencils":6199,"irm":6200,"Ġunited":6201,"Ġowners":6202,"Ġstorekeeper":6203,"iles":6204,"ÅĵWhy":6205,"Ġpacking":6206,"Ġrelief":6207,"Ġbaker":6208,"Ġheav":6209,"ĠMart":6210,"Ġboo":6211,"Ġfirm":6212,"ĠLou":6213,"Ġpolishing":6214,"Ġpots":6215,"Ġtraveled":6216,"Ġtimer":6217,"Ġcash":6218,"Ġfairies":6219,"ĠJessie":6220,"Ġsuitcase":6221,"ĠyouÃ¢":6222,"Ġcloses":6223,"Ġcough":6224,"ĠPipp":6225,"Ġworker":6226,"Ġpartic":6227,"Ġrockets":6228,"ĠAbby":6229,"Ġpatted":6230,"Ġtrips":6231,"Ġvanish":6232,"Ġradishes":6233,"However":6234,"Ġpeeking":6235,"Ġdirect":6236,"ĠwasnÃ¢":6237,"Ġvalued":6238,"Ġprayer":6239,"Ġseems":6240,"Ġquacked":6241,"int":6242,"Ġfara":6243,"Ġstartled":6244,"Ġmisses":6245,"Ġdesp":6246,"Ġfaraway":6247,"Ġcent":6248,"iding":6249,"Ġcountryside":6250,"Ġmelting":6251,"Ġphotos":6252,"Ġitchy":6253,"Ġusually":6254,"Ġgroceries":6255,"ĠUnfortunately":6256,"Ġflavor":6257,"James":6258,"Ġcans":6259,"Ġrestored":6260,"Ġreveal":6261,"Ġwiggled":6262,"Ġinterested":6263,"ords":6264,"Ġstern":6265,"Ġremoved":6266,"Ġfuzzy":6267,"Ġbalanced":6268,"Ġseesaw":6269,"Ġresting":6270,"ĠOut":6271,"Ġscru":6272,"Ġknights":6273,"Bad":6274,"Ġstem":6275,"Ġchuck":6276,"ĠClaire":6277,"Ġopening":6278,"ĠJenna":6279,"Ġteaches":6280,"Fine":6281,"Ġrisk":6282,"Ġwrist":6283,"ĠThomas":6284,"Ġcracked":6285,"Ġwinked":6286,"ĠBeing":6287,"ĠJeff":6288,"Ġopinion":6289,"Ġcous":6290,"ids":6291,"Ġleap":6292,"Ġeverybody":6293,"Ġdesert":6294,"Ġsneaky":6295,"Ġhissed":6296,"ĠFor":6297,"Ġrubs":6298,"Ġobserved":6299,"Ġtwinkle":6300,"Annie":6301,"Ġcause":6302,"Ġcott":6303,"Ġsled":6304,"Ġunf":6305,"Ġparticular":6306,"Ġlined":6307,"Ġden":6308,"Ġseven":6309,"Ġroses":6310,"Ġprincesses":6311,"Ġpastels":6312,"Ġpoems":6313,"Ġsigned":6314,"Ġtickled":6315,"Ġfaced":6316,"ĠLinda":6317,"Ġtractor":6318,"Ġmagnets":6319,"Ġactivities":6320,"Run":6321,"ĠBoth":6322,"Ġwasted":6323,"Ġswooped":6324,"brush":6325,"Ġseashell":6326,"ĠFollow":6327,"Ġsnowballs":6328,"Fred":6329,"Sp":6330,"dies":6331,"rance":6332,"Ġrings":6333,"ĠBy":6334,"Ġreply":6335,"ophia":6336,"Ġsilent":6337,"Alex":6338,"Millie":6339,"Ġstaying":6340,"ĠPandy":6341,"Ġsingle":6342,"Ġadding":6343,"Ġcubes":6344,"Ġbeads":6345,"aze":6346,"umm":6347,"ĠLuke":6348,"Ġcoloured":6349,"Ġsandcastles":6350,"Ġreplaced":6351,"Rose":6352,"Ġhi":6353,"Ġkites":6354,"Ġswirl":6355,"Ġstolen":6356,"acob":6357,"Ġtricked":6358,"Ġmarker":6359,"Ġprovided":6360,"Ġfirefighters":6361,"Fr":6362,"ĠSorry":6363,"Ġhowever":6364,"Ġremote":6365,"Charlie":6366,"ĠFox":6367,"Ġfarther":6368,"Ġfreed":6369,"isies":6370,"ĠJon":6371,"Ġnaps":6372,"Ġlollipops":6373,"Ġdaisies":6374,"Ġlung":6375,"Ġdipped":6376,"Ġwears":6377,"ĠPut":6378,"Ġbowls":6379,"ÅĵWhatÃ¢":6380,"Ġpaddled":6381,"Ġspike":6382,"Ġcashier":6383,"Ġcolored":6384,"Ġpastries":6385,"ĠQuack":6386,"hee":6387,"Ġnect":6388,"ĠLizzy":6389,"ĠEarth":6390,"ĠEnjoy":6391,"Ġbadge":6392,"ĠDoggy":6393,"Ġnectar":6394,"Ġsobbed":6395,"Ġcelebration":6396,"ĠKeep":6397,"Bl":6398,"Ġlogs":6399,"ĠJazz":6400,"coat":6401,"ĠY":6402,"Ġslam":6403,"ÅĵMommy":6404,"Ġdarkness":6405,"Ġprotecting":6406,"Ġminerals":6407,"Ġaff":6408,"ana":6409,"Ġliqu":6410,"Ġtallest":6411,"Ġmarked":6412,"Ġawake":6413,"ĠBuzzy":6414,"Ġcopy":6415,"Ġsquealed":6416,"Ġstroll":6417,"Ġty":6418,"Ġbumpy":6419,"Ġsnat":6420,"Ġforehead":6421,"Ġsmiley":6422,"Ġfilling":6423,"Ġsplashes":6424,"Ġrobb":6425,"ĠGigi":6426,"ĠOw":6427,"Ġwipes":6428,"Ġhelmets":6429,"Ġmasks":6430,"abel":6431,"Ġtalented":6432,"ĠHappy":6433,"Danny":6434,"Ġyounger":6435,"bbly":6436,"Ġtwin":6437,"Ġgems":6438,"Ġcautiously":6439,"tle":6440,"Ġgaze":6441,"aty":6442,"Ġyourselves":6443,"Ġstays":6444,"Ġglasses":6445,"yond":6446,"Ġwow":6447,"ĠSlowly":6448,"Ġbeyond":6449,"Ġexplorers":6450,"Ġraincoat":6451,"Ġreads":6452,"Ġpolished":6453,"Ġblows":6454,"Ġcovers":6455,"Ġdirections":6456,"Some":6457,"Ġcust":6458,"ĠHannah":6459,"sty":6460,"ĠLuckily":6461,"ĠFriend":6462,"Ġhealth":6463,"Ġtipt":6464,"boo":6465,"ĠWatch":6466,"Ġlistens":6467,"Ġattack":6468,"Ġactions":6469,"ĠMel":6470,"ĠĊĠ":6471,"ĠWater":6472,"Ġsailboat":6473,"Ġmiles":6474,"Ġentrance":6475,"Ġfluttered":6476,"Ġaccomplish":6477,"Ġbehavi":6478,"Ġmushrooms":6479,"Ġpedals":6480,"Ġfamilies":6481,"Ġchuckled":6482,"Harry":6483,"Ġdots":6484,"Ġyesterday":6485,"Ġsecure":6486,"Ġclowns":6487,"Ġrefle":6488,"fl":6489,"Ġsomebody":6490,"Ġknees":6491,"Ġspeaking":6492,"Ġtricky":6493,"cited":6494,"cers":6495,"Ġbars":6496,"Ġjoking":6497,"Ġbuying":6498,"Ġseeker":6499,"affes":6500,"Ġinsects":6501,"Ġcustom":6502,"Sandy":6503,"Ġopp":6504,"Ġripe":6505,"ppers":6506,"ĠMad":6507,"ĠAunt":6508,"Ġconn":6509,"Ġhider":6510,"iki":6511,"Sad":6512,"ĠGet":6513,"Ġfroze":6514,"Ġbumps":6515,"Ġknocks":6516,"Ġcheeks":6517,"ners":6518,"Ġparties":6519,"Ġgiraffes":6520,"Ġbeginning":6521,"Ëľ":6522,"Ġmes":6523,"ĠTess":6524,"ĠMon":6525,"âĤ¬Ëľ":6526,"itches":6527,"ĠSuzie":6528,"Ġliquid":6529,"Ġmesmer":6530,"Ġthorn":6531,"Ġscaring":6532,"ĠMomo":6533,"Ġscarves":6534,"Ġpleasure":6535,"Ġdetermination":6536,"Ġcandies":6537,"Unfortunately":6538,"Ġmi":6539,"Ġbacked":6540,"Ġhandful":6541,"Ġfolding":6542,"Ġdrums":6543,"Ġvideos":6544,"Ġleading":6545,"Ġrecording":6546,"Ġpaddle":6547,"Days":6548,"ouch":6549,"ĠMany":6550,"Ġdeal":6551,"ĠDolly":6552,"Ġmixture":6553,"Ġpause":6554,"aura":6555,"ĠChe":6556,"ĠKayla":6557,"Ġarrows":6558,"ĠNothing":6559,"Ellie":6560,"May":6561,"Ġtangled":6562,"Ġglee":6563,"ĠBo":6564,"ĠMilo":6565,"ĠAdam":6566,"Those":6567,"Ġchoices":6568,"Ġinstrum":6569,"band":6570,"Ġpiggy":6571,"alph":6572,"Ġlighter":6573,"Ġtasks":6574,"Ġweeping":6575,"Ġsense":6576,"Ġlower":6577,"ĠSqu":6578,"Ġyells":6579,"Ġimproved":6580,"Ġrecommended":6581,"Ġcalmed":6582,"Ġpouted":6583,"igers":6584,"urry":6585,"Ġclick":6586,"ĠFinn":6587,"eke":6588,"ths":6589,"Ġcupcakes":6590,"Ġsalty":6591,"Ġrusty":6592,"Ġinsp":6593,"Ġfever":6594,"Ġpaying":6595,"Ġsnatched":6596,"arter":6597,"arling":6598,"Ġdef":6599,"Ġsteer":6600,"Ġbakery":6601,"vest":6602,"Ġrumble":6603,"Ġbedtime":6604,"Ġruining":6605,"ĠCindy":6606,"Ġdiving":6607,"Ġcelebrating":6608,"Ġhesitated":6609,"Ġwidened":6610,"lay":6611,"rig":6612,"ĠMo":6613,"indr":6614,"Ġraindr":6615,"Ġafterwards":6616,"Ġsnowmen":6617,"Ġkicks":6618,"Ab":6619,"rious":6620,"Ġsmarter":6621,"?\",":6622,"Ġjackets":6623,"Ġbehaved":6624,"Ġwins":6625,"Ġflapping":6626,"aker":6627,"Ġsnuck":6628,"Ġstroked":6629,"Ġlun":6630,"iled":6631,"ĠMira":6632,"ĠLizzie":6633,"Ġsquares":6634,"Ru":6635,"Ġdances":6636,"Toby":6637,"Ġobjects":6638,"ĠJessica":6639,"Kate":6640,"no":6641,"Ġshirts":6642,"sequ":6643,"Ġcowb":6644,"ossible":6645,"Ġimpossible":6646,"Ġunpacked":6647,"ĠRover":6648,"ĠJulia":6649,"ĠSparky":6650,"Ġperforman":6651,"Ġannoy":6652,"Ġtigers":6653,"ans":6654,"ĠBird":6655,"ishy":6656,"Ġconsequ":6657,"Ġstomped":6658,"Polly":6659,"bell":6660,"cope":6661,"Ġcreamy":6662,"Ġacting":6663,"Ġdelivered":6664,"Ġhallway":6665,"Ġachieved":6666,"Ġaren":6667,"Ġchoo":6668,"Ġtramp":6669,"Ġrule":6670,"ronaut":6671,"Ġartist":6672,"rincess":6673,"Ġdeserve":6674,"Ġmaterials":6675,"Ġastronaut":6676,"atur":6677,"igning":6678,"Ġnoon":6679,"Ġnoses":6680,"Ġindeed":6681,"Ġchefs":6682,"itched":6683,"Ġrip":6684,"ĠwouldnÃ¢":6685,"Ġpans":6686,"Ġtemper":6687,"Ġornaments":6688,"ccoon":6689,"Ġraindrops":6690,"Bun":6691,"tuce":6692,"ĠMa":6693,"aren":6694,"Ġraccoon":6695,"Ġlettuce":6696,"Ġtodd":6697,"ĠLarry":6698,"Ġneedles":6699,"ĠPinky":6700,"Ġpointy":6701,"ĠEmmy":6702,"Ġwraps":6703,"Ġscratches":6704,"Ġbasement":6705,"Ġcomplained":6706,"Ġcomplaining":6707,"Ġsibl":6708,"Shh":6709,"Ġsiblings":6710,"ility":6711,"llen":6712,"Ġlosing":6713,"ivity":6714,"?'":6715,"Ġsale":6716,"oni":6717,"Ġdarker":6718,"Ġtempt":6719,"Ġdrifted":6720,"Ġscrubbed":6721,"Ġtrampoline":6722,"cl":6723,"Ġrefu":6724,"Ġmeals":6725,"Bobo":6726,"Ġpassen":6727,"Ġscrews":6728,"Ġburst":6729,"Ġfluttering":6730,"Ġtravelled":6731,"Ġhus":6732,"Ġdads":6733,"Ġteased":6734,"ndpare":6735,"ĠWithout":6736,"Ġchop":6737,"ĠEverybody":6738,"ĠNina":6739,"ĠRobby":6740,"Ġcreativity":6741,"Ġexperien":6742,"Ġdiscussed":6743,"Ġswimsuit":6744,"Ġpuppies":6745,"ĠTwo":6746,"rigued":6747,"Ġconsequences":6748,"Fin":6749,"Ġneither":6750,"Ġforgets":6751,"ne":6752,"Ġcoup":6753,"Ġmerry":6754,"ĠTara":6755,"Ġstool":6756,"Ġweeke":6757,"umbling":6758,"Ġwrapping":6759,"Ġweekend":6760,"Nina":6761,"Ġhelpers":6762,"Ġgrandpare":6763,"ÅĵDo":6764,"Great":6765,"Pat":6766,"Ġstung":6767,"Ġgracefully":6768,"Ġincluding":6769,"Ġperformance":6770,"Time":6771,"eal":6772,"ades":6773,"Ġfears":6774,"ÅĵWow":6775,"Ġtunnels":6776,"Ġtiptoed":6777,"ded":6778,"Ġwadd":6779,"Ġmer":6780,"Ġthird":6781,"Ġstain":6782,"Ġdollars":6783,"ĠPo":6784,"ĠBluey":6785,"Ġcuddly":6786,"Ġavoid":6787,"Ġenthusi":6788,"ĠGoodbye":6789,"Ġtemperature":6790,"oey":6791,"armer":6792,"Ġgross":6793,"ept":6794,"ĠwonÃ¢":6795,"anging":6796,"Ġsource":6797,"Ġenthusiasm":6798,"Katie":6799,"Ġhearing":6800,"ĠSophia":6801,"itted":6802,"Ġfact":6803,"Ġseparated":6804,"dri":6805,"ĠQ":6806,"Ġonions":6807,"elia":6808,"ĠPrincess":6809,"Ġcoloring":6810,"Ġhandsome":6811,"Ġshrinking":6812,"Ġneatly":6813,"Ġgrowls":6814,"ĠFrosty":6815,"ĠOlive":6816,"immering":6817,"Pe":6818,"the":6819,"Ġlimes":6820,"ĠMick":6821,"Ġchip":6822,"using":6823,"ÅĵCome":6824,"Ġzipping":6825,"Maria":6826,"Ġafford":6827,"Ġhusband":6828,"Ġcouple":6829,"atul":6830,"anes":6831,"Ġech":6832,"Ġrising":6833,"step":6834,"ueen":6835,"Ġsnowfl":6836,"Ġhides":6837,"Ġrivers":6838,"Meow":6839,"Ġaccomplishment":6840,"Wh":6841,"sa":6842,"ĠSque":6843,"Ġslices":6844,"Ġdollhouse":6845,"uggles":6846,"Ġcousin":6847,"Milly":6848,"ky":6849,"ĠHoot":6850,"ntil":6851,"Ġswept":6852,"Ġgrabbing":6853,"Ġbully":6854,"Ġwindy":6855,"Ġbeloved":6856,"Ġpromises":6857,"Ġplans":6858,"Ew":6859,"Ġcor":6860,"Ġgri":6861,"Ġbeam":6862,"ĠBinky":6863,"choo":6864,"Ġgrassy":6865,"Ġpeacefully":6866,"Ġhoriz":6867,"For":6868,"ĠJay":6869,"Ġblocking":6870,"Ġbows":6871,"hog":6872,"Ġbatteries":6873,"Ġrewarded":6874,"mallow":6875,"weed":6876,"Ġnine":6877,"Ġthrown":6878,"ĠSnuggles":6879,"arshmallow":6880,"Ġsprinkled":6881,"Roar":6882,"Ġhorizon":6883,"Dan":6884,"Fo":6885,"Have":6886,"Ġplayers":6887,"Ġwilling":6888,"Ġstudents":6889,"Ġdamage":6890,"Whee":6891,"ĠĠĊ":6892,"Ġamong":6893,"Ġdreamt":6894,"Ġmuscle":6895,"Ġnapkins":6896,"Ġneighbours":6897,"Ġmatters":6898,"Ġleaning":6899,"Oops":6900,"Ġaud":6901,"Ġdarling":6902,"Ġbackwards":6903,"ĠWally":6904,"Ġpecked":6905,"ĠThose":6906,"Ġrecipe":6907,"An":6908,"Ġbodies":6909,"iece":6910,"Ġtails":6911,"Ġseaweed":6912,"Ġwishing":6913,"Ġseconds":6914,"Ġforgiven":6915,"Ġhitting":6916,"Ġwept":6917,"Ġprinting":6918,"Ġdecorating":6919,"Ġhour":6920,"Ġalien":6921,"ushing":6922,"Ġprett":6923,"ÅĵHi":6924,"Ġheading":6925,"Ġplanning":6926,"Blue":6927,"Woof":6928,"Ġdod":6929,"Ġreass":6930,"Ġgobbled":6931,"Ġstarfish":6932,"Ġfeeding":6933,"Ġpraying":6934,"Ġbuzzed":6935,"ĠBirthday":6936,"Ġconcer":6937,"Ġtriangles":6938,"ÅĵYouÃ¢":6939,"Ġcenter":6940,"Ducky":6941,"Ġdancers":6942,"Ġpops":6943,"Ġrepa":6944,"Ġgasp":6945,"Ġforks":6946,"Ġrustling":6947,"Ġsnuggle":6948,"Ġheavier":6949,"Ġprettier":6950,"ĠLaura":6951,"Ġdrawn":6952,"Ġsurroundings":6953,"Ġrequested":6954,"Ġwarnings":6955,"Ġrepaired":6956,"wk":6957,"Ġdet":6958,"Ġspong":6959,"ĠListen":6960,"ĠNick":6961,"Ġstreets":6962,"Ġdesigned":6963,"Ġhedgehog":6964,"Boo":6965,"Ġdie":6966,"ados":6967,"Ġarr":6968,"ĠJacob":6969,"Ġtreehouse":6970,"Ġtwice":6971,"Ġslower":6972,"Ġ10":6973,"Lilly":6974,"Miss":6975,"Ġwoof":6976,"Ġtouc":6977,"Ġplain":6978,"ĠLena":6979,"Ġposter":6980,"Ġmagician":6981,"Ġwiping":6982,"Ġvanilla":6983,"ĠQueen":6984,"itude":6985,"Ġmarshmallow":6986,"arrow":6987,"Ġhawk":6988,"fus":6989,"Ġache":6990,"ĠRemember":6991,"Ġembarrass":6992,"ĠRobert":6993,"Ġslammed":6994,"Ġlungs":6995,"By":6996,"fall":6997,"urious":6998,"eds":6999,"irrel":7000,"esp":7001,"Ġropes":7002,"ongr":7003,"Ġintrigued":7004,"Ġcreations":7005,"Ġforgetting":7006,"Ġthud":7007,"Ġsuperheroes":7008,"Ġhesitant":7009,"Ġsy":7010,"Ġadult":7011,"Ġcounts":7012,"ments":7013,"Ġspoonful":7014,"Ġavocados":7015,"Ġnood":7016,"Ġskunk":7017,"ĠJacky":7018,"Ġpotion":7019,"Ġaudience":7020,"ongratul":7021,"--":7022,"Tina":7023,"Yummy":7024,"ippy":7025,"Ġwag":7026,"Ġpens":7027,"Ġscamp":7028,"Ġflas":7029,"Ġspreading":7030,"Ġborrowed":7031,"Ġresisted":7032,"Ġblast":7033,"Ġstands":7034,"Ġbreathed":7035,"Ġgeese":7036,"Ġtoddler":7037,"Tw":7038,"jo":7039,"ition":7040,"Ġsofter":7041,"ently":7042,"Ġswords":7043,"ĠCra":7044,"Ġwarmer":7045,"Ġfamiliar":7046,"Ġsponge":7047,"cake":7048,"yan":7049,"Ġsan":7050,"Ġpeppers":7051,"Ġjoyful":7052,"Ġimagining":7053,"Ġpresses":7054,"Ġdelivering":7055,"ĠMikey":7056,"ĠFriends":7057,"Ġscrewdri":7058,"Ġscraped":7059,"Ruby":7060,"Ġtouches":7061,"Baby":7062,"Nemo":7063,"Ġpours":7064,"ido":7065,"Ġage":7066,"ĠPam":7067,"Ġthroughout":7068,"ĠOwl":7069,"Surpr":7070,"Ġmunch":7071,"Ġnibb":7072,"endy":7073,"Ġchanging":7074,"ounce":7075,"Ġhonked":7076,"Ġzebras":7077,"Ġsqueak":7078,"Ġfirefighter":7079,"Ġmesmerized":7080,"sure":7081,"Ġroars":7082,"ĠFarmer":7083,"Ġglued":7084,"Ġwrink":7085,"Ġremembering":7086,"Ġtalks":7087,"Ġpolar":7088,"Ġbaths":7089,"ĠThanks":7090,"Ġshops":7091,"ably":7092,"Ġsports":7093,"Clara":7094,"Ġfocused":7095,"Ġscrewdriver":7096,"ĠSun":7097,"ĠAbbie":7098,"opsy":7099,"Ġcuriously":7100,"Ġdropping":7101,"Ġcorners":7102,"Ġwhispers":7103,"Ġsank":7104,"Ġnur":7105,"allowed":7106,"Ġleast":7107,"Ġswallowed":7108,"aster":7109,"Ġlifts":7110,"ael":7111,"Ġspices":7112,"Ġblinking":7113,"Ġpuff":7114,"ĠAsh":7115,"ichael":7116,"Ġmints":7117,"ounced":7118,"Ġexpress":7119,"Ġgranted":7120,"ĠJudy":7121,"Ġspikes":7122,"Ġsquishy":7123,"Ġsailors":7124,"ĠTodd":7125,"Ġhopeful":7126,"Ġtoaster":7127,"Like":7128,"Ġneare":7129,"ĠJune":7130,"arac":7131,"Ġpeck":7132,"Ġcrew":7133,"Ġnecklaces":7134,"ĠOnly":7135,"Ġpostman":7136,"Ġreflection":7137,"ĠTake":7138,"ĠTuna":7139,"Ġfeast":7140,"Ġcond":7141,"Ġposs":7142,"Ġslips":7143,"Ġsteady":7144,"Ġpennies":7145,"Ġrefreshing":7146,"Kim":7147,"ears":7148,"sie":7149,"imon":7150,"Ġwobbled":7151,"Ġtested":7152,"Ġsniffs":7153,"ĠMaya":7154,"Ġgrandparents":7155,"Ġmarshmallows":7156,"uzzy":7157,"yes":7158,"Ġwakes":7159,"Ġoh":7160,"Ġrout":7161,"Ġchos":7162,"Ġsneezing":7163,"Ġshaped":7164,"Ġdived":7165,"ĠNobody":7166,"Ġoysters":7167,"Ġincreased":7168,"Ġchosen":7169,"Jul":7170,"vil":7171,"worm":7172,"Ġreason":7173,"Ġspins":7174,"Ġflight":7175,"ĠZip":7176,"ĠUntil":7177,"Quick":7178,"Ġsewing":7179,"Ġgreeted":7180,"Our":7181,"mates":7182,"Ġtiss":7183,"erate":7184,"Ġrushing":7185,"Ġaside":7186,"ĠLi":7187,"otten":7188,"Ġjoining":7189,"Ġheroes":7190,"ĠAbi":7191,"Ġbehaving":7192,"Ġ2":7193,"anie":7194,"unched":7195,"Ġkittens":7196,"attered":7197,"ĠOur":7198,"Ġpigeons":7199,"stick":7200,"ĠBee":7201,"ertain":7202,"ĠZoey":7203,"Ġswans":7204,"Ġwiggle":7205,"fire":7206,"Ġaimed":7207,"Ġdip":7208,"Ġocc":7209,"Ġplayroom":7210,"Ġtapped":7211,"Ġdefe":7212,"Ġdresser":7213,"Ġbiting":7214,"ĠStay":7215,"years":7216,"Ġpuppet":7217,"Back":7218,"Bill":7219,"lves":7220,"Ġrotten":7221,"Ġonward":7222,"Ġplucked":7223,"Ġappreciation":7224,"Tweety":7225,"Sadly":7226,"vant":7227,"rect":7228,"Ġmoo":7229,"Ġcharac":7230,"Ġtrot":7231,"Ġadults":7232,"Ġwrigg":7233,"Ġsparks":7234,"Ġencourag":7235,"Ġsending":7236,"Ġconfl":7237,"Ġtrembled":7238,"ĠMickey":7239,"Ġscampered":7240,"Ġcharacter":7241,"Br":7242,"Tr":7243,"iment":7244,"Ġscored":7245,"ĠDr":7246,"Ġexplo":7247,"Ġoffic":7248,"ĠPr":7249,"eezes":7250,"eel":7251,"Ġspat":7252,"Ġcoc":7253,"ÅĵNow":7254,"Ġwarri":7255,"Ġhops":7256,"meal":7257,"Ġbells":7258,"Ġflavors":7259,"Ġmaster":7260,"while":7261,"Ġdaring":7262,"ĠFire":7263,"Ġconvers":7264,"Ġstrongest":7265,"Ġdrawers":7266,"Ġpanicked":7267,"Ġguests":7268,"ĠMartha":7269,"ĠPippin":7270,"Ġwaddled":7271,"Ġtossed":7272,"Ġpins":7273,"Ġnapping":7274,"Ġmanag":7275,"Ġrainy":7276,"Ġamount":7277,"Ġworrying":7278,"ĠKiki":7279,"Ġstacked":7280,"Ġperforming":7281,"Ġoatmeal":7282,"rrr":7283,"ĠSquirrel":7284,"Mine":7285,"Ġsadd":7286,"cky":7287,"Ġscen":7288,"ĠLove":7289,"Ġwobbly":7290,"ÅĵMy":7291,"Ġcausing":7292,"Ġrespected":7293,"Ġsunflowers":7294,"Ġproper":7295,"Ġfreedom":7296,"Ġnoodles":7297,"Ġmate":7298,"Ġevil":7299,"retty":7300,"Ġangels":7301,"Ġloading":7302,"Ġseashells":7303,"Su":7304,"ĠTry":7305,"Ġgest":7306,"Ġbattle":7307,"...\"":7308,"ĠFrog":7309,"ĠSadie":7310,"Ġcorrect":7311,"ĊĊ":7312,"isc":7313,"Ġstitches":7314,"Ġgardener":7315,"Ġlessons":7316,"Ġprove":7317,"Ġrespond":7318,"ppies":7319,"ĠBessie":7320,"ĠWell":7321,"Ġdoorway":7322,"Ġunsure":7323,"Ġcraft":7324,"Ġtables":7325,"Ġcloudy":7326,"Ġshrug":7327,"Ġcushions":7328,"ĠBirdy":7329,"Very":7330,"Ġfaded":7331,"onna":7332,"Ġworn":7333,"ĠLia":7334,"Ġbravest":7335,"Ġgrows":7336,"ĠStella":7337,"Ġleads":7338,"ĠPatty":7339,"ĠAmelia":7340,"Ġwatering":7341,"iley":7342,"ÅĵMom":7343,"Ġrains":7344,"Ġcrashing":7345,"Ġduckling":7346,"Ġaction":7347,"Ġcoop":7348,"Ġfrowning":7349,"Ġdesigns":7350,"Ġfirefly":7351,"Ġfirmly":7352,"ĠSqueaky":7353,"Ġcoral":7354,"Ġearn":7355,"Ġund":7356,"ĠBaa":7357,"Ġclues":7358,"Ġsmallest":7359,"Ġmonths":7360,"Ġsails":7361,"Ġsurv":7362,"Ġtwisty":7363,"Ġwider":7364,"ĠGranny":7365,"Ġdefin":7366,"Ġpassengers":7367,"Ġtissue":7368,"ody":7369,"please":7370,"Ġais":7371,"Ġheight":7372,"Ġcosy":7373,"plash":7374,"bbling":7375,"ĠFido":7376,"ĠRay":7377,"ĠThatÃ¢":7378,"Ġpolitely":7379,"Ġpays":7380,"Ġnervously":7381,"Ġhumans":7382,"Ġbehavior":7383,"dress":7384,"now":7385,"Ġbru":7386,"Ġovercome":7387,"Ġbelts":7388,"Beep":7389,"Ġstreamers":7390,"Ġrobber":7391,"Follow":7392,"Ġencouraging":7393,"Ġties":7394,"onies":7395,"Ġplaytime":7396,"child":7397,"Ġflown":7398,"ĠEx":7399,"emma":7400,"Ġdrivers":7401,"Ġsurrendered":7402,"iel":7403,"Ġgonna":7404,"ening":7405,"Ġnearly":7406,"Ġpumpkins":7407,"Ġgrandchild":7408,"Ġfleas":7409,"Ġyielded":7410,"Ġmerma":7411,"Ġdefinitely":7412,"During":7413,"bird":7414,"Ġni":7415,"Ġinj":7416,"Ġpoppies":7417,"iona":7418,"Ġcrossing":7419,"undred":7420,"Ġtravelling":7421,"hew":7422,"Ġtuck":7423,"Ġnuzz":7424,"anwhile":7425,"Ġyel":7426,"ĠthatÃ¢":7427,"Ġshady":7428,"ÅĵWell":7429,"Ġraces":7430,"Ġblocked":7431,"Ġlifting":7432,"Ġlaying":7433,"Ġignoring":7434,"Ġshovels":7435,"Ġquarreling":7436,"alloween":7437,"ĠMeg":7438,"Ġperformed":7439,"lets":7440,"Ġease":7441,"ĠAng":7442,"Ġscient":7443,"ĠElly":7444,"antastic":7445,"Ġwobble":7446,"athy":7447,"issa":7448,"Ġresults":7449,"ĠAlong":7450,"Ġsuggestion":7451,"Ġsuits":7452,"Ġcampfire":7453,"Ġsymbols":7454,"Ġtwinkled":7455,"Ġbrushing":7456,"Ġcommun":7457,"Ġyelped":7458,"Ġscientist":7459,"Even":7460,"Jerry":7461,"Watch":7462,"ibbit":7463,"upt":7464,"rey":7465,"ĠHalloween":7466,"Ġshown":7467,"Ġreun":7468,"roken":7469,"Ġscurry":7470,"Ġleapt":7471,"Ġpound":7472,"Ġponies":7473,"ĠSc":7474,"ongo":7475,"ĠEva":7476,"acles":7477,"Ġcolder":7478,"Ġquieter":7479,"Ġappreciated":7480,"fly":7481,"Ġbless":7482,"ighting":7483,"Ġwaterfall":7484,"Ġfinal":7485,"Ġsqueezing":7486,"Ġfills":7487,"Ġhairdress":7488,"ĠZero":7489,"Ġfishes":7490,"ĠRobbie":7491,"Ġcobwebs":7492,"ĠJanie":7493,"Ġthorns":7494,"Ġsnowflakes":7495,"abby":7496,"Ġfantastic":7497,"elie":7498,"Ġsurprising":7499,"Ġtricycle":7500,"ĠStan":7501,"Ġedges":7502,"Ġpreparing":7503,"Ġgrandd":7504,"Ġreversed":7505,"Ġpunishment":7506,"Ġofficers":7507,"Listen":7508,"ĠMabel":7509,"Ġanger":7510,"Ġfinishing":7511,"ĠRock":7512,"Ġchopped":7513,"Ġpaths":7514,"Ġgenie":7515,"Ġpassports":7516,"Bet":7517,"rup":7518,"ooky":7519,"Ġhanding":7520,"ĠRalph":7521,"ĠRyan":7522,"Ġtighter":7523,"Ġpaintbrush":7524,"ĠStar":7525,"Ġloops":7526,"Ġburying":7527,"Ġsuffered":7528,"espite":7529,"Ġoccas":7530,"Ġhairdresser":7531,"Ġsever":7532,"Ġslither":7533,"Ġbraver":7534,"Whenever":7535,"Ġunw":7536,"Ġhealing":7537,"Ġdistract":7538,"Ġbandages":7539,"Ġgiggles":7540,"Ġreminding":7541,"ĠDavey":7542,"Ġdisturbing":7543,"Ġechoed":7544,"fia":7545,"Ġtying":7546,"Ġgap":7547,"ppa":7548,"Ġnotes":7549,"Ġforests":7550,"Ġsmelling":7551,"Ġbaskets":7552,"ĠAlthough":7553,"Ġsniffing":7554,"Ġsurfing":7555,"Ġsurfboard":7556,"laying":7557,"Ġseveral":7558,"cent":7559,"ĠX":7560,"Ġcertain":7561,"ÅĵWhere":7562,"Ġcleaner":7563,"Ġcollap":7564,"Ġfits":7565,"ĠLouise":7566,"Ġconnected":7567,"Ġsyrup":7568,"Hannah":7569,"Ġtipped":7570,"Ġsou":7571,"Ġcongratul":7572,"Ġrays":7573,"rier":7574,"Ġsnort":7575,"ÅĵIf":7576,"ĠZara":7577,"Ġspits":7578,"Ġlicking":7579,"Ġrisks":7580,"Ġconflict":7581,"Ros":7582,"Ġhundred":7583,"Ġcoug":7584,"Ġmaker":7585,"Ġstopping":7586,"Ġsweetest":7587,"Ġpackages":7588,"Ġpuzzled":7589,"Ġseller":7590,"ĠUnder":7591,"Ġtravels":7592,"ĠSnowman":7593,"Ġcottage":7594,"iscuit":7595,"broken":7596,"vroom":7597,"inger":7598,"ĠMouse":7599,"Ġspooky":7600,"Ġconqu":7601,"ĠGina":7602,"Ġdrown":7603,"Ġbelieving":7604,"Ġships":7605,"Ġexamining":7606,"Ġmagnif":7607,"Ġbreathing":7608,"Ġsqueaked":7609,"Ġpurr":7610,"Ġefforts":7611,"Jamie":7612,"bage":7613,"ca":7614,"ÅĵBut":7615,"ÅĵOkay":7616,"ÅĵOf":7617,"athan":7618,"ĠFlopsy":7619,"Ġmailed":7620,"Ġgarbage":7621,"Ġcuddles":7622,"Excited":7623,"Surprise":7624,"erm":7625,"ĠBow":7626,"Ġprob":7627,"Ġslipping":7628,"ĠGreen":7629,"ĠZoomy":7630,"Ġfrowns":7631,"Ġlending":7632,"Ġwhispering":7633,"Ġsuffering":7634,"eeling":7635,"Ġprobably":7636,"Mad":7637,"cher":7638,"Ġlent":7639,"ading":7640,"Ġshoo":7641,"asty":7642,"Ġbuses":7643,"Ġelf":7644,"Ġaddress":7645,"Ġawo":7646,"Ġtubes":7647,"Ġinchworm":7648,"Ġmermaid":7649,"Bunny":7650,"Mira":7651,"Poppy":7652,"line":7653,"isions":7654,"ancy":7655,"onse":7656,"ĠIm":7657,"Ġthoughts":7658,"inkle":7659,"Ġguide":7660,"Ġplanting":7661,"Ġresponse":7662,"Ġspells":7663,"Ġrepeating":7664,"Ġbothering":7665,"Ġgears":7666,"Ġarranged":7667,"?!\"":7668,"but":7669,"ĠOkay":7670,"Ġdump":7671,"Ġexcept":7672,"Ġmemb":7673,"Ġcharge":7674,"Ġtablet":7675,"Ġhumming":7676,"Ġsharks":7677,"ĠUp":7678,"Ġmasterp":7679,"Ġforgiving":7680,"Ġtrotted":7681,"Ġgesture":7682,"Ġmembers":7683,"Get":7684,"found":7685,"ĠWendy":7686,"Ġcoach":7687,"Ġfins":7688,"Ġluckily":7689,"Ġresponsib":7690,"Ġsewed":7691,"Ġdamaged":7692,"Ġcustomers":7693,"Ġgrip":7694,"Ġtil":7695,"ĠHoney":7696,"utter":7697,"Ġrather":7698,"Ġwithin":7699,"Ġgoodby":7700,"Ġdecisions":7701,"ĠDin":7702,"bba":7703,"Ġexplorer":7704,"Ġdriveway":7705,"Ġchocolates":7706,"Ġsupported":7707,"ĠQuick":7708,"Ġinstruments":7709,"Since":7710,"Vroom":7711,"Ġwasting":7712,"Ġlies":7713,"âĤ¬,":7714,"Ġwhose":7715,"antha":7716,"Ġcotton":7717,"Ġannoyed":7718,"Ġgoodbyes":7719,"Ted":7720,"Tony":7721,"ĠSatur":7722,"Ġsoaking":7723,"Ġweeds":7724,"Ġknots":7725,"ĠFighting":7726,"ĠRain":7727,"Ġunderstands":7728,"Ġantic":7729,"ĠPatch":7730,"Ġrotting":7731,"Ġvehicles":7732,"Ġpupils":7733,"Ġaccomplished":7734,"Ġnurses":7735,"Ġwarrior":7736,"Ġreunited":7737,"ĠSaturday":7738,"Ġreapp":7739,"Ġalthough":7740,"Ġpeas":7741,"Ġteles":7742,"Ġcheers":7743,"Ġdangers":7744,"ails":7745,"Ġcalmly":7746,"Ġrobots":7747,"Ġnovels":7748,"ĠAshley":7749,"Ġtelescope":7750,"Ġmood":7751,"ammy":7752,"Ġstumble":7753,"ĠBongo":7754,"asers":7755,"Ġnewfound":7756,"Ġtweet":7757,"ilda":7758,"acle":7759,"Ġelbow":7760,"Ġsweat":7761,"Ġstomp":7762,"Ġdiscussing":7763,"Ġmaterial":7764,"Ġdespite":7765,"Frank":7766,"ĠQuackers":7767,"Ġcowboy":7768,"Mimi":7769,"aven":7770,"mies":7771,"ĠSimon":7772,"Ġheartbroken":7773,"Ġcrowns":7774,"Ġwisely":7775,"Ġtwisting":7776,"Ġpermitted":7777,"steps":7778,"Ġconversation":7779,"Rachel":7780,"Ġbuddy":7781,"ooking":7782,"Ġchanges":7783,"Ġswo":7784,"Ġbelongings":7785,"Ġwhistles":7786,"Ġtidied":7787,"Ġclassmates":7788,"ĠPepper":7789,"Ġspills":7790,"crow":7791,"iens":7792,"Ġtar":7793,"Ġdarl":7794,"ĠMichael":7795,"iza":7796,"Ġbits":7797,"ugging":7798,"Ġteachers":7799,"Ġfootsteps":7800,"Ġguessing":7801,"Ġwealth":7802,"Ġcrystals":7803,"Ġexplains":7804,"Ġrefuse":7805,"Ġreassured":7806,"Ġawoke":7807,"Ġmasterpiece":7808,"Ġswollen":7809,"Ġdarlings":7810,"da":7811,"wise":7812,"Ġaim":7813,"ĠBecause":7814,"Ġaliens":7815,"Ġdecl":7816,"ĠCle":7817,"ÅĵPlease":7818,"Ġvegg":7819,"Ġprayers":7820,"Ġbracelets":7821,"Ġinsisting":7822,"Ġstudent":7823,"Ġpeeled":7824,"Take":7825,"mered":7826,"Ġdot":7827,"Ġgerm":7828,"Ġnasty":7829,"Ġrin":7830,"ĠAny":7831,"Ġscent":7832,"Ġvines":7833,"ĠStitch":7834,"Ġfigures":7835,"Always":7836,"Ġspeeding":7837,"Ġnibbled":7838,"Ġsill":7839,"lle":7840,"Ġspies":7841,"Ġflipped":7842,"Ġtroubles":7843,"Ġtoolbox":7844,"Ġsolving":7845,"Ġencount":7846,"Ġvibr":7847,"Ġseagulls":7848,"Abigail":7849,"Ġnibble":7850,"Penny":7851,"whe":7852,"rest":7853,"Ġform":7854,"Ġtreated":7855,"Ġchilly":7856,"Ġuntied":7857,"ĠJoan":7858,"Ġbeautifully":7859,"Ġstored":7860,"Ġtoward":7861,"Ġbusiness":7862,"Ġemer":7863,"Ġcomforting":7864,"Steve":7865,"Alright":7866,"Ġartwork":7867,"Ġtarget":7868,"order":7869,"chy":7870,"Ġexch":7871,"Ġbirdhouse":7872,"aula":7873,"sol":7874,"Ġunfortunately":7875,"Josh":7876,"Ġafar":7877,"Goodnight":7878,"Ġtaped":7879,"Ġexercises":7880,"Ġsurvive":7881,"Ġgranddaughter":7882,"Ġcongratulated":7883,"lor":7884,"what":7885,"idey":7886,"Ġposit":7887,"Ġmarve":7888,"Ġhonking":7889,"Ġservant":7890,"Ġbanged":7891,"Ġaware":7892,"Ġstatues":7893,"Ġmosquitoes":7894,"Ġdelayed":7895,"Ġsimply":7896,"Ġinspired":7897,"Ġveggies":7898,"Boys":7899,"Car":7900,"Ġforce":7901,"Ġkings":7902,"ĠMag":7903,"ĠJaney":7904,"Ġturtles":7905,"Ġrats":7906,"Ġsweaty":7907,"five":7908,"father":7909,"ighing":7910,"artled":7911,"Ġthanking":7912,"Ġtrans":7913,"Ġsquished":7914,"Ġgazing":7915,"Ġactivity":7916,"Ġwounds":7917,"Mat":7918,"gain":7919,"pen":7920,"onnie":7921,"Ġrely":7922,"Ġloses":7923,"ecca":7924,"ĠAlly":7925,"Ġmanners":7926,"dding":7927,"Ġtapping":7928,"Ġuntie":7929,"ĠAli":7930,"Ġapologised":7931,"Tweetie":7932,"Ġfocus":7933,"Jessie":7934,"we":7935,"Ġtoss":7936,"Ġdep":7937,"rian":7938,"elvet":7939,"Ġsmashed":7940,"Ġjars":7941,"Ġspy":7942,"Ġjoins":7943,"ipes":7944,"Ġfoxes":7945,"ĠOther":7946,"Ġscram":7947,"Ġsweep":7948,"Ġlabels":7949,"Ġbeeped":7950,"ĠPippa":7951,"Ġscurrying":7952,"Ġemerged":7953,"sm":7954,"uel":7955,"Ġbitten":7956,"orter":7957,"Ġtwenty":7958,"ÅĵThe":7959,"Ġconvin":7960,"Ġdressing":7961,"Ġwarmly":7962,"Ġpurpose":7963,"Ġshrunk":7964,"Ġpresented":7965,"Ġpleaded":7966,"Ġcurl":7967,"Ġghosts":7968,"Ġpandas":7969,"Ġflaps":7970,"Ġoppos":7971,"Ġconcert":7972,"Ġcorrectly":7973,"Claire":7974,"Ġhen":7975,"Ġstall":7976,"Ġsped":7977,"ĠLion":7978,"ĠFuzzy":7979,"Ġsquaw":7980,"ivia":7981,"Ġtires":7982,"Anne":7983,"Ġencouragement":7984,"Ġswaying":7985,"Two":7986,"Ġwrinkled":7987,"Ġaisle":7988,"Ġanticip":7989,"Lena":7990,"ĠSmo":7991,"Ġrowed":7992,"Ġbea":7993,"Ġwhimp":7994,"ortun":7995,"ĠCla":7996,"Ġjud":7997,"ĠKaren":7998,"Ġnests":7999,"Ġtrusting":8000,"Ġprick":8001,"Ġmagazines":8002,"ĠFroggy":8003,"Ġglittering":8004,"ummies":8005,"Ġopportun":8006,"Ġnearest":8007,"Ġtransf":8008,"ats":8009,"Ġsav":8010,"Ġinter":8011,"Ġramp":8012,"Ġcleared":8013,"ĠSofia":8014,"Ġtasting":8015,"Ġpicnics":8016,"Ġrescuing":8017,"Ġgrandfather":8018,"Ġotters":8019,"Ġpedaled":8020,"Ġwiggly":8021,"Ġtype":8022,"Ġnuzzled":8023,"Ġopposite":8024,"Joy":8025,"even":8026,"Ġgall":8027,"ators":8028,"ĠIzzy":8029,"Ġshimmering":8030,"Ġloc":8031,"ĠgirlÃ¢":8032,"ddie":8033,"Ġblond":8034,"ÅĵHey":8035,"Ġswimmer":8036,"ĠKelly":8037,"Ġadds":8038,"Meanwhile":8039,"Ġcovering":8040,"Ġscarecrow":8041,"Ġwindowsill":8042,"Ġdisplayed":8043,"Ġuniforms":8044,"Leave":8045,"Ġswayed":8046,"intment":8047,"Ġcocoon":8048,"ĠAngel":8049,"Ġdeclared":8050,"Ġanticipation":8051,"Abby":8052,"hil":8053,"rily":8054,"its":8055,"idence":8056,"ĠSk":8057,"amma":8058,"acy":8059,"Ġvisits":8060,"Ġdesigning":8061,"screen":8062,"Ġlipstick":8063,"Ġdodged":8064,"Je":8065,"ris":8066,"ĠTiger":8067,"Ġbeating":8068,"Ġends":8069,"Ġdoorbell":8070,"Ġdisc":8071,"Ġdiscoveries":8072,"Ġpurrs":8073,"Quack":8074,"ĠChris":8075,"ĠKevin":8076,"Uncle":8077,"Ġattacked":8078,"Ġsadder":8079,"Ġcollapsed":8080,"Ġscrambled":8081,"Jess":8082,"munk":8083,"oor":8084,"Ġtumbled":8085,"Ġsheets":8086,"rie":8087,"ĠAna":8088,"Ġflick":8089,"Ġflips":8090,"Ġpeep":8091,"Ġjoked":8092,"Ġsnug":8093,"Ġcracks":8094,"Ġimages":8095,"Ġdecoration":8096,"illiam":8097,"ĠPeppa":8098,"Ġbackpacks":8099,"manda":8100,"Ġforgiveness":8101,"Ġroutine":8102,"Ġmanager":8103,"Co":8104,"Rob":8105,"pit":8106,"Ġicing":8107,"Ġtummies":8108,"innie":8109,"Ġhoo":8110,"Ġwhoo":8111,"ĠMina":8112,"romise":8113,"ĠJax":8114,"Ġfailed":8115,"Ġswap":8116,"Ġsunscreen":8117,"ordinary":8118,"Ġbathing":8119,"Ġgenerosity":8120,"Ġtoothbrush":8121,"Chloe":8122,"Ġexperienced":8123,"Dear":8124,"David":8125,"water":8126,"Ġting":8127,"Ġyum":8128,"Ġgoodies":8129,"Ġflip":8130,"ĠDespite":8131,"usty":8132,"Ġgrat":8133,"Ġsingers":8134,"Ġsprout":8135,"Ġbeeh":8136,"ĠSpidey":8137,"ĠRudy":8138,"Ġobeyed":8139,"ĠRobo":8140,"Ġencountered":8141,"Am":8142,"Bang":8143,"Ke":8144,"Ġsens":8145,"Ġheaven":8146,"ĠSplash":8147,"ĠAva":8148,"Ġnodding":8149,"ĠWelcome":8150,"Ġlapt":8151,"roll":8152,"ĠFiona":8153,"ortunately":8154,"empt":8155,"Ġbadger":8156,"Ġconv":8157,"boards":8158,"Ġdripping":8159,"ĠSpring":8160,"Ġadmiration":8161,"Ġsternly":8162,"Ġcustomer":8163,"Ġastronauts":8164,"Ġgratitude":8165,"lo":8166,"ilities":8167,"ative":8168,"ĠHolly":8169,"Ġinches":8170,"Ġshall":8171,"ument":8172,"Ġbrightest":8173,"Ġslowed":8174,"Ġattempt":8175,"Ġminds":8176,"Ġcrawls":8177,"Ġsnaps":8178,"ĠExcited":8179,"Ġconvince":8180,"Out":8181,"lied":8182,"llas":8183,"ĠYouÃ¢":8184,"elle":8185,"Ġblown":8186,"ÅĵSee":8187,"Ġstew":8188,"Ġvisitors":8189,"Ġrobin":8190,"ĠZee":8191}