{
  "version": "1.0",
  "truncation": null,
  "padding": null,
  "added_tokens": [
    {
      "id": 0,
      "content": "[PAD]",
      "single_word": false,
      "lstrip": false,
      "rstrip": false,
      "normalized": false,
      "special": true
    },
    {
      "id": 1,
      "content": "[UNK]",
      "single_word": false,
      "lstrip": false,
      "rstrip": false,
      "normalized": false,
      "special": true
    },
    {
      "id": 2,
      "content": "[CLS]",
      "single_word": false,
      "lstrip": false,
      "rstrip": false,
      "normalized": false,
      "special": true
    },
    {
      "id": 3,
      "content": "[SEP]",
      "single_word": false,
      "lstrip": false,
      "rstrip": false,
      "normalized": false,
      "special": true
    },
    {
      "id": 4,
      "content": "[MASK]",
      "single_word": false,
      "lstrip": false,
      "rstrip": false,
      "normalized": false,
      "special": true
    }
  ],
  "normalizer": null,
  "pre_tokenizer": {
    "type": "Whitespace"
  },
  "post_processor": null,
  "decoder": null,
  "model": {
    "type": "BPE",
    "dropout": null,
    "unk_token": "[UNK]",
    "continuing_subword_prefix": null,
    "end_of_word_suffix": null,
    "fuse_unk": false,
    "byte_fallback": false,
    "ignore_merges": false,
    "vocab": {
      "[PAD]": 0,
      "[UNK]": 1,
      "[CLS]": 2,
      "[SEP]": 3,
      "[MASK]": 4,
      "!": 5,
      "\"": 6,
      "#": 7,
      "$": 8,
      "%": 9,
      "&": 10,
      "'": 11,
      "(": 12,
      ")": 13,
      "*": 14,
      "+": 15,
      ",": 16,
      "-": 17,
      ".": 18,
      "/": 19,
      "0": 20,
      "1": 21,
      "2": 22,
      "3": 23,
      "4": 24,
      "5": 25,
      "6": 26,
      "7": 27,
      "8": 28,
      "9": 29,
      ":": 30,
      ";": 31,
      "<": 32,
      "=": 33,
      ">": 34,
      "?": 35,
      "@": 36,
      "A": 37,
      "B": 38,
      "C": 39,
      "D": 40,
      "E": 41,
      "F": 42,
      "G": 43,
      "H": 44,
      "I": 45,
      "J": 46,
      "K": 47,
      "L": 48,
      "M": 49,
      "N": 50,
      "O": 51,
      "P": 52,
      "Q": 53,
      "R": 54,
      "S": 55,
      "T": 56,
      "U": 57,
      "V": 58,
      "W": 59,
      "X": 60,
      "Y": 61,
      "Z": 62,
      "[": 63,
      "\\": 64,
      "]": 65,
      "^": 66,
      "_": 67,
      "`": 68,
      "a": 69,
      "b": 70,
      "c": 71,
      "d": 72,
      "e": 73,
      "f": 74,
      "g": 75,
      "h": 76,
      "i": 77,
      "j": 78,
      "k": 79,
      "l": 80,
      "m": 81,
      "n": 82,
      "o": 83,
      "p": 84,
      "q": 85,
      "r": 86,
      "s": 87,
      "t": 88,
      "u": 89,
      "v": 90,
      "w": 91,
      "x": 92,
      "y": 93,
      "z": 94,
      "{": 95,
      "|": 96,
      "}": 97,
      "~": 98,
      "in": 99,
      "th": 100,
      "an": 101,
      "er": 102,
      "on": 103,
      "es": 104,
      "en": 105,
      "at": 106,
      "or": 107,
      "al": 108,
      "the": 109,
      "ing": 110,
      "re": 111,
      "and": 112,
      "st": 113,
      "it": 114,
      "to": 115,
      "ion": 116,
      "ou": 117,
      "ic": 118,
      "ed": 119,
      "of": 120,
      "is": 121,
      "ar": 122,
      "ent": 123,
      "ac": 124,
      "ro": 125,
      "le": 126,
      ".\\": 127,
      "ve": 128,
      "as": 129,
      "de": 130,
      "##": 131,
      "ec": 132,
      "for": 133,
      "**": 134,
      "om": 135,
      "ex": 136,
      "lo": 137,
      "ation": 138,
      "ce": 139,
      "et": 140,
      "Th": 141,
      "il": 142,
      "con": 143,
      "ig": 144,
      "ch": 145,
      "ers": 146,
      "im": 147,
      "pl": 148,
      "pro": 149,
      "am": 150,
      "el": 151,
      "our": 152,
      "ab": 153,
      "us": 154,
      "ess": 155,
      "ith": 156,
      "==": 157,
      "un": 158,
      "ag": 159,
      "ad": 160,
      "with": 161,
      "that": 162,
      "act": 163,
      "ur": 164,
      "em": 165,
      "ol": 166,
      "ap": 167,
      "com": 168,
      "ul": 169,
      "ot": 170,
      "ive": 171,
      "tr": 172,
      "ow": 173,
      "if": 174,
      "ect": 175,
      "--": 176,
      "The": 177,
      "ut": 178,
      "se": 179,
      "ir": 180,
      "iv": 181,
      "uc": 182,
      "we": 183,
      "ter": 184,
      "id": 185,
      "are": 186,
      "ate": 187,
      "ay": 188,
      "be": 189,
      "ly": 190,
      "can": 191,
      "ity": 192,
      "ver": 193,
      "wh": 194,
      "ment": 195,
      "ial": 196,
      "\\\"": 197,
      "su": 198,
      "ke": 199,
      "###": 200,
      "pr": 201,
      "ies": 202,
      "ud": 203,
      "per": 204,
      "ach": 205,
      "In": 206,
      "ist": 207,
      "ical": 208,
      "you": 209,
      "wor": 210,
      "form": 211,
      "ts": 212,
      "qu": 213,
      "**:": 214,
      "20": 215,
      "op": 216,
      "\":": 217,
      "====": 218,
      "res": 219,
      "od": 220,
      "igh": 221,
      "out": 222,
      "rit": 223,
      "ma": 224,
      "ther": 225,
      "ust": 226,
      "iz": 227,
      "cl": 228,
      "comp": 229,
      "tion": 230,
      "ear": 231,
      "cont": 232,
      "sh": 233,
      "sp": 234,
      "age": 235,
      "\",": 236,
      "log": 237,
      "ide": 238,
      "not": 239,
      "der": 240,
      "ces": 241,
      "ne": 242,
      "ext": 243,
      "your": 244,
      "all": 245,
      "ance": 246,
      "po": 247,
      "ib": 248,
      "co": 249,
      "ign": 250,
      "ain": 251,
      "dr": 252,
      "rom": 253,
      "able": 254,
      "ef": 255,
      "est": 256,
      "king": 257,
      "ien": 258,
      "por": 259,
      ":\\": 260,
      "ant": 261,
      "li": 262,
      "ave": 263,
      "ine": 264,
      "art": 265,
      "rite": 266,
      "duc": 267,
      "int": 268,
      "----": 269,
      "201": 270,
      "each": 271,
      "St": 272,
      "their": 273,
      "ll": 274,
      "this": 275,
      "oc": 276,
      "ations": 277,
      "ind": 278,
      "ill": 279,
      "from": 280,
      "oun": 281,
      "work": 282,
      "ure": 283,
      "one": 284,
      "cre": 285,
      "ip": 286,
      "its": 287,
      "by": 288,
      "olog": 289,
      "ld": 290,
      "ere": 291,
      "cess": 292,
      "ore": 293,
      "yst": 294,
      "ph": 295,
      "u201": 296,
      "str": 297,
      "ions": 298,
      "ep": 299,
      "gen": 300,
      "mo": 301,
      "This": 302,
      "top": 303,
      "ens": 304,
      "stand": 305,
      "ific": 306,
      "ory": 307,
      "um": 308,
      "gr": 309,
      "ystem": 310,
      "ese": 311,
      "udent": 312,
      "into": 313,
      "ell": 314,
      "velo": 315,
      "av": 316,
      "Wh": 317,
      "ge": 318,
      "velop": 319,
      "get": 320,
      "port": 321,
      "als": 322,
      "topic": 323,
      "Con": 324,
      "like": 325,
      "under": 326,
      "ug": 327,
      "ight": 328,
      "ta": 329,
      "ech": 330,
      "Write": 331,
      "fer": 332,
      "up": 333,
      "En": 334,
      "me": 335,
      "ome": 336,
      "low": 337,
      "eacher": 338,
      "eng": 339,
      "tract": 340,
      "ia": 341,
      "do": 342,
      "have": 343,
      "he": 344,
      "ated": 345,
      "develop": 346,
      "========": 347,
      "?\\": 348,
      "inter": 349,
      "prov": 350,
      "ys": 351,
      "has": 352,
      "cr": 353,
      "system": 354,
      "exam": 355,
      "ok": 356,
      ".\",": 357,
      "ates": 358,
      "man": 359,
      "rec": 360,
      "read": 361,
      "Pro": 362,
      "these": 363,
      "del": 364,
      "understand": 365,
      "pers": 366,
      "ics": 367,
      "ev": 368,
      "br": 369,
      "fect": 370,
      "ast": 371,
      "ors": 372,
      "exper": 373,
      "text": 374,
      "Teacher": 375,
      "ard": 376,
      "end": 377,
      "extract": 378,
      "ans": 379,
      "spec": 380,
      "ins": 381,
      "ful": 382,
      "lex": 383,
      "ack": 384,
      "ology": 385,
      "inform": 386,
      "bi": 387,
      "over": 388,
      "gh": 389,
      "ating": 390,
      "ough": 391,
      "drug": 392,
      "more": 393,
      "ound": 394,
      "cer": 395,
      "te": 396,
      "Do": 397,
      "dis": 398,
      "ience": 399,
      "ient": 400,
      "ult": 401,
      "ential": 402,
      "By": 403,
      "des": 404,
      "fe": 405,
      ":**": 406,
      "arget": 407,
      "about": 408,
      "cep": 409,
      "ility": 410,
      "ous": 411,
      "ples": 412,
      "comm": 413,
      "nThe": 414,
      "med": 415,
      "ase": 416,
      "ional": 417,
      "As": 418,
      "ple": 419,
      "ative": 420,
      "ue": 421,
      "own": 422,
      "arm": 423,
      "expl": 424,
      "Student": 425,
      "ould": 426,
      "bo": 427,
      "sign": 428,
      "tim": 429,
      "how": 430,
      "use": 431,
      "echn": 432,
      "ark": 433,
      "roduc": 434,
      "ever": 435,
      "rol": 436,
      "lec": 437,
      "pect": 438,
      "ments": 439,
      "ich": 440,
      "ass": 441,
      "Ex": 442,
      "incl": 443,
      "etwork": 444,
      "val": 445,
      "way": 446,
      "will": 447,
      "Ch": 448,
      "ser": 449,
      "complex": 450,
      "post": 451,
      "af": 452,
      "ize": 453,
      "no": 454,
      "ases": 455,
      "ual": 456,
      "nect": 457,
      "mat": 458,
      "understanding": 459,
      "red": 460,
      "bet": 461,
      "sty": 462,
      "earch": 463,
      "ower": 464,
      "anal": 465,
      "--------": 466,
      "ply": 467,
      "reat": 468,
      "just": 469,
      "sour": 470,
      "lif": 471,
      "target": 472,
      "ong": 473,
      "pe": 474,
      "ities": 475,
      "sim": 476,
      "ew": 477,
      "cor": 478,
      "rel": 479,
      "ures": 480,
      "``": 481,
      "web": 482,
      "ational": 483,
      "ace": 484,
      "style": 485,
      "well": 486,
      "play": 487,
      "other": 488,
      "they": 489,
      "cell": 490,
      "such": 491,
      "examples": 492,
      "connect": 493,
      "plic": 494,
      "techn": 495,
      "ysis": 496,
      "sm": 497,
      "ence": 498,
      "onal": 499,
      "sit": 500,
      "introduc": 501,
      "what": 502,
      "vers": 503,
      "gener": 504,
      "ice": 505,
      "making": 506,
      "need": 507,
      "ible": 508,
      "effect": 509,
      "sc": 510,
      "but": 511,
      "u2019": 512,
      "ary": 513,
      "inv": 514,
      "Here": 515,
      "ives": 516,
      "go": 517,
      "source": 518,
      "hel": 519,
      "sure": 520,
      "ement": 521,
      "ences": 522,
      "thr": 523,
      "systems": 524,
      "usion": 525,
      "ting": 526,
      "design": 527,
      "process": 528,
      "uring": 529,
      "An": 530,
      "research": 531,
      "ty": 532,
      "ak": 533,
      "which": 534,
      "ustr": 535,
      "Eng": 536,
      "concep": 537,
      "help": 538,
      "loc": 539,
      "ms": 540,
      "without": 541,
      "\"}": 542,
      "{\"": 543,
      "content": 544,
      "life": 545,
      "high": 546,
      "ices": 547,
      "Un": 548,
      "any": 549,
      "####": 550,
      "..\\": 551,
      "ang": 552,
      "ame": 553,
      "apter": 554,
      "offer": 555,
      "some": 556,
      "col": 557,
      "reg": 558,
      "ents": 559,
      "new": 560,
      "ise": 561,
      "ile": 562,
      "specific": 563,
      "ody": 564,
      "through": 565,
      "clusion": 566,
      "min": 567,
      "world": 568,
      "ability": 569,
      "ning": 570,
      "ari": 571,
      "ild": 572,
      "00": 573,
      "power": 574,
      "chapter": 575,
      "ines": 576,
      "ances": 577,
      "valu": 578,
      "mark": 579,
      "It": 580,
      "ior": 581,
      "tail": 582,
      "nIn": 583,
      "page": 584,
      "start": 585,
      "pon": 586,
      "information": 587,
      "armac": 588,
      "was": 589,
      "iqu": 590,
      "row": 591,
      "ensive": 592,
      "dep": 593,
      "ween": 594,
      "tit": 595,
      "also": 596,
      "personal": 597,
      "fic": 598,
      "ail": 599,
      "drugs": 600,
      "What": 601,
      "aw": 602,
      "ages": 603,
      "old": 604,
      "control": 605,
      "ject": 606,
      "analysis": 607,
      "between": 608,
      "delve": 609,
      "ata": 610,
      "import": 611,
      "network": 612,
      "ular": 613,
      "who": 614,
      "signific": 615,
      "anc": 616,
      "dit": 617,
      "pre": 618,
      "pres": 619,
      "lear": 620,
      "iences": 621,
      "student": 622,
      "simply": 623,
      "requ": 624,
      "enc": 625,
      "step": 626,
      "educ": 627,
      "access": 628,
      "oft": 629,
      "prof": 630,
      "tions": 631,
      "serv": 632,
      "general": 633,
      "essential": 634,
      "fl": 635,
      "part": 636,
      "bu": 637,
      "provid": 638,
      "edia": 639,
      "fact": 640,
      "fr": 641,
      "iness": 642,
      "time": 643,
      "alth": 644,
      "ire": 645,
      "ings": 646,
      "ber": 647,
      "detail": 648,
      "title": 649,
      "allow": 650,
      "aud": 651,
      "ss": 652,
      "gan": 653,
      "ely": 654,
      ".\"}": 655,
      "webpage": 656,
      "cur": 657,
      "tory": 658,
      "olut": 659,
      "press": 660,
      "cosm": 661,
      "agement": 662,
      "ized": 663,
      "Com": 664,
      "concepts": 665,
      "cosmop": 666,
      "now": 667,
      "nWrite": 668,
      "_general": 669,
      "edia_general": 670,
      "cosmopedia_general": 671,
      "phr": 672,
      "adv": 673,
      "ocus": 674,
      "pat": 675,
      "write": 676,
      "year": 677,
      ")\\": 678,
      "explor": 679,
      "dem": 680,
      "================": 681,
      "tone": 682,
      "them": 683,
      "phrases": 684,
      "cons": 685,
      "key": 686,
      "cover": 687,
      "Im": 688,
      "ital": 689,
      "Ph": 690,
      "care": 691,
      "nDo": 692,
      "Conclusion": 693,
      "Your": 694,
      "experiences": 695,
      "ath": 696,
      "**\\": 697,
      "introductory": 698,
      "usiness": 699,
      "ering": 700,
      "Use": 701,
      "ink": 702,
      "book": 703,
      "For": 704,
      "How": 705,
      "u2013": 706,
      "ose": 707,
      "exp": 708,
      "within": 709,
      "ident": 710,
      "vari": 711,
      "vide": 712,
      "ateg": 713,
      "ify": 714,
      "pract": 715,
      "19": 716,
      "back": 717,
      "That": 718,
      "CR": 719,
      "ased": 720,
      "produc": 721,
      "eper": 722,
      "Re": 723,
      "We": 724,
      "data": 725,
      "convers": 726,
      "ude": 727,
      "therap": 728,
      "ove": 729,
      "when": 730,
      "bl": 731,
      "respon": 732,
      "nam": 733,
      "ship": 734,
      "ucial": 735,
      "should": 736,
      "day": 737,
      "crucial": 738,
      "\"##": 739,
      "significant": 740,
      "Pr": 741,
      "dif": 742,
      "lead": 743,
      "ivid": 744,
      "ological": 745,
      "gu": 746,
      "hist": 747,
      "vir": 748,
      "ense": 749,
      "valuable": 750,
      "og": 751,
      "ands": 752,
      "blog": 753,
      "deeper": 754,
      "vi": 755,
      "IS": 756,
      "nu": 757,
      "see": 758,
      "ish": 759,
      "fore": 760,
      "\\\".\\": 761,
      "commun": 762,
      "led": 763,
      "medic": 764,
      "ality": 765,
      "audience": 766,
      "apt": 767,
      "includ": 768,
      "where": 769,
      "health": 770,
      "ique": 771,
      "Cas": 772,
      "aging": 773,
      "ks": 774,
      "development": 775,
      "bring": 776,
      "plications": 777,
      "line": 778,
      "may": 779,
      "fun": 780,
      "depth": 781,
      "PR": 782,
      "used": 783,
      "make": 784,
      "individ": 785,
      "coun": 786,
      "off": 787,
      "Ac": 788,
      "set": 789,
      "erg": 790,
      "offering": 791,
      "bre": 792,
      "app": 793,
      "Ad": 794,
      "di": 795,
      "grow": 796,
      "ivers": 797,
      "NA": 798,
      "using": 799,
      "ural": 800,
      "Cas9": 801,
      "treat": 802,
      "ry": 803,
      "mot": 804,
      "appro": 805,
      "alleng": 806,
      "his": 807,
      "ustom": 808,
      "give": 809,
      "Can": 810,
      "create": 811,
      "bec": 812,
      "ness": 813,
      "effective": 814,
      "ted": 815,
      "nS": 816,
      "au": 817,
      "perspect": 818,
      "so": 819,
      "struc": 820,
      "interact": 821,
      "context": 822,
      "sup": 823,
      "att": 824,
      "above": 825,
      "nTeacher": 826,
      "u2019s": 827,
      "ways": 828,
      "ost": 829,
      "cancer": 830,
      "```": 831,
      "ds": 832,
      "Tr": 833,
      "cent": 834,
      "resh": 835,
      "pot": 836,
      "organ": 837,
      "unique": 838,
      "par": 839,
      "ange": 840,
      "business": 841,
      "When": 842,
      "ie": 843,
      "ick": 844,
      "fin": 845,
      "fol": 846,
      "les": 847,
      "include": 848,
      "put": 849,
      "echan": 850,
      "years": 851,
      "ights": 852,
      "CRIS": 853,
      "CRISPR": 854,
      "down": 855,
      "been": 856,
      "kes": 857,
      "sur": 858,
      "Ap": 859,
      "nuances": 860,
      "trans": 861,
      "crit": 862,
      "iven": 863,
      "ideas": 864,
      "readers": 865,
      "approach": 866,
      "ibut": 867,
      "build": 868,
      "targeted": 869,
      "head": 870,
      "cour": 871,
      "sent": 872,
      "differ": 873,
      "os": 874,
      "Cont": 875,
      "fresh": 876,
      "enef": 877,
      "upon": 878,
      "ree": 879,
      "activ": 880,
      "To": 881,
      "sub": 882,
      "profess": 883,
      "olv": 884,
      "custom": 885,
      "perspectives": 886,
      "incre": 887,
      "Bi": 888,
      "body": 889,
      "let": 890,
      "prior": 891,
      "issu": 892,
      "before": 893,
      "accessible": 894,
      "iel": 895,
      "nStudent": 896,
      "allenges": 897,
      "than": 898,
      "tern": 899,
      "team": 900,
      "Hel": 901,
      "soc": 902,
      "potential": 903,
      "ob": 904,
      "vel": 905,
      "progr": 906,
      "ider": 907,
      "experience": 908,
      "inst": 909,
      "various": 910,
      "nA": 911,
      "zy": 912,
      "ization": 913,
      "role": 914,
      "there": 915,
      "Provide": 916,
      "lines": 917,
      "ustrate": 918,
      "insight": 919,
      "Inform": 920,
      "perform": 921,
      "strateg": 922,
      "take": 923,
      "land": 924,
      "stud": 925,
      "history": 926,
      "met": 927,
      "air": 928,
      "sk": 929,
      "ater": 930,
      "viron": 931,
      "mer": 932,
      "nAs": 933,
      "De": 934,
      "her": 935,
      "elf": 936,
      "special": 937,
      "...\\": 938,
      "Have": 939,
      "hensive": 940,
      "cells": 941,
      "ety": 942,
      "market": 943,
      "present": 944,
      "ople": 945,
      "textbook": 946,
      "olution": 947,
      "dot": 948,
      "being": 949,
      "oth": 950,
      "These": 951,
      "Engage": 952,
      "including": 953,
      "hav": 954,
      "You": 955,
      ").": 956,
      "hear": 957,
      "come": 958,
      "ward": 959,
      "Pharmac": 960,
      "follow": 961,
      "vis": 962,
      "ord": 963,
      "explore": 964,
      "echanis": 965,
      "Ill": 966,
      "cult": 967,
      "cho": 968,
      "students": 969,
      "contin": 970,
      "most": 971,
      ".,": 972,
      "researched": 973,
      "importance": 974,
      "pact": 975,
      "example": 976,
      "informative": 977,
      "priorit": 978,
      "tool": 979,
      "dec": 980,
      "Aim": 981,
      "ian": 982,
      "list": 983,
      "feat": 984,
      "patient": 985,
      "anec": 986,
      "reader": 987,
      "critical": 988,
      "anecdot": 989,
      "mon": 990,
      "insightful": 991,
      "connects": 992,
      "anecdotes": 993,
      "fir": 994,
      "dear": 995,
      "conversational": 996,
      "Hello": 997,
      "...\\\"": 998,
      "sec": 999,
      "technology": 1000,
      "sentences": 1001,
      "educates": 1002,
      "expands": 1003,
      "iting": 1004,
      "edical": 1005,
      "..\\\",": 1006,
      "Illustrate": 1007,
      "compre": 1008,
      "cy": 1009,
      "cal": 1010,
      "effic": 1011,
      "Network": 1012,
      "ps": 1013,
      "provide": 1014,
      "sense": 1015,
      "uccess": 1016,
      "enefits": 1017,
      "Res": 1018,
      "System": 1019,
      "nov": 1020,
      "hum": 1021,
      "arr": 1022,
      "izing": 1023,
      "focus": 1024,
      "many": 1025,
      "char": 1026,
      "ite": 1027,
      "202": 1028,
      "ort": 1029,
      "ationship": 1030,
      "istr": 1031,
      "comprehensive": 1032,
      "iving": 1033,
      "ake": 1034,
      "ily": 1035,
      "vironment": 1036,
      "pol": 1037,
      "ra": 1038,
      "----------------": 1039,
      "people": 1040,
      "ey": 1041,
      "mis": 1042,
      "ination": 1043,
      "interest": 1044,
      "active": 1045,
      "acy": 1046,
      "ied": 1047,
      "tw": 1048,
      "real": 1049,
      "vent": 1050,
      "igital": 1051,
      "namics": 1052,
      "thing": 1053,
      "level": 1054,
      "chang": 1055,
      "even": 1056,
      "often": 1057,
      "innov": 1058,
      "challenges": 1059,
      "prove": 1060,
      "regul": 1061,
      "\\\".": 1062,
      "Exam": 1063,
      "growth": 1064,
      "corpor": 1065,
      "With": 1066,
      "action": 1067,
      "related": 1068,
      "reduc": 1069,
      "ition": 1070,
      "eas": 1071,
      "),": 1072,
      "ape": 1073,
      "Ar": 1074,
      "less": 1075,
      "support": 1076,
      "cul": 1077,
      "great": 1078,
      "iversity": 1079,
      "ood": 1080,
      "etics": 1081,
      "makes": 1082,
      "pharmac": 1083,
      "Prodrugs": 1084,
      "relationship": 1085,
      "invest": 1086,
      "dev": 1087,
      "view": 1088,
      "biology": 1089,
      "prioritize": 1090,
      "So": 1091,
      "uce": 1092,
      "ergy": 1093,
      "mem": 1094,
      "next": 1095,
      "ists": 1096,
      "different": 1097,
      "prote": 1098,
      "success": 1099,
      "portun": 1100,
      "biological": 1101,
      "based": 1102,
      "know": 1103,
      "bal": 1104,
      "ict": 1105,
      "ication": 1106,
      "images": 1107,
      "ding": 1108,
      "proper": 1109,
      "hy": 1110,
      "io": 1111,
      "professional": 1112,
      "quality": 1113,
      "light": 1114,
      "impact": 1115,
      "okin": 1116,
      "ner": 1117,
      "long": 1118,
      "sing": 1119,
      "gene": 1120,
      "iver": 1121,
      "Systems": 1122,
      "Pl": 1123,
      "fiel": 1124,
      "oking": 1125,
      "tain": 1126,
      "uals": 1127,
      "atic": 1128,
      "omedical": 1129,
      "suit": 1130,
      "ris": 1131,
      "erial": 1132,
      "lect": 1133,
      "site": 1134,
      "prec": 1135,
      "struct": 1136,
      "Control": 1137,
      "find": 1138,
      "sequ": 1139,
      "Soc": 1140,
      "ving": 1141,
      "practical": 1142,
      "Co": 1143,
      "environment": 1144,
      "sect": 1145,
      "ref": 1146,
      "ensure": 1147,
      "show": 1148,
      "Ensure": 1149,
      "involv": 1150,
      "only": 1151,
      "enzy": 1152,
      "lim": 1153,
      "think": 1154,
      "consider": 1155,
      "fac": 1156,
      "uture": 1157,
      "dise": 1158,
      "program": 1159,
      "plan": 1160,
      "emp": 1161,
      "fig": 1162,
      "ision": 1163,
      "opportun": 1164,
      "needs": 1165,
      "individuals": 1166,
      "plat": 1167,
      "lock": 1168,
      "might": 1169,
      "ware": 1170,
      "maint": 1171,
      "ble": 1172,
      "improve": 1173,
      "user": 1174,
      "capt": 1175,
      "```\\": 1176,
      "Gen": 1177,
      "orial": 1178,
      "Under": 1179,
      "echanisms": 1180,
      "while": 1181,
      "gether": 1182,
      "Be": 1183,
      "ired": 1184,
      "mod": 1185,
      "phys": 1186,
      "online": 1187,
      "plication": 1188,
      "standing": 1189,
      "course": 1190,
      "On": 1191,
      "inc": 1192,
      "Int": 1193,
      "model": 1194,
      "He": 1195,
      "were": 1196,
      "first": 1197,
      "rect": 1198,
      "ieve": 1199,
      "dive": 1200,
      "my": 1201,
      "those": 1202,
      "designed": 1203,
      "game": 1204,
      "nat": 1205,
      "comes": 1206,
      "posit": 1207,
      "ineering": 1208,
      "does": 1209,
      "ills": 1210,
      "ling": 1211,
      "together": 1212,
      "better": 1213,
      "God": 1214,
      "gn": 1215,
      "compon": 1216,
      "func": 1217,
      "okinetics": 1218,
      "benefits": 1219,
      "deep": 1220,
      "lood": 1221,
      "Cre": 1222,
      "tect": 1223,
      "ern": 1224,
      "arch": 1225,
      "ically": 1226,
      "ca": 1227,
      "|\\": 1228,
      "detailed": 1229,
      "could": 1230,
      "applications": 1231,
      "sy": 1232,
      "cogn": 1233,
      "industr": 1234,
      "ques": 1235,
      "Step": 1236,
      "every": 1237,
      "providing": 1238,
      "given": 1239,
      "rele": 1240,
      "human": 1241,
      "Rec": 1242,
      "adem": 1243,
      "fam": 1244,
      "anced": 1245,
      "issues": 1246,
      "abol": 1247,
      "Dr": 1248,
      "etic": 1249,
      "exploring": 1250,
      "study": 1251,
      "10": 1252,
      "ency": 1253,
      "pur": 1254,
      "acter": 1255,
      "move": 1256,
      "Develop": 1257,
      "energy": 1258,
      "ited": 1259,
      "platform": 1260,
      "case": 1261,
      "Cancer": 1262,
      "pass": 1263,
      "inte": 1264,
      "self": 1265,
      "ism": 1266,
      "ires": 1267,
      "digital": 1268,
      "odynamics": 1269,
      "tur": 1270,
      "ubl": 1271,
      "dress": 1272,
      "allows": 1273,
      "cle": 1274,
      "sever": 1275,
      "comb": 1276,
      "engaging": 1277,
      "aining": 1278,
      "treatment": 1279,
      "inal": 1280,
      "integr": 1281,
      "!\\": 1282,
      "hib": 1283,
      "right": 1284,
      "social": 1285,
      "two": 1286,
      "Ro": 1287,
      "mus": 1288,
      "amp": 1289,
      "actions": 1290,
      "curr": 1291,
      "ious": 1292,
      "material": 1293,
      "coverage": 1294,
      "tribut": 1295,
      "lab": 1296,
      "ream": 1297,
      "prodrugs": 1298,
      "ament": 1299,
      "disc": 1300,
      "Anal": 1301,
      "typ": 1302,
      "fort": 1303,
      "share": 1304,
      "ibility": 1305,
      "feel": 1306,
      "identify": 1307,
      "performance": 1308,
      "Ah": 1309,
      "Des": 1310,
      "Sh": 1311,
      "best": 1312,
      "equ": 1313,
      "tut": 1314,
      "roll": 1315,
      "ips": 1316,
      "respons": 1317,
      "ves": 1318,
      "services": 1319,
      "promot": 1320,
      "emot": 1321,
      "extensive": 1322,
      "Focus": 1323,
      "recent": 1324,
      "effects": 1325,
      "Is": 1326,
      "yz": 1327,
      "flu": 1328,
      "recogn": 1329,
      "important": 1330,
      "relationships": 1331,
      "asing": 1332,
      "suitable": 1333,
      "ademic": 1334,
      "Man": 1335,
      "sor": 1336,
      "require": 1337,
      "ues": 1338,
      "matter": 1339,
      "enab": 1340,
      "corporate": 1341,
      "Understanding": 1342,
      "test": 1343,
      "project": 1344,
      "ney": 1345,
      "moving": 1346,
      "introduction": 1347,
      "function": 1348,
      "Wor": 1349,
      "soft": 1350,
      "would": 1351,
      "exploration": 1352,
      "subject": 1353,
      "ond": 1354,
      "Target": 1355,
      "must": 1356,
      "ators": 1357,
      "ufact": 1358,
      "expect": 1359,
      "igor": 1360,
      "partic": 1361,
      "calcul": 1362,
      "dates": 1363,
      "sion": 1364,
      "avail": 1365,
      "mean": 1366,
      "count": 1367,
      "field": 1368,
      "ier": 1369,
      "story": 1370,
      "grap": 1371,
      "networks": 1372,
      "But": 1373,
      "academic": 1374,
      "captiv": 1375,
      "If": 1376,
      "blood": 1377,
      "unit": 1378,
      "allowing": 1379,
      "medicine": 1380,
      "leg": 1381,
      "break": 1382,
      "fil": 1383,
      "creating": 1384,
      "ensuring": 1385,
      "community": 1386,
      "mind": 1387,
      "ratic": 1388,
      "therapies": 1389,
      "Example": 1390,
      "trad": 1391,
      "become": 1392,
      "ix": 1393,
      "oper": 1394,
      "RNA": 1395,
      "clear": 1396,
      "mun": 1397,
      "ns": 1398,
      "atch": 1399,
      "jo": 1400,
      "though": 1401,
      "molec": 1402,
      "future": 1403,
      "Engagement": 1404,
      "heart": 1405,
      "tutorial": 1406,
      "mult": 1407,
      "address": 1408,
      "Expl": 1409,
      "colle": 1410,
      "features": 1411,
      "Gu": 1412,
      "Key": 1413,
      "mechanisms": 1414,
      "try": 1415,
      "avig": 1416,
      "Biology": 1417,
      "others": 1418,
      "sal": 1419,
      "loy": 1420,
      "powerful": 1421,
      "However": 1422,
      "bread": 1423,
      "gl": 1424,
      "condit": 1425,
      "processes": 1426,
      "30": 1427,
      "Cl": 1428,
      "One": 1429,
      "nM": 1430,
      "ilities": 1431,
      "ven": 1432,
      "requires": 1433,
      "guide": 1434,
      "ogue": 1435,
      "ash": 1436,
      "achieve": 1437,
      "tell": 1438,
      "want": 1439,
      "itor": 1440,
      "behav": 1441,
      "ialogue": 1442,
      "================================": 1443,
      "building": 1444,
      "Let": 1445,
      "ury": 1446,
      "ends": 1447,
      "DNA": 1448,
      "range": 1449,
      "cost": 1450,
      "Fr": 1451,
      "face": 1452,
      "u00": 1453,
      "then": 1454,
      "keep": 1455,
      "crip": 1456,
      "Create": 1457,
      "several": 1458,
      "Le": 1459,
      "ah": 1460,
      "working": 1461,
      "compet": 1462,
      "found": 1463,
      "iev": 1464,
      "tal": 1465,
      "individual": 1466,
      "headlines": 1467,
      "strategies": 1468,
      "Rigor": 1469,
      "Chr": 1470,
      "good": 1471,
      "car": 1472,
      "represent": 1473,
      "management": 1474,
      "Str": 1475,
      "home": 1476,
      "stor": 1477,
      "def": 1478,
      "prodrug": 1479,
      "poss": 1480,
      "character": 1481,
      "breadth": 1482,
      "ons": 1483,
      "proof": 1484,
      "ember": 1485,
      "biomedical": 1486,
      "helps": 1487,
      "auth": 1488,
      "They": 1489,
      "factors": 1490,
      "interactions": 1491,
      "metabol": 1492,
      "changes": 1493,
      "path": 1494,
      "uch": 1495,
      "ross": 1496,
      "change": 1497,
      "improv": 1498,
      "point": 1499,
      "following": 1500,
      "publ": 1501,
      "around": 1502,
      "labor": 1503,
      "solut": 1504,
      "ones": 1505,
      "commit": 1506,
      "And": 1507,
      "products": 1508,
      "Op": 1509,
      ".\\\"": 1510,
      "u201c": 1511,
      "intern": 1512,
      "New": 1513,
      "Power": 1514,
      "had": 1515,
      "ants": 1516,
      "ded": 1517,
      "ources": 1518,
      "ivity": 1519,
      "offers": 1520,
      "gam": 1521,
      "gain": 1522,
      "ub": 1523,
      "small": 1524,
      "cept": 1525,
      "both": 1526,
      "skills": 1527,
      "pop": 1528,
      "aling": 1529,
      "avel": 1530,
      "provides": 1531,
      "tools": 1532,
      "industry": 1533,
      "pi": 1534,
      "risk": 1535,
      "look": 1536,
      "ules": 1537,
      "manufact": 1538,
      "open": 1539,
      "structure": 1540,
      "Sp": 1541,
      "omen": 1542,
      "place": 1543,
      "early": 1544,
      "players": 1545,
      "Socratic": 1546,
      "college": 1547,
      "Christ": 1548,
      "reach": 1549,
      "asc": 1550,
      "aspect": 1551,
      "made": 1552,
      "means": 1553,
      "Well": 1554,
      "ather": 1555,
      "navig": 1556,
      "feed": 1557,
      "protein": 1558,
      "ade": 1559,
      "sed": 1560,
      "volution": 1561,
      "university": 1562,
      "learn": 1563,
      "components": 1564,
      "jour": 1565,
      "mp": 1566,
      "nWhen": 1567,
      "ont": 1568,
      "ests": 1569,
      "ets": 1570,
      "olve": 1571,
      "learning": 1572,
      "figures": 1573,
      "Rem": 1574,
      "az": 1575,
      "clo": 1576,
      "call": 1577,
      "mal": 1578,
      "ican": 1579,
      "contribut": 1580,
      "optim": 1581,
      "continue": 1582,
      "devices": 1583,
      "Introduc": 1584,
      "12": 1585,
      "product": 1586,
      "sections": 1587,
      "nTo": 1588,
      "Al": 1589,
      "medical": 1590,
      "Application": 1591,
      "0s": 1592,
      "editing": 1593,
      "u201d": 1594,
      "genes": 1595,
      "love": 1596,
      "why": 1597,
      "Incorporate": 1598,
      "\"**": 1599,
      ").\\": 1600,
      "dialogue": 1601,
      "hand": 1602,
      "oot": 1603,
      "teacher": 1604,
      "izations": 1605,
      "strong": 1606,
      "engineering": 1607,
      "minim": 1608,
      "Introduction": 1609,
      "Amer": 1610,
      "round": 1611,
      "ately": 1612,
      "Ther": 1613,
      "chem": 1614,
      "adjust": 1615,
      "technical": 1616,
      "Analysis": 1617,
      "ced": 1618,
      "dom": 1619,
      "Why": 1620,
      "ancial": 1621,
      "pression": 1622,
      "centr": 1623,
      "2022": 1624,
      "Ref": 1625,
      "law": 1626,
      "materials": 1627,
      "Or": 1628,
      "cap": 1629,
      "ining": 1630,
      "today": 1631,
      "controll": 1632,
      "sa": 1633,
      "water": 1634,
      "thod": 1635,
      "itive": 1636,
      "itional": 1637,
      "road": 1638,
      "Pharmacokinetics": 1639,
      "during": 1640,
      "pred": 1641,
      "ention": 1642,
      "uses": 1643,
      "spir": 1644,
      "ounds": 1645,
      "excell": 1646,
      "ball": 1647,
      "stat": 1648,
      "looking": 1649,
      "ength": 1650,
      "after": 1651,
      "scape": 1652,
      "wards": 1653,
      "num": 1654,
      "type": 1655,
      "15": 1656,
      "lish": 1657,
      "account": 1658,
      "overn": 1659,
      "specialist": 1660,
      "istribut": 1661,
      "aim": 1662,
      "ele": 1663,
      "comput": 1664,
      "ients": 1665,
      "ditional": 1666,
      "question": 1667,
      "Targeted": 1668,
      "card": 1669,
      "nP": 1670,
      "tric": 1671,
      "natural": 1672,
      "Med": 1673,
      "physical": 1674,
      "stay": 1675,
      "meas": 1676,
      "Sc": 1677,
      "eck": 1678,
      "formal": 1679,
      "iques": 1680,
      "software": 1681,
      "nC": 1682,
      "influ": 1683,
      "analyz": 1684,
      "proofs": 1685,
      "bel": 1686,
      "mit": 1687,
      "calculus": 1688,
      "captivates": 1689,
      "ule": 1690,
      "insights": 1691,
      "sequences": 1692,
      "piec": 1693,
      "Ab": 1694,
      "Lo": 1695,
      "conver": 1696,
      "ledge": 1697,
      "opportunities": 1698,
      "ties": 1699,
      "hold": 1700,
      "sens": 1701,
      "term": 1702,
      "class": 1703,
      "afety": 1704,
      "innovative": 1705,
      "behavior": 1706,
      "side": 1707,
      "While": 1708,
      "concept": 1709,
      ")\",": 1710,
      "_specialist": 1711,
      "writ": 1712,
      "user_specialist": 1713,
      "lar": 1714,
      "towards": 1715,
      "adapt": 1716,
      "actly": 1717,
      "response": 1718,
      "efficient": 1719,
      "media": 1720,
      "frien": 1721,
      "Adv": 1722,
      "cultural": 1723,
      "happ": 1724,
      "tem": 1725,
      "itut": 1726,
      "concer": 1727,
      "ulation": 1728,
      "emotional": 1729,
      "Ef": 1730,
      "reli": 1731,
      "lobal": 1732,
      "Explain": 1733,
      "urity": 1734,
      "apply": 1735,
      "areas": 1736,
      "pressure": 1737,
      "turn": 1738,
      "pac": 1739,
      "equip": 1740,
      "absor": 1741,
      "iple": 1742,
      "grou": 1743,
      "value": 1744,
      "free": 1745,
      "ature": 1746,
      "aring": 1747,
      "accur": 1748,
      "Remember": 1749,
      "dent": 1750,
      "odies": 1751,
      "ether": 1752,
      "hind": 1753,
      "yp": 1754,
      "ator": 1755,
      "conclusion": 1756,
      "ches": 1757,
      "method": 1758,
      "ewel": 1759,
      "leading": 1760,
      "financial": 1761,
      "patients": 1762,
      "ht": 1763,
      "stream": 1764,
      "lection": 1765,
      "goals": 1766,
      "navigate": 1767,
      "tic": 1768,
      "enh": 1769,
      "researchers": 1770,
      "eed": 1771,
      "ww": 1772,
      "rema": 1773,
      "els": 1774,
      "elves": 1775,
      "mental": 1776,
      "overall": 1777,
      "armace": 1778,
      "reduce": 1779,
      "disease": 1780,
      "armaceut": 1781,
      "Mo": 1782,
      "mes": 1783,
      "wide": 1784,
      "perfect": 1785,
      "armaceutical": 1786,
      "ek": 1787,
      "init": 1788,
      "revolution": 1789,
      "ults": 1790,
      "businesses": 1791,
      "iation": 1792,
      "Design": 1793,
      "aut": 1794,
      "isions": 1795,
      "protect": 1796,
      "utic": 1797,
      "prevent": 1798,
      "types": 1799,
      "ewelry": 1800,
      "bind": 1801,
      "dy": 1802,
      "lives": 1803,
      "nN": 1804,
      "pay": 1805,
      "iency": 1806,
      "common": 1807,
      "ium": 1808,
      "yl": 1809,
      "inj": 1810,
      "rece": 1811,
      "state": 1812,
      "ime": 1813,
      "izes": 1814,
      "certain": 1815,
      "Pract": 1816,
      "traditional": 1817,
      "onstr": 1818,
      "ask": 1819,
      "plement": 1820,
      "increasing": 1821,
      "Therap": 1822,
      "pain": 1823,
      "urther": 1824,
      "ularly": 1825,
      "ges": 1826,
      "users": 1827,
      "add": 1828,
      "ides": 1829,
      "resources": 1830,
      "expert": 1831,
      "techniques": 1832,
      "advant": 1833,
      "..": 1834,
      "Mon": 1835,
      "bers": 1836,
      "ansp": 1837,
      "ched": 1838,
      "Ind": 1839,
      "options": 1840,
      "company": 1841,
      "discover": 1842,
      "current": 1843,
      "ger": 1844,
      "n1": 1845,
      "ten": 1846,
      "another": 1847,
      "ene": 1848,
      "tom": 1849,
      "load": 1850,
      "ified": 1851,
      "seem": 1852,
      "istance": 1853,
      "employ": 1854,
      "available": 1855,
      "//": 1856,
      "ff": 1857,
      "run": 1858,
      "ank": 1859,
      "acc": 1860,
      "compan": 1861,
      "ending": 1862,
      "chool": 1863,
      "modern": 1864,
      "conditions": 1865,
      "Go": 1866,
      "nor": 1867,
      "enter": 1868,
      "lot": 1869,
      "demonstr": 1870,
      "customers": 1871,
      "decisions": 1872,
      "involves": 1873,
      "iety": 1874,
      "onom": 1875,
      "ped": 1876,
      "ster": 1877,
      "travel": 1878,
      "customer": 1879,
      "music": 1880,
      "Col": 1881,
      "200": 1882,
      "taking": 1883,
      "organization": 1884,
      "organizations": 1885,
      "reducing": 1886,
      "Ser": 1887,
      "affect": 1888,
      "local": 1889,
      "Import": 1890,
      "excellent": 1891,
      "govern": 1892,
      "here": 1893,
      "lights": 1894,
      "therape": 1895,
      "Art": 1896,
      "Techn": 1897,
      "dro": 1898,
      "flow": 1899,
      "Stud": 1900,
      "ump": 1901,
      "collabor": 1902,
      "Comp": 1903,
      "therapy": 1904,
      "attention": 1905,
      "iated": 1906,
      "idence": 1907,
      "scient": 1908,
      "values": 1909,
      "thought": 1910,
      "public": 1911,
      "-\\": 1912,
      "meet": 1913,
      "His": 1914,
      "camp": 1915,
      "ming": 1916,
      "nD": 1917,
      "ours": 1918,
      "again": 1919,
      "fully": 1920,
      "family": 1921,
      "duce": 1922,
      "ann": 1923,
      "significance": 1924,
      "maintain": 1925,
      "journey": 1926,
      "Jo": 1927,
      "ians": 1928,
      "safety": 1929,
      "comfort": 1930,
      "polic": 1931,
      "levels": 1932,
      "commitment": 1933,
      "Refer": 1934,
      "Bu": 1935,
      "fast": 1936,
      "iate": 1937,
      "ablish": 1938,
      "treatments": 1939,
      "Some": 1940,
      "don": 1941,
      "trust": 1942,
      "drive": 1943,
      "ification": 1944,
      "cording": 1945,
      "steps": 1946,
      "mil": 1947,
      "inhib": 1948,
      "behind": 1949,
      "communication": 1950,
      "transform": 1951,
      "14": 1952,
      "ause": 1953,
      "istic": 1954,
      "lik": 1955,
      "ended": 1956,
      "something": 1957,
      "Reg": 1958,
      "issue": 1959,
      "landscape": 1960,
      "easy": 1961,
      "diseases": 1962,
      "therapeutic": 1963,
      "Gr": 1964,
      "inating": 1965,
      "itors": 1966,
      "ecess": 1967,
      "exc": 1968,
      "space": 1969,
      "u2019t": 1970,
      "install": 1971,
      "enzyme": 1972,
      "discus": 1973,
      "nF": 1974,
      "ren": 1975,
      "ared": 1976,
      "works": 1977,
      "deliver": 1978,
      "culture": 1979,
      "ike": 1980,
      "across": 1981,
      "ush": 1982,
      "ulin": 1983,
      "result": 1984,
      "Research": 1985,
      "elec": 1986,
      "rate": 1987,
      "sis": 1988,
      "vital": 1989,
      "watch": 1990,
      "proble": 1991,
      "Intern": 1992,
      "Recent": 1993,
      "kn": 1994,
      "ats": 1995,
      "aged": 1996,
      "very": 1997,
      "ains": 1998,
      "phas": 1999,
      "service": 2000,
      "graph": 2001,
      "n2": 2002,
      "necess": 2003,
      "tre": 2004,
      "ouse": 2005,
      "shap": 2006,
      "developing": 2007,
      "serves": 2008,
      "knowledge": 2009,
      "multiple": 2010,
      "References": 2011,
      "due": 2012,
      "distribut": 2013,
      "nI": 2014,
      "aries": 2015,
      "ayer": 2016,
      "comple": 2017,
      "situ": 2018,
      "Prof": 2019,
      "Pharmacodynamics": 2020,
      "50": 2021,
      "order": 2022,
      "room": 2023,
      "forward": 2024,
      "odes": 2025,
      "highlights": 2026,
      "guid": 2027,
      "having": 2028,
      "companies": 2029,
      "Bo": 2030,
      "Hist": 2031,
      "non": 2032,
      "nThis": 2033,
      "nFor": 2034,
      "quick": 2035,
      "few": 2036,
      "healthcare": 2037,
      "effectively": 2038,
      "nBy": 2039,
      "loss": 2040,
      "istics": 2041,
      "website": 2042,
      "rather": 2043,
      "Bl": 2044,
      "Per": 2045,
      "block": 2046,
      "table": 2047,
      "itual": 2048,
      "ologies": 2049,
      "genetic": 2050,
      "ards": 2051,
      "consist": 2052,
      "practices": 2053,
      "oid": 2054,
      "seen": 2055,
      "search": 2056,
      "Exactly": 2057,
      "connection": 2058,
      "connected": 2059,
      "activation": 2060,
      "innovation": 2061,
      "enzymes": 2062,
      "clean": 2063,
      "joy": 2064,
      "Se": 2065,
      "mess": 2066,
      "tips": 2067,
      "strength": 2068,
      "event": 2069,
      "angu": 2070,
      "pattern": 2071,
      "doc": 2072,
      "global": 2073,
      "uro": 2074,
      "ret": 2075,
      "force": 2076,
      "informed": 2077,
      "bio": 2078,
      "meaning": 2079,
      "possible": 2080,
      "international": 2081,
      "Business": 2082,
      "ason": 2083,
      "agine": 2084,
      "pose": 2085,
      "desired": 2086,
      "direct": 2087,
      "ken": 2088,
      "lit": 2089,
      "instance": 2090,
      "American": 2091,
      "hip": 2092,
      "sol": 2093,
      "inary": 2094,
      "onic": 2095,
      "emphas": 2096,
      "beg": 2097,
      "ground": 2098,
      "avor": 2099,
      "ugg": 2100,
      "brand": 2101,
      "monitor": 2102,
      "pharmacodynamics": 2103,
      "relev": 2104,
      "feedback": 2105,
      "Mark": 2106,
      "bas": 2107,
      "xim": 2108,
      "itations": 2109,
      "und": 2110,
      "education": 2111,
      "strategy": 2112,
      "manufacturing": 2113,
      "Di": 2114,
      "bodies": 2115,
      "||": 2116,
      "security": 2117,
      "involved": 2118,
      "combination": 2119,
      "Guide": 2120,
      "Ident": 2121,
      "ption": 2122,
      "review": 2123,
      "outcomes": 2124,
      "opportunity": 2125,
      "pathways": 2126,
      "likely": 2127,
      "Pers": 2128,
      "dist": 2129,
      "stain": 2130,
      "ecial": 2131,
      "transp": 2132,
      "ception": 2133,
      "ually": 2134,
      "advanced": 2135,
      "Role": 2136,
      "solutions": 2137,
      "mach": 2138,
      "say": 2139,
      "recept": 2140,
      "conf": 2141,
      "plac": 2142,
      "princ": 2143,
      "developments": 2144,
      "predict": 2145,
      "iples": 2146,
      "mut": 2147,
      "ved": 2148,
      "implications": 2149,
      "achiev": 2150,
      "results": 2151,
      "dren": 2152,
      "video": 2153,
      "marketing": 2154,
      "Gene": 2155,
      "aking": 2156,
      "bed": 2157,
      "roof": 2158,
      "consequences": 2159,
      "activity": 2160,
      "precise": 2161,
      "platforms": 2162,
      "popular": 2163,
      "Medic": 2164,
      "big": 2165,
      "did": 2166,
      "further": 2167,
      "goal": 2168,
      "Act": 2169,
      "mission": 2170,
      "PI": 2171,
      "jewelry": 2172,
      "erc": 2173,
      "ildren": 2174,
      "admin": 2175,
      "ift": 2176,
      "option": 2177,
      "establish": 2178,
      "connections": 2179,
      "properties": 2180,
      "ale": 2181,
      "driving": 2182,
      "highlight": 2183,
      "decision": 2184,
      "against": 2185,
      "known": 2186,
      "ax": 2187,
      "past": 2188,
      "rich": 2189,
      "There": 2190,
      "correct": 2191,
      "advance": 2192,
      "seeking": 2193,
      "because": 2194,
      "fa": 2195,
      "gRNA": 2196,
      "last": 2197,
      "much": 2198,
      "econom": 2199,
      "consu": 2200,
      "complexities": 2201,
      "surround": 2202,
      "environmental": 2203,
      "called": 2204,
      "piece": 2205,
      "icro": 2206,
      "progress": 2207,
      "Take": 2208,
      "bor": 2209,
      "den": 2210,
      "fit": 2211,
      "tle": 2212,
      "ints": 2213,
      "among": 2214,
      "tra": 2215,
      "ibr": 2216,
      "simple": 2217,
      "telling": 2218,
      "necessary": 2219,
      "Dis": 2220,
      "Em": 2221,
      "away": 2222,
      "fasc": 2223,
      "n3": 2224,
      "ping": 2225,
      "err": 2226,
      "produce": 2227,
      "Additional": 2228,
      "Development": 2229,
      "testament": 2230,
      "Importance": 2231,
      "18": 2232,
      "Cr": 2233,
      "alg": 2234,
      "ste": 2235,
      "implement": 2236,
      "sug": 2237,
      "going": 2238,
      "proteins": 2239,
      "promoting": 2240,
      "Therapies": 2241,
      "patterns": 2242,
      "ER": 2243,
      "him": 2244,
      "area": 2245,
      "manage": 2246,
      "provided": 2247,
      "AT": 2248,
      "pair": 2249,
      "u2": 2250,
      "u30": 2251,
      "atory": 2252,
      "pharmaceutical": 2253,
      "technologies": 2254,
      "relevant": 2255,
      "Sec": 2256,
      "hard": 2257,
      "hood": 2258,
      "ined": 2259,
      "ery": 2260,
      "child": 2261,
      "draw": 2262,
      "000": 2263,
      "month": 2264,
      "Jour": 2265,
      "cop": 2266,
      "osp": 2267,
      "vol": 2268,
      "thetic": 2269,
      "uly": 2270,
      "track": 2271,
      "she": 2272,
      "friend": 2273,
      "normal": 2274,
      "cat": 2275,
      "mers": 2276,
      "nB": 2277,
      "icated": 2278,
      "trends": 2279,
      "ids": 2280,
      "code": 2281,
      "positive": 2282,
      "concerns": 2283,
      "://": 2284,
      "far": 2285,
      "fost": 2286,
      "nG": 2287,
      "win": 2288,
      "still": 2289,
      "oud": 2290,
      "iment": 2291,
      "sustain": 2292,
      "artic": 2293,
      "craf": 2294,
      "fascinating": 2295,
      "ief": 2296,
      "wind": 2297,
      "ince": 2298,
      "ises": 2299,
      "appl": 2300,
      "Cons": 2301,
      "buy": 2302,
      "II": 2303,
      "Pre": 2304,
      "flex": 2305,
      "la": 2306,
      "u2022": 2307,
      "eter": 2308,
      "aper": 2309,
      "signals": 2310,
      "assoc": 2311,
      "player": 2312,
      "throughout": 2313,
      "encour": 2314,
      "setting": 2315,
      "efficiency": 2316,
      "programs": 2317,
      "improved": 2318,
      "htt": 2319,
      "Val": 2320,
      "dam": 2321,
      "job": 2322,
      "oto": 2323,
      "pack": 2324,
      "always": 2325,
      "elim": 2326,
      "abilities": 2327,
      "events": 2328,
      "region": 2329,
      "leaders": 2330,
      "includes": 2331,
      "feature": 2332,
      "planning": 2333,
      "principles": 2334,
      "cut": 2335,
      "ox": 2336,
      "beaut": 2337,
      "forms": 2338,
      "aily": 2339,
      "breast": 2340,
      "parts": 2341,
      "activities": 2342,
      "position": 2343,
      "methods": 2344,
      "Identify": 2345,
      "Data": 2346,
      "From": 2347,
      "eth": 2348,
      "ners": 2349,
      "tor": 2350,
      "thon": 2351,
      "ports": 2352,
      "Health": 2353,
      "enables": 2354,
      "Br": 2355,
      "Pol": 2356,
      "SE": 2357,
      "langu": 2358,
      "ses": 2359,
      "lying": 2360,
      "Inter": 2361,
      "gram": 2362,
      "Web": 2363,
      "fund": 2364,
      "continues": 2365,
      "famil": 2366,
      "World": 2367,
      "quickly": 2368,
      "Car": 2369,
      "city": 2370,
      "living": 2371,
      "mar": 2372,
      "women": 2373,
      "ories": 2374,
      "practice": 2375,
      "author": 2376,
      "No": 2377,
      "PD": 2378,
      "ai": 2379,
      "fill": 2380,
      "foot": 2381,
      "nL": 2382,
      "ric": 2383,
      "uries": 2384,
      "ivate": 2385,
      "idea": 2386,
      "ock": 2387,
      "elling": 2388,
      "matic": 2389,
      "presence": 2390,
      "increase": 2391,
      "visual": 2392,
      "expertise": 2393,
      "Profess": 2394,
      "AI": 2395,
      "At": 2396,
      "cases": 2397,
      "ging": 2398,
      "urch": 2399,
      "ival": 2400,
      "sharing": 2401,
      "match": 2402,
      "plays": 2403,
      "medication": 2404,
      "================================================": 2405,
      "revolutionized": 2406,
      "13": 2407,
      "CO": 2408,
      "High": 2409,
      "Pres": 2410,
      "Sy": 2411,
      "nal": 2412,
      "attract": 2413,
      "acing": 2414,
      "ecut": 2415,
      "omes": 2416,
      "urance": 2417,
      "credit": 2418,
      "profession": 2419,
      "Biomedical": 2420,
      "orders": 2421,
      "analyze": 2422,
      "Market": 2423,
      "got": 2424,
      "ally": 2425,
      "theory": 2426,
      "children": 2427,
      "immun": 2428,
      "emak": 2429,
      "spect": 2430,
      "aving": 2431,
      "Code": 2432,
      "shared": 2433,
      "particip": 2434,
      "Strateg": 2435,
      "jor": 2436,
      "narr": 2437,
      "same": 2438,
      "things": 2439,
      "orig": 2440,
      "stitut": 2441,
      "expression": 2442,
      "istry": 2443,
      "clients": 2444,
      "depend": 2445,
      "conversion": 2446,
      "promote": 2447,
      "cript": 2448,
      "):": 2449,
      "nT": 2450,
      "detect": 2451,
      "short": 2452,
      ":**\\": 2453,
      "member": 2454,
      "recognize": 2455,
      "Work": 2456,
      "group": 2457,
      "sounds": 2458,
      "wel": 2459,
      "enjoy": 2460,
      "icity": 2461,
      "otherap": 2462,
      "prep": 2463,
      "costs": 2464,
      "scientists": 2465,
      "Au": 2466,
      "sess": 2467,
      "wit": 2468,
      "ython": 2469,
      "inical": 2470,
      "three": 2471,
      "org": 2472,
      "embr": 2473,
      "termin": 2474,
      "ensures": 2475,
      "encies": 2476,
      "199": 2477,
      "studies": 2478,
      "easily": 2479,
      "pharmacokinetics": 2480,
      "members": 2481,
      "molecules": 2482,
      "authent": 2483,
      "Met": 2484,
      "aign": 2485,
      "mom": 2486,
      "wal": 2487,
      "intric": 2488,
      "report": 2489,
      "reactions": 2490,
      "arly": 2491,
      "amoun": 2492,
      "words": 2493,
      "shop": 2494,
      "markdown": 2495,
      "echanism": 2496,
      "arri": 2497,
      "balance": 2498,
      "property": 2499,
      "single": 2500,
      "writing": 2501,
      "food": 2502,
      "hol": 2503,
      "hop": 2504,
      "iod": 2505,
      "nodes": 2506,
      "alu": 2507,
      "outs": 2508,
      "ars": 2509,
      "prim": 2510,
      "evalu": 2511,
      "Engineering": 2512,
      "heard": 2513,
      "changing": 2514,
      "sequence": 2515,
      "Effect": 2516,
      "date": 2517,
      "kind": 2518,
      "smo": 2519,
      "atives": 2520,
      "print": 2521,
      "sources": 2522,
      "Commun": 2523,
      "medicines": 2524,
      "Examples": 2525,
      "expected": 2526,
      ".\\\".\\": 2527,
      "Technology": 2528,
      "Build": 2529,
      "begin": 2530,
      "25": 2531,
      "=\\": 2532,
      "mag": 2533,
      "tow": 2534,
      "ilt": 2535,
      "empower": 2536,
      "strugg": 2537,
      "cris": 2538,
      "apprec": 2539,
      "nSo": 2540,
      "secure": 2541,
      "limitations": 2542,
      "spiritual": 2543,
      "converted": 2544,
      "equipment": 2545,
      "rates": 2546,
      "inde": 2547,
      "ica": 2548,
      "imate": 2549,
      "emer": 2550,
      "emerg": 2551,
      "ficult": 2552,
      "government": 2553,
      "administr": 2554,
      "associated": 2555,
      "Over": 2556,
      "bound": 2557,
      "daily": 2558,
      "sat": 2559,
      "esp": 2560,
      "word": 2561,
      "driven": 2562,
      "front": 2563,
      "healthy": 2564,
      "questions": 2565,
      "Management": 2566,
      "guidelines": 2567,
      "professionals": 2568,
      "Sign": 2569,
      "div": 2570,
      "lat": 2571,
      "wa": 2572,
      "ening": 2573,
      "thems": 2574,
      "ilit": 2575,
      "occur": 2576,
      "created": 2577,
      "Whether": 2578,
      "Connect": 2579,
      "syn": 2580,
      "El": 2581,
      "link": 2582,
      "nH": 2583,
      "rap": 2584,
      "tissues": 2585,
      "ony": 2586,
      "orith": 2587,
      "align": 2588,
      "developed": 2589,
      "presents": 2590,
      "identity": 2591,
      "difficult": 2592,
      "really": 2593,
      "models": 2594,
      "games": 2595,
      "enhance": 2596,
      "policy": 2597,
      "themselves": 2598,
      "Benefits": 2599,
      "IC": 2600,
      "Our": 2601,
      "Sim": 2602,
      "cup": 2603,
      "gre": 2604,
      "pet": 2605,
      "creative": 2606,
      "ension": 2607,
      "responsible": 2608,
      "availability": 2609,
      "temper": 2610,
      "History": 2611,
      "faith": 2612,
      "economic": 2613,
      "fundament": 2614,
      "otherapy": 2615,
      "hic": 2616,
      "nProdrugs": 2617,
      "nOne": 2618,
      "u0": 2619,
      "exist": 2620,
      "chain": 2621,
      "true": 2622,
      "training": 2623,
      "output": 2624,
      "illion": 2625,
      "engage": 2626,
      "insulin": 2627,
      "needed": 2628,
      "regulate": 2629,
      "Before": 2630,
      "gaming": 2631,
      "electr": 2632,
      "guidance": 2633,
      "AD": 2634,
      "All": 2635,
      "Block": 2636,
      "Rel": 2637,
      "cir": 2638,
      "dat": 2639,
      "ft": 2640,
      "instruc": 2641,
      "incorpor": 2642,
      "refer": 2643,
      "Improv": 2644,
      "improving": 2645,
      "large": 2646,
      "advantages": 2647,
      "16": 2648,
      "AR": 2649,
      "Edit": 2650,
      "ipl": 2651,
      "name": 2652,
      "ters": 2653,
      "ently": 2654,
      "cel": 2655,
      "coming": 2656,
      "ifically": 2657,
      "period": 2658,
      "Inv": 2659,
      "spe": 2660,
      "Imagine": 2661,
      "successful": 2662,
      "legal": 2663,
      "International": 2664,
      "bro": 2665,
      "bol": 2666,
      "host": 2667,
      "remin": 2668,
      "determin": 2669,
      "igation": 2670,
      "appe": 2671,
      "application": 2672,
      "ote": 2673,
      "major": 2674,
      "shape": 2675,
      "grad": 2676,
      "developers": 2677,
      "record": 2678,
      "insurance": 2679,
      "acknow": 2680,
      "efficacy": 2681,
      "regulation": 2682,
      "particularly": 2683,
      "aspects": 2684,
      "measure": 2685,
      "Study": 2686,
      "collaboration": 2687,
      "docu": 2688,
      "fail": 2689,
      "won": 2690,
      "ulate": 2691,
      "season": 2692,
      "respect": 2693,
      "points": 2694,
      "full": 2695,
      "Exper": 2696,
      "component": 2697,
      "purch": 2698,
      "gluc": 2699,
      "computer": 2700,
      "campaign": 2701,
      "algorith": 2702,
      "Air": 2703,
      "Min": 2704,
      "National": 2705,
      "iew": 2706,
      "ina": 2707,
      "ites": 2708,
      "aren": 2709,
      "forts": 2710,
      "never": 2711,
      "avoid": 2712,
      "Cho": 2713,
      "node": 2714,
      "someone": 2715,
      "192": 2716,
      "production": 2717,
      "medications": 2718,
      "increased": 2719,
      "--------------------------------": 2720,
      "maintaining": 2721,
      "Christian": 2722,
      "contribute": 2723,
      "number": 2724,
      "elements": 2725,
      "US": 2726,
      "__": 2727,
      "base": 2728,
      "ulner": 2729,
      "engine": 2730,
      "engagement": 2731,
      "required": 2732,
      "diag": 2733,
      "Applications": 2734,
      "approaches": 2735,
      "Online": 2736,
      "sales": 2737,
      "Serv": 2738,
      "exciting": 2739,
      ",\\\"": 2740,
      "Ver": 2741,
      "til": 2742,
      "ered": 2743,
      "vehic": 2744,
      "cele": 2745,
      "conduc": 2746,
      "truly": 2747,
      "tax": 2748,
      "location": 2749,
      "communic": 2750,
      "iverse": 2751,
      "teams": 2752,
      "polit": 2753,
      "projects": 2754,
      "influenc": 2755,
      "embracing": 2756,
      "Bre": 2757,
      "harm": 2758,
      "nHere": 2759,
      "uel": 2760,
      "thes": 2761,
      "itect": 2762,
      "too": 2763,
      "tocol": 2764,
      "email": 2765,
      "apart": 2766,
      "contain": 2767,
      "cryp": 2768,
      "aste": 2769,
      "specifically": 2770,
      "respond": 2771,
      "release": 2772,
      "increasingly": 2773,
      "distribution": 2774,
      "advancements": 2775,
      "GC": 2776,
      "Hy": 2777,
      "IT": 2778,
      "ME": 2779,
      "Sm": 2780,
      "lies": 2781,
      "teach": 2782,
      "infr": 2783,
      "rob": 2784,
      "ived": 2785,
      "idents": 2786,
      "creat": 2787,
      "signal": 2788,
      "Char": 2789,
      "competition": 2790,
      "foundation": 2791,
      "www": 2792,
      "reminder": 2793,
      "Def": 2794,
      "Po": 2795,
      "Qu": 2796,
      "Rev": 2797,
      "tum": 2798,
      "inking": 2799,
      "oul": 2800,
      "exception": 2801,
      "yourself": 2802,
      "ibilities": 2803,
      "underlying": 2804,
      "locking": 2805,
      "ogle": 2806,
      "Action": 2807,
      "sets": 2808,
      "century": 2809,
      "Plan": 2810,
      "nature": 2811,
      "said": 2812,
      "Fe": 2813,
      "Pe": 2814,
      "^^": 2815,
      "size": 2816,
      "scor": 2817,
      "confl": 2818,
      "check": 2819,
      "stress": 2820,
      "gency": 2821,
      "takes": 2822,
      "heav": 2823,
      "ready": 2824,
      "times": 2825,
      "akes": 2826,
      "days": 2827,
      "choice": 2828,
      "Play": 2829,
      "precision": 2830,
      "typically": 2831,
      "enabling": 2832,
      "storytelling": 2833,
      "operation": 2834,
      "Practical": 2835,
      "surrounding": 2836,
      "language": 2837,
      "Strategies": 2838,
      "smooth": 2839,
      "especial": 2840,
      "11": 2841,
      "Cal": 2842,
      "solution": 2843,
      "since": 2844,
      "ton": 2845,
      "orical": 2846,
      "ford": 2847,
      "efforts": 2848,
      "enses": 2849,
      "Enzy": 2850,
      "University": 2851,
      "osing": 2852,
      "vision": 2853,
      "requirements": 2854,
      "chemical": 2855,
      "https": 2856,
      "====================================================": 2857,
      "especially": 2858,
      "Nor": 2859,
      "Par": 2860,
      "Wow": 2861,
      "nWhile": 2862,
      "rout": 2863,
      "rain": 2864,
      "rise": 2865,
      "iction": 2866,
      "ife": 2867,
      "super": 2868,
      "main": 2869,
      "assess": 2870,
      "ancing": 2871,
      "prefer": 2872,
      "advent": 2873,
      "namic": 2874,
      "significantly": 2875,
      "focused": 2876,
      "solutely": 2877,
      "injury": 2878,
      "Google": 2879,
      "delivery": 2880,
      "friendly": 2881,
      "instructions": 2882,
      ",\\": 2883,
      "Her": 2884,
      "oring": 2885,
      "lever": 2886,
      "ays": 2887,
      "client": 2888,
      "allen": 2889,
      "Enh": 2890,
      "evolv": 2891,
      "board": 2892,
      "personalized": 2893,
      "frame": 2894,
      "holders": 2895,
      "bur": 2896,
      "house": 2897,
      "ik": 2898,
      "sop": 2899,
      "stim": 2900,
      "according": 2901,
      "weak": 2902,
      "vert": 2903,
      "doing": 2904,
      "involve": 2905,
      "explored": 2906,
      "Read": 2907,
      "initi": 2908,
      "receive": 2909,
      "damage": 2910,
      "amount": 2911,
      "primary": 2912,
      "astructure": 2913,
      "eg": 2914,
      "gest": 2915,
      "nR": 2916,
      "nExample": 2917,
      "school": 2918,
      "express": 2919,
      "Their": 2920,
      "gress": 2921,
      "ought": 2922,
      "willing": 2923,
      "Challenges": 2924,
      "direc": 2925,
      "reduced": 2926,
      "greater": 2927,
      "physi": 2928,
      "ascular": 2929,
      "measures": 2930,
      "Journal": 2931,
      "latest": 2932,
      "temperature": 2933,
      "60": 2934,
      "Cult": 2935,
      "EG": 2936,
      "Ed": 2937,
      "Tips": 2938,
      "cas": 2939,
      "cast": 2940,
      "hal": 2941,
      "mbol": 2942,
      "repair": 2943,
      "ising": 2944,
      "challeng": 2945,
      "addit": 2946,
      "worth": 2947,
      "targets": 2948,
      "factor": 2949,
      "continu": 2950,
      "investment": 2951,
      "refers": 2952,
      "cause": 2953,
      "meaningful": 2954,
      "narrative": 2955,
      "diagno": 2956,
      "celebr": 2957,
      "CL": 2958,
      "Jes": 2959,
      "Lear": 2960,
      "MA": 2961,
      "Mus": 2962,
      "Of": 2963,
      "vascular": 2964,
      "exerc": 2965,
      "ung": 2966,
      "week": 2967,
      "neys": 2968,
      "lower": 2969,
      "person": 2970,
      "series": 2971,
      "demand": 2972,
      "hydro": 2973,
      "u00b": 2974,
      "aims": 2975,
      "pacemak": 2976,
      "accurate": 2977,
      "Joh": 2978,
      "highlighting": 2979,
      "moment": 2980,
      "Invest": 2981,
      "glucose": 2982,
      "allenge": 2983,
      "Jesus": 2984,
      "Digital": 2985,
      "Early": 2986,
      "Set": 2987,
      "ng": 2988,
      "erous": 2989,
      "enance": 2990,
      "root": 2991,
      "terms": 2992,
      "umps": 2993,
      "communities": 2994,
      "appear": 2995,
      "object": 2996,
      "reliable": 2997,
      "absorption": 2998,
      "...": 2999,
      "flexibility": 3000,
      "welcome": 3001,
      "town": 3002,
      "fundamental": 3003,
      "Soft": 3004,
      "ck": 3005,
      "men": 3006,
      "thus": 3007,
      "acid": 3008,
      "impress": 3009,
      "maxim": 3010,
      "eful": 3011,
      "evolve": 3012,
      "sites": 3013,
      "regular": 3014,
      "ifying": 3015,
      "akeholders": 3016,
      "trying": 3017,
      "Personal": 3018,
      "!\"}": 3019,
      "Are": 3020,
      "Fin": 3021,
      "Pat": 3022,
      "ned": 3023,
      "nOn": 3024,
      "rent": 3025,
      "sched": 3026,
      "itiz": 3027,
      "ource": 3028,
      "iding": 3029,
      "photo": 3030,
      "science": 3031,
      "minut": 3032,
      "Comput": 3033,
      "country": 3034,
      "becomes": 3035,
      "institut": 3036,
      "2023": 3037,
      "movement": 3038,
      "passion": 3039,
      "characteristics": 3040,
      "complete": 3041,
      "Perform": 3042,
      "applied": 3043,
      "circ": 3044,
      "infrastructure": 3045,
      "creativity": 3046,
      "exceptional": 3047,
      "challenging": 3048,
      "ID": 3049,
      "Me": 3050,
      "Mod": 3051,
      "Red": 3052,
      "har": 3053,
      "mm": 3054,
      "mix": 3055,
      "nBefore": 3056,
      "rup": 3057,
      "ux": 3058,
      "thor": 3059,
      "acking": 3060,
      "lev": 3061,
      "asks": 3062,
      "challenge": 3063,
      "ager": 3064,
      "uct": 3065,
      "master": 3066,
      "antic": 3067,
      "creates": 3068,
      "interests": 3069,
      "bile": 3070,
      "fee": 3071,
      "scen": 3072,
      "locks": 3073,
      "higher": 3074,
      "auto": 3075,
      "society": 3076,
      "device": 3077,
      "limited": 3078,
      "discipl": 3079,
      "condition": 3080,
      "safe": 3081,
      ")**:": 3082,
      "Coun": 3083,
      "Future": 3084,
      "Ke": 3085,
      "fall": 3086,
      "favor": 3087,
      "kin": 3088,
      "mor": 3089,
      "mid": 3090,
      "vulner": 3091,
      "edit": 3092,
      "wear": 3093,
      "began": 3094,
      "getting": 3095,
      "Program": 3096,
      "marks": 3097,
      "marked": 3098,
      "emotions": 3099,
      "stories": 3100,
      "metabolism": 3101,
      "analyzing": 3102,
      "original": 3103,
      "hope": 3104,
      "Card": 3105,
      "ML": 3106,
      "Out": 3107,
      "PA": 3108,
      "PC": 3109,
      "Sou": 3110,
      "bs": 3111,
      "diverse": 3112,
      "gather": 3113,
      "paper": 3114,
      "tual": 3115,
      "uit": 3116,
      "ester": 3117,
      "stability": 3118,
      "edges": 3119,
      "iss": 3120,
      "ented": 3121,
      "entire": 3122,
      "excre": 3123,
      "pros": 3124,
      "amin": 3125,
      "trig": 3126,
      "qual": 3127,
      "resistance": 3128,
      "effort": 3129,
      "owners": 3130,
      "United": 3131,
      "collect": 3132,
      "details": 3133,
      "vious": 3134,
      "Social": 3135,
      "facilit": 3136,
      "purpose": 3137,
      "controller": 3138,
      "equipped": 3139,
      "dynamics": 3140,
      "India": 3141,
      "immune": 3142,
      "Building": 3143,
      "Lim": 3144,
      "ees": 3145,
      "hours": 3146,
      "iet": 3147,
      "scre": 3148,
      "sav": 3149,
      "edge": 3150,
      "plant": 3151,
      "additional": 3152,
      "young": 3153,
      "experien": 3154,
      "career": 3155,
      "growing": 3156,
      "reflec": 3157,
      "maintenance": 3158,
      "reaching": 3159,
      "influence": 3160,
      "Post": 3161,
      "Up": 3162,
      "broad": 3163,
      "hor": 3164,
      "once": 3165,
      "stakeholders": 3166,
      "itage": 3167,
      "touch": 3168,
      "shift": 3169,
      "Produc": 3170,
      "server": 3171,
      "news": 3172,
      "worldwide": 3173,
      "starting": 3174,
      "defense": 3175,
      "Organ": 3176,
      "happens": 3177,
      "remains": 3178,
      "problems": 3179,
      "shaping": 3180,
      "Consider": 3181,
      "100": 3182,
      "70": 3183,
      "Euro": 3184,
      "Law": 3185,
      "Mechanisms": 3186,
      "\\\\": 3187,
      "dur": 3188,
      "fire": 3189,
      "micro": 3190,
      "nW": 3191,
      "na": 3192,
      "waste": 3193,
      "eration": 3194,
      "tox": 3195,
      "asp": 3196,
      "pli": 3197,
      "plans": 3198,
      "ames": 3199,
      "outcome": 3200,
      "profile": 3201,
      "focusing": 3202,
      "fields": 3203,
      "addressing": 3204,
      "cription": 3205,
      "Open": 3206,
      "controlled": 3207,
      "groups": 3208,
      "remain": 3209,
      "situation": 3210,
      "directly": 3211,
      "Medicine": 3212,
      "crisis": 3213,
      "satis": 3214,
      "addition": 3215,
      "Loc": 3216,
      "Life": 3217,
      "Mich": 3218,
      "NT": 3219,
      "aways": 3220,
      "bit": 3221,
      "four": 3222,
      "live": 3223,
      "liver": 3224,
      "war": 3225,
      "unch": 3226,
      "---": 3227,
      "weight": 3228,
      "aff": 3229,
      "played": 3230,
      "skill": 3231,
      "2026": 3232,
      "iovascular": 3233,
      "risks": 3234,
      "molecular": 3235,
      "initial": 3236,
      "achieving": 3237,
      "u2192": 3238,
      "CE": 3239,
      "Care": 3240,
      "Case": 3241,
      "eral": 3242,
      "remember": 3243,
      "stances": 3244,
      "execut": 3245,
      "uss": 3246,
      "iring": 3247,
      "oday": 3248,
      "ume": 3249,
      "taken": 3250,
      "------------": 3251,
      "version": 3252,
      "motiv": 3253,
      "autom": 3254,
      "surface": 3255,
      "regulatory": 3256,
      "finding": 3257,
      "integration": 3258,
      "molecule": 3259,
      "dedication": 3260,
      "Effic": 3261,
      "problem": 3262,
      "monitoring": 3263,
      "catal": 3264,
      "Europe": 3265,
      "33": 3266,
      "Educ": 3267,
      "School": 3268,
      "TA": 3269,
      "fear": 3270,
      "hon": 3271,
      "mise": 3272,
      "rad": 3273,
      "rights": 3274,
      "tics": 3275,
      "era": 3276,
      "enthus": 3277,
      "exhib": 3278,
      "ceed": 3279,
      "clar": 3280,
      "Prote": 3281,
      "built": 3282,
      "According": 3283,
      "graphy": 3284,
      "mpto": 3285,
      "optimal": 3286,
      "optimize": 3287,
      "elimin": 3288,
      "Marketing": 3289,
      "administration": 3290,
      "incorporating": 3291,
      "PK": 3292,
      "net": 3293,
      "rough": 3294,
      "ych": 3295,
      "reput": 3296,
      "stant": 3297,
      "asons": 3298,
      "\\\"\\": 3299,
      "suf": 3300,
      "Incre": 3301,
      "door": 3302,
      "partners": 3303,
      "allowed": 3304,
      "nesses": 3305,
      "choose": 3306,
      "investors": 3307,
      "faced": 3308,
      "bloodstream": 3309,
      "minimize": 3310,
      "numerous": 3311,
      "comfortable": 3312,
      "sustainable": 3313,
      "Cor": 3314,
      "La": 3315,
      "Sup": 3316,
      "bon": 3317,
      "benef": 3318,
      "cil": 3319,
      "mist": 3320,
      "mechanism": 3321,
      "vo": 3322,
      "return": 3323,
      "store": 3324,
      "lean": 3325,
      "bey": 3326,
      "clinical": 3327,
      "creation": 3328,
      "generation": 3329,
      "scale": 3330,
      "designing": 3331,
      "processing": 3332,
      "197": 3333,
      "iveness": 3334,
      "symbol": 3335,
      "talk": 3336,
      "manufactur": 3337,
      "Spir": 3338,
      "Absolutely": 3339,
      "boundaries": 3340,
      "Improved": 3341,
      "Review": 3342,
      "physiological": 3343,
      "eel": 3344,
      "lin": 3345,
      "near": 3346,
      "ram": 3347,
      "u2026": 3348,
      "insp": 3349,
      "promis": 3350,
      "2020": 3351,
      "phen": 3352,
      "ellig": 3353,
      "dose": 3354,
      "nother": 3355,
      "incred": 3356,
      "enabled": 3357,
      "advantage": 3358,
      "ourselves": 3359,
      "distinc": 3360,
      "transport": 3361,
      "receptor": 3362,
      "families": 3363,
      "emerged": 3364,
      "mptoms": 3365,
      "CS": 3366,
      "LE": 3367,
      "Reduc": 3368,
      "Time": 3369,
      "gar": 3370,
      "anch": 3371,
      "ored": 3372,
      "loved": 3373,
      "iles": 3374,
      "ilar": 3375,
      "construc": 3376,
      "agents": 3377,
      "idden": 3378,
      "Indi": 3379,
      "reson": 3380,
      "anger": 3381,
      "blend": 3382,
      "oga": 3383,
      "reflect": 3384,
      "expectations": 3385,
      "characterized": 3386,
      "friends": 3387,
      "discovery": 3388,
      "situations": 3389,
      "reviews": 3390,
      "machine": 3391,
      "existing": 3392,
      "algorithms": 3393,
      "beyond": 3394,
      "Hol": 3395,
      "Medical": 3396,
      "Make": 3397,
      "Off": 3398,
      "Ty": 3399,
      "Using": 3400,
      "ael": 3401,
      "cing": 3402,
      "done": 3403,
      "nWe": 3404,
      "push": 3405,
      "sound": 3406,
      "thinking": 3407,
      "enable": 3408,
      "defin": 3409,
      "ables": 3410,
      "ials": 3411,
      "rest": 3412,
      "spread": 3413,
      "descr": 3414,
      "signaling": 3415,
      "playing": 3416,
      "Impact": 3417,
      "198": 3418,
      "ished": 3419,
      "skin": 3420,
      "poly": 3421,
      "u00e": 3422,
      "football": 3423,
      "areness": 3424,
      "Don": 3425,
      "Ger": 3426,
      "Ne": 3427,
      "Te": 3428,
      "kers": 3429,
      "tasks": 3430,
      "along": 3431,
      "tocurr": 3432,
      "eco": 3433,
      "omics": 3434,
      "proced": 3435,
      "emb": 3436,
      "whether": 3437,
      "Inte": 3438,
      "mail": 3439,
      "cles": 3440,
      "ept": 3441,
      "aves": 3442,
      "inside": 3443,
      "whole": 3444,
      "easier": 3445,
      "status": 3446,
      "pieces": 3447,
      "absorbed": 3448,
      "accuracy": 3449,
      "Professor": 3450,
      "Metabol": 3451,
      "Integr": 3452,
      "24": 3453,
      "Cent": 3454,
      "Custom": 3455,
      "Rep": 3456,
      "wall": 3457,
      "anks": 3458,
      "ench": 3459,
      "atter": 3460,
      "ares": 3461,
      "ilver": 3462,
      "igr": 3463,
      "chr": 3464,
      "until": 3465,
      "phone": 3466,
      "evidence": 3467,
      "cert": 3468,
      "serve": 3469,
      "consid": 3470,
      "heritage": 3471,
      "shows": 3472,
      "Look": 3473,
      "applying": 3474,
      "Model": 3475,
      "binding": 3476,
      "confidence": 3477,
      "Hear": 3478,
      "Su": 3479,
      "]\\": 3480,
      "fans": 3481,
      "fuel": 3482,
      "gree": 3483,
      "recomm": 3484,
      "represents": 3485,
      "ised": 3486,
      "concentr": 3487,
      "imately": 3488,
      "iful": 3489,
      "irst": 3490,
      "ured": 3491,
      "oney": 3492,
      "ifications": 3493,
      "ugh": 3494,
      "brid": 3495,
      "careful": 3496,
      "carefully": 3497,
      "195": 3498,
      "Trans": 3499,
      "ternative": 3500,
      "strategic": 3501,
      "metal": 3502,
      "vention": 3503,
      "architect": 3504,
      "identifying": 3505,
      "centrality": 3506,
      "message": 3507,
      "Effective": 3508,
      "rapid": 3509,
      "Editing": 3510,
      "Education": 3511,
      "40": 3512,
      "Bet": 3513,
      "RA": 3514,
      "TO": 3515,
      "Vis": 3516,
      "bir": 3517,
      "iar": 3518,
      "lay": 3519,
      "lack": 3520,
      "nPharmacokinetics": 3521,
      "uz": 3522,
      "vic": 3523,
      "Think": 3524,
      "util": 3525,
      "private": 3526,
      "Ins": 3527,
      "resil": 3528,
      "posed": 3529,
      "antib": 3530,
      "intended": 3531,
      "u2014": 3532,
      "u2018": 3533,
      "crim": 3534,
      "disorders": 3535,
      "icket": 3536,
      "second": 3537,
      "Respon": 3538,
      "everyone": 3539,
      "studying": 3540,
      "injuries": 3541,
      "renew": 3542,
      "receptors": 3543,
      "Additionally": 3544,
      "speak": 3545,
      "Cell": 3546,
      "FR": 3547,
      "May": 3548,
      "Yes": 3549,
      "hab": 3550,
      "hosp": 3551,
      "nIt": 3552,
      "nDr": 3553,
      "nLet": 3554,
      "pite": 3555,
      "u20": 3556,
      "ert": 3557,
      "reality": 3558,
      "reasons": 3559,
      "itation": 3560,
      "itch": 3561,
      "vey": 3562,
      "else": 3563,
      "usive": 3564,
      "aps": 3565,
      "speed": 3566,
      "cred": 3567,
      "itself": 3568,
      "brain": 3569,
      "box": 3570,
      "invent": 3571,
      "awareness": 3572,
      "athy": 3573,
      "difference": 3574,
      "psych": 3575,
      "reduction": 3576,
      "investig": 3577,
      "minimizing": 3578,
      "paced": 3579,
      "error": 3580,
      "Back": 3581,
      "Dy": 3582,
      "Part": 3583,
      "pa": 3584,
      "swe": 3585,
      "anim": 3586,
      "themat": 3587,
      "star": 3588,
      "loop": 3589,
      "agencies": 3590,
      "---\\": 3591,
      "lysis": 3592,
      "price": 3593,
      "umb": 3594,
      "ultimately": 3595,
      "similar": 3596,
      "highly": 3597,
      "transfer": 3598,
      "film": 3599,
      "capabilities": 3600,
      "seems": 3601,
      "demonstrate": 3602,
      "strengths": 3603,
      "copy": 3604,
      "arriage": 3605,
      "acknowled": 3606,
      "itizens": 3607,
      "API": 3608,
      "Each": 3609,
      "IN": 3610,
      "Ret": 3611,
      "Today": 3612,
      "ahead": 3613,
      "hes": 3614,
      "hot": 3615,
      "libr": 3616,
      "nThese": 3617,
      "anx": 3618,
      "death": 3619,
      "ull": 3620,
      "selec": 3621,
      "uck": 3622,
      "whis": 3623,
      "prene": 3624,
      "ificial": 3625,
      "iast": 3626,
      "targeting": 3627,
      "score": 3628,
      "audiences": 3629,
      "perspective": 3630,
      "improvement": 3631,
      "milest": 3632,
      "solid": 3633,
      "mutations": 3634,
      "beautiful": 3635,
      "prepared": 3636,
      "tumor": 3637,
      "half": 3638,
      "Protein": 3639,
      "distinct": 3640,
      "preneur": 3641,
      "Del": 3642,
      "Dep": 3643,
      "FT": 3644,
      "Game": 3645,
      "Mar": 3646,
      "RN": 3647,
      "SD": 3648,
      "gold": 3649,
      "iac": 3650,
      "nIf": 3651,
      "pumps": 3652,
      "yes": 3653,
      "input": 3654,
      "tour": 3655,
      "acies": 3656,
      "Through": 3657,
      "abet": 3658,
      "une": 3659,
      "sum": 3660,
      "2000": 3661,
      "contact": 3662,
      "umab": 3663,
      "avors": 3664,
      "Energy": 3665,
      "breath": 3666,
      "symptoms": 3667,
      "competitive": 3668,
      "dedicated": 3669,
      "Practice": 3670,
      "forcement": 3671,
      "transpar": 3672,
      "North": 3673,
      "impressive": 3674,
      "Land": 3675,
      "Script": 3676,
      "crow": 3677,
      "ee": 3678,
      "ky": 3679,
      "rules": 3680,
      "alle": 3681,
      "aces": 3682,
      "left": 3683,
      "ivil": 3684,
      "poor": 3685,
      "aster": 3686,
      "answ": 3687,
      "started": 3688,
      "structures": 3689,
      "recognizing": 3690,
      "representation": 3691,
      "payment": 3692,
      "Pal": 3693,
      "War": 3694,
      "ae": 3695,
      "cou": 3696,
      "giving": 3697,
      "ler": 3698,
      "migr": 3699,
      "pH": 3700,
      "rics": 3701,
      "ube": 3702,
      "uge": 3703,
      "yet": 3704,
      "protocol": 3705,
      "agent": 3706,
      "agues": 3707,
      "workers": 3708,
      "eller": 3709,
      "commod": 3710,
      "onald": 3711,
      "u2019ve": 3712,
      "designs": 3713,
      "prepar": 3714,
      "profound": 3715,
      "explo": 3716,
      "ishing": 3717,
      "courage": 3718,
      "thoughts": 3719,
      "predic": 3720,
      "policies": 3721,
      "consistent": 3722,
      "bioavailability": 3723,
      "fostering": 3724,
      "failure": 3725,
      "sophist": 3726,
      "Keep": 3727,
      "17": 3728,
      "Cost": 3729,
      "HA": 3730,
      "Just": 3731,
      "My": 3732,
      "Not": 3733,
      "Wil": 3734,
      "fix": 3735,
      "ror": 3736,
      "song": 3737,
      "yle": 3738,
      "stone": 3739,
      "forget": 3740,
      "contract": 3741,
      "igen": 3742,
      "plate": 3743,
      "advers": 3744,
      "train": 3745,
      "Incl": 3746,
      "compass": 3747,
      "neg": 3748,
      "mosp": 3749,
      "managing": 3750,
      "experts": 3751,
      "valid": 3752,
      "ements": 3753,
      "collection": 3754,
      "previous": 3755,
      "party": 3756,
      "interaction": 3757,
      "feelings": 3758,
      "Science": 3759,
      "protection": 3760,
      "employees": 3761,
      "discuss": 3762,
      "datab": 3763,
      "circum": 3764,
      "considering": 3765,
      "abetes": 3766,
      "26": 3767,
      ";\\": 3768,
      "Af": 3769,
      "Am": 3770,
      "Bas": 3771,
      "EC": 3772,
      "da": 3773,
      "nImagine": 3774,
      "task": 3775,
      "rely": 3776,
      "item": 3777,
      "isms": 3778,
      "ley": 3779,
      "lease": 3780,
      "trade": 3781,
      "select": 3782,
      "iber": 3783,
      "porary": 3784,
      "overcome": 3785,
      "aft": 3786,
      "regard": 3787,
      "jection": 3788,
      "Press": 3789,
      "virtual": 3790,
      "viol": 3791,
      "surv": 3792,
      "feeling": 3793,
      "operations": 3794,
      "little": 3795,
      "dependent": 3796,
      "Signific": 3797,
      "Learning": 3798,
      "minutes": 3799,
      "experienced": 3800,
      "Michael": 3801,
      "elligence": 3802,
      "Bible": 3803,
      "City": 3804,
      "Dec": 3805,
      "ES": 3806,
      "Fl": 3807,
      "Mater": 3808,
      "Now": 3809,
      "OS": 3810,
      "TV": 3811,
      "cu": 3812,
      "dest": 3813,
      "million": 3814,
      "nab": 3815,
      "nur": 3816,
      "wis": 3817,
      "eria": 3818,
      "enn": 3819,
      "ingred": 3820,
      "degree": 3821,
      "amless": 3822,
      "ago": 3823,
      "istant": 3824,
      "shown": 3825,
      "logy": 3826,
      "ups": 3827,
      "Environment": 3828,
      "dog": 3829,
      "explan": 3830,
      "Child": 3831,
      "responses": 3832,
      "internet": 3833,
      "Value": 3834,
      "vehicle": 3835,
      "stimul": 3836,
      "thorough": 3837,
      "CD": 3838,
      "Ev": 3839,
      "First": 3840,
      "Mc": 3841,
      "Typ": 3842,
      "Vide": 3843,
      "file": 3844,
      "lic": 3845,
      "nCRISPR": 3846,
      "sel": 3847,
      "sus": 3848,
      "ouble": 3849,
      "icate": 3850,
      "offee": 3851,
      "deb": 3852,
      "omet": 3853,
      "Thank": 3854,
      "immers": 3855,
      "plif": 3856,
      "ams": 3857,
      "unning": 3858,
      "tries": 3859,
      "seamless": 3860,
      "iday": 3861,
      "aches": 3862,
      "neigh": 3863,
      "State": 3864,
      "genome": 3865,
      "signs": 3866,
      "cord": 3867,
      "196": 3868,
      "download": 3869,
      "visit": 3870,
      "Monitor": 3871,
      "basic": 3872,
      "Direc": 3873,
      "Activ": 3874,
      "Experience": 3875,
      "conflict": 3876,
      "=====================================================\\": 3877,
      "adventure": 3878,
      "scenari": 3879,
      "enthusiast": 3880,
      "21": 3881,
      "Its": 3882,
      "Main": 3883,
      "blocks": 3884,
      "dig": 3885,
      "mechan": 3886,
      "ane": 3887,
      "alternative": 3888,
      "reve": 3889,
      "itions": 3890,
      "offic": 3891,
      "extra": 3892,
      "chance": 3893,
      "church": 3894,
      "unlock": 3895,
      "uncertain": 3896,
      "ott": 3897,
      "20th": 3898,
      "coord": 3899,
      "ference": 3900,
      "heat": 3901,
      "evolution": 3902,
      "roles": 3903,
      "expenses": 3904,
      "nutr": 3905,
      "Access": 3906,
      "Resources": 3907,
      "programming": 3908,
      "Developments": 3909,
      "integrity": 3910,
      "Cloud": 3911,
      "America": 3912,
      "preventing": 3913,
      "inhibitors": 3914,
      "beauty": 3915,
      "President": 3916,
      "Heart": 3917,
      "anxiety": 3918,
      "Significance": 3919,
      "23": 3920,
      "Bal": 3921,
      "ED": 3922,
      "IV": 3923,
      "LA": 3924,
      "Ment": 3925,
      "Python": 3926,
      "frequ": 3927,
      "ged": 3928,
      "iors": 3929,
      "nx": 3930,
      "nWhat": 3931,
      "pump": 3932,
      "rat": 3933,
      "atmosp": 3934,
      "reet": 3935,
      "reaction": 3936,
      "edding": 3937,
      "acet": 3938,
      "lete": 3939,
      "deal": 3940,
      "conven": 3941,
      "ection": 3942,
      "\\\",": 3943,
      "mathemat": 3944,
      "gets": 3945,
      "experiment": 3946,
      "owned": 3947,
      "scal": 3948,
      "Ang": 3949,
      "ponents": 3950,
      "Pharmaceutical": 3951,
      "attack": 3952,
      "vironments": 3953,
      "faces": 3954,
      "modeling": 3955,
      "industries": 3956,
      "venue": 3957,
      "storage": 3958,
      "handle": 3959,
      "binds": 3960,
      "intricacies": 3961,
      "indeed": 3962,
      "weaknesses": 3963,
      "excretion": 3964,
      "Increased": 3965,
      "CY": 3966,
      "HER": 3967,
      "Mal": 3968,
      "Mis": 3969,
      "Mach": 3970,
      "diversity": 3971,
      "flo": 3972,
      "nThere": 3973,
      "sw": 3974,
      "saw": 3975,
      "tend": 3976,
      "vast": 3977,
      "iny": 3978,
      "entre": 3979,
      "acity": 3980,
      "constant": 3981,
      "amaz": 3982,
      "unk": 3983,
      "separ": 3984,
      "cannot": 3985,
      "ideal": 3986,
      "cool": 3987,
      "provoking": 3988,
      "recip": 3989,
      "Process": 3990,
      "Excell": 3991,
      "u2019re": 3992,
      "Unlocking": 3993,
      "color": 3994,
      "flam": 3995,
      "counter": 3996,
      "firm": 3997,
      "pharmacology": 3998,
      "longer": 3999,
      "integral": 4000,
      "keeping": 4001,
      "capital": 4002,
      "sensors": 4003,
      "treating": 4004,
      "liter": 4005,
      "Services": 4006,
      "John": 4007,
      "Modern": 4008,
      "pliance": 4009,
      "circumstances": 4010,
      "AM": 4011,
      "Distribut": 4012,
      "Emer": 4013,
      "Fam": 4014,
      "Hum": 4015,
      "Pot": 4016,
      "gal": 4017,
      "ho": 4018,
      "later": 4019,
      "money": 4020,
      "pict": 4021,
      "ring": 4022,
      "tap": 4023,
      "wo": 4024,
      "environments": 4025,
      "attribut": 4026,
      "stage": 4027,
      "total": 4028,
      "ione": 4029,
      "leave": 4030,
      "omic": 4031,
      "trend": 4032,
      "formation": 4033,
      "opin": 4034,
      "ystems": 4035,
      "Church": 4036,
      "matches": 4037,
      "effectiveness": 4038,
      "Comb": 4039,
      "nSystems": 4040,
      "figure": 4041,
      "Drug": 4042,
      "responsibility": 4043,
      "particular": 4044,
      "captivating": 4045,
      "files": 4046,
      "committed": 4047,
      "ubs": 4048,
      "computational": 4049,
      "happen": 4050,
      "eedback": 4051,
      "achieved": 4052,
      "sugar": 4053,
      "appreciate": 4054,
      "Choose": 4055,
      "cryptocurr": 4056,
      "preferences": 4057,
      "leveraging": 4058,
      "framework": 4059,
      "accordingly": 4060,
      "Computer": 4061,
      "acknowledging": 4062,
      "nabis": 4063,
      "entrepreneur": 4064,
      "64": 4065,
      "CH": 4066,
      "Many": 4067,
      "Russ": 4068,
      "bud": 4069,
      "core": 4070,
      "ls": 4071,
      "mort": 4072,
      "python": 4073,
      "inib": 4074,
      "threat": 4075,
      "stop": 4076,
      "took": 4077,
      "ioned": 4078,
      "rop": 4079,
      "conserv": 4080,
      "actual": 4081,
      "Institut": 4082,
      "ister": 4083,
      "posure": 4084,
      "ibl": 4085,
      "mobile": 4086,
      "Who": 4087,
      "disrup": 4088,
      "afford": 4089,
      "Ital": 4090,
      "providers": 4091,
      "Improve": 4092,
      "variety": 4093,
      "Week": 4094,
      "sector": 4095,
      "convert": 4096,
      "installation": 4097,
      "resulting": 4098,
      "shaped": 4099,
      "Book": 4100,
      "savings": 4101,
      "construction": 4102,
      "neighbor": 4103,
      "IP": 4104,
      "More": 4105,
      "Micro": 4106,
      "Pred": 4107,
      "Sun": 4108,
      "fel": 4109,
      "hidden": 4110,
      "nit": 4111,
      "nYou": 4112,
      "sun": 4113,
      "uary": 4114,
      "thers": 4115,
      "enough": 4116,
      "remark": 4117,
      "reports": 4118,
      "acr": 4119,
      "accommod": 4120,
      "ros": 4121,
      "format": 4122,
      "posal": 4123,
      "intent": 4124,
      "Stream": 4125,
      "strain": 4126,
      "gence": 4127,
      "topics": 4128,
      "explain": 4129,
      "novel": 4130,
      "whose": 4131,
      "preser": 4132,
      "Relev": 4133,
      "counts": 4134,
      "countries": 4135,
      "interesting": 4136,
      "section": 4137,
      "everything": 4138,
      ".\\\"\\": 4139,
      "clos": 4140,
      "central": 4141,
      "Advance": 4142,
      "dynamic": 4143,
      "nNow": 4144,
      "attractive": 4145,
      "intricate": 4146,
      "broken": 4147,
      "purchase": 4148,
      "political": 4149,
      "robust": 4150,
      "Software": 4151,
      "favorite": 4152,
      "South": 4153,
      "Local": 4154,
      "reputation": 4155,
      "incredible": 4156,
      "Types": 4157,
      "amazing": 4158,
      "('": 4159,
      "FA": 4160,
      "Park": 4161,
      "West": 4162,
      "Water": 4163,
      "](": 4164,
      "fo": 4165,
      "ios": 4166,
      "nThat": 4167,
      "scr": 4168,
      "stall": 4169,
      "staff": 4170,
      "rock": 4171,
      "unc": 4172,
      "ads": 4173,
      "adds": 4174,
      "acters": 4175,
      "ivacy": 4176,
      "clust": 4177,
      "climate": 4178,
      "anti": 4179,
      "complexity": 4180,
      "ongo": 4181,
      "versat": 4182,
      "scop": 4183,
      "located": 4184,
      "consult": 4185,
      "athlet": 4186,
      "Add": 4187,
      "hydr": 4188,
      "Analyz": 4189,
      "sorption": 4190,
      "gained": 4191,
      "learned": 4192,
      "Collabor": 4193,
      "cleaning": 4194,
      "article": 4195,
      "organs": 4196,
      "Community": 4197,
      "document": 4198,
      "oulder": 4199,
      "pacemaker": 4200,
      "phenomen": 4201,
      "remarkable": 4202,
      "80": 4203,
      "Find": 4204,
      "Home": 4205,
      "Link": 4206,
      "Tim": 4207,
      "came": 4208,
      "civil": 4209,
      "five": 4210,
      "gent": 4211,
      "gun": 4212,
      "late": 4213,
      "lux": 4214,
      "n4": 4215,
      "pow": 4216,
      "sam": 4217,
      "sau": 4218,
      "yoga": 4219,
      "ords": 4220,
      "alike": 4221,
      "depression": 4222,
      "prayer": 4223,
      "resource": 4224,
      "makers": 4225,
      "spot": 4226,
      "engaged": 4227,
      "interconnected": 4228,
      "hase": 4229,
      "Check": 4230,
      "styles": 4231,
      "relax": 4232,
      "helping": 4233,
      "ancient": 4234,
      "themes": 4235,
      "expand": 4236,
      "historical": 4237,
      "organisms": 4238,
      "Arch": 4239,
      "supporting": 4240,
      "facing": 4241,
      "empathy": 4242,
      "caused": 4243,
      "filter": 4244,
      "wanted": 4245,
      "feeding": 4246,
      "chemotherapy": 4247,
      "capacity": 4248,
      "sensitive": 4249,
      "Advanced": 4250,
      "accidents": 4251,
      "messages": 4252,
      "marking": 4253,
      "wonder": 4254,
      "maximum": 4255,
      "nOnce": 4256,
      "clarity": 4257,
      "procedures": 4258,
      "renewable": 4259,
      "Directions": 4260,
      "iblical": 4261,
      "Bar": 4262,
      "Center": 4263,
      "Success": 4264,
      "categ": 4265,
      "ead": 4266,
      "hair": 4267,
      "ias": 4268,
      "kid": 4269,
      "nip": 4270,
      "sex": 4271,
      "enforcement": 4272,
      "atures": 4273,
      "isn": 4274,
      "exactly": 4275,
      "promise": 4276,
      "unexpected": 4277,
      "uration": 4278,
      "ulf": 4279,
      "claim": 4280,
      "compounds": 4281,
      "2019": 4282,
      "Start": 4283,
      "worked": 4284,
      "standards": 4285,
      "Prov": 4286,
      "Proper": 4287,
      "matters": 4288,
      "flavor": 4289,
      "faction": 4290,
      "Travel": 4291,
      "activated": 4292,
      "instead": 4293,
      "investing": 4294,
      "showcase": 4295,
      "doesn": 4296,
      "Front": 4297,
      "representing": 4298,
      "Optim": 4299,
      "population": 4300,
      "adequ": 4301,
      "Advant": 4302,
      "affects": 4303,
      "window": 4304,
      "SEO": 4305,
      "walk": 4306,
      "beginning": 4307,
      "documents": 4308,
      "screen": 4309,
      "manufacturers": 4310,
      "concentration": 4311,
      "resilience": 4312,
      "hospital": 4313,
      "ongoing": 4314,
      "Cred": 4315,
      "FO": 4316,
      "Hon": 4317,
      "IA": 4318,
      "Ko": 4319,
      "Lew": 4320,
      "Non": 4321,
      "Ob": 4322,
      "Oc": 4323,
      "Ok": 4324,
      "RO": 4325,
      "Sl": 4326,
      "UK": 4327,
      "bar": 4328,
      "east": 4329,
      "fat": 4330,
      "ti": 4331,
      "wr": 4332,
      "inflam": 4333,
      "alter": 4334,
      "stunning": 4335,
      "icing": 4336,
      "arise": 4337,
      "acqu": 4338,
      "least": 4339,
      "aph": 4340,
      "--\\": 4341,
      "verage": 4342,
      "notable": 4343,
      "pos": 4344,
      "cooperation": 4345,
      "standard": 4346,
      "ught": 4347,
      "examine": 4348,
      "reading": 4349,
      "affic": 4350,
      "uality": 4351,
      "analog": 4352,
      "peer": 4353,
      "prehensive": 4354,
      "Comprehensive": 4355,
      "bringing": 4356,
      "became": 4357,
      "cultures": 4358,
      "miss": 4359,
      "reduces": 4360,
      "testing": 4361,
      "adjustments": 4362,
      "belong": 4363,
      "Absorption": 4364,
      "efficiently": 4365,
      "nNote": 4366,
      "Therapy": 4367,
      "Industr": 4368,
      "discussion": 4369,
      "placement": 4370,
      "prepare": 4371,
      "People": 4372,
      "hydrolysis": 4373,
      "European": 4374,
      "benefit": 4375,
      "Indian": 4376,
      "Distribution": 4377,
      "Lewis": 4378,
      "',": 4379,
      "')\\": 4380,
      "22": 4381,
      "83": 4382,
      "Best": 4383,
      "DB": 4384,
      "Dav": 4385,
      "Foot": 4386,
      "Games": 4387,
      "Jap": 4388,
      "NS": 4389,
      "Need": 4390,
      "Pay": 4391,
      "Ren": 4392,
      "Top": 4393,
      "Year": 4394,
      "fre": 4395,
      "map": 4396,
      "pan": 4397,
      "warm": 4398,
      "edIn": 4399,
      "decl": 4400,
      "amic": 4401,
      "appoint": 4402,
      "resolution": 4403,
      "bright": 4404,
      "cellular": 4405,
      "aware": 4406,
      "serving": 4407,
      "Phys": 4408,
      "videos": 4409,
      "backs": 4410,
      "seek": 4411,
      "supply": 4412,
      "attach": 4413,
      "surpr": 4414,
      "court": 4415,
      "Deep": 4416,
      "Networks": 4417,
      "characters": 4418,
      "causes": 4419,
      "turning": 4420,
      "behaviors": 4421,
      "Special": 4422,
      "statement": 4423,
      "announ": 4424,
      "transformation": 4425,
      "implementing": 4426,
      "months": 4427,
      "appreciation": 4428,
      "appeal": 4429,
      "____": 4430,
      "influenced": 4431,
      "Cultural": 4432,
      "Performance": 4433,
      "satisfaction": 4434,
      "birth": 4435,
      "inventory": 4436,
      "wisdom": 4437,
      "explanations": 4438,
      "Japan": 4439,
      "500": 4440,
      "Afr": 4441,
      "BA": 4442,
      "Ben": 4443,
      "Jewelry": 4444,
      "Publ": 4445,
      "Sto": 4446,
      "Sar": 4447,
      "Yor": 4448,
      "hour": 4449,
      "len": 4450,
      "ny": 4451,
      "pod": 4452,
      "wine": 4453,
      "inspir": 4454,
      "determ": 4455,
      "oman": 4456,
      "exposure": 4457,
      "ably": 4458,
      "ague": 4459,
      "otechn": 4460,
      "below": 4461,
      "uding": 4462,
      "dry": 4463,
      "States": 4464,
      "fulfill": 4465,
      "overview": 4466,
      "Chem": 4467,
      "peace": 4468,
      "goes": 4469,
      "anyone": 4470,
      "encoun": 4471,
      "flavors": 4472,
      "Commer": 4473,
      "conversation": 4474,
      "attemp": 4475,
      "lighting": 4476,
      "showc": 4477,
      "Manufact": 4478,
      "possess": 4479,
      "cardiovascular": 4480,
      "written": 4481,
      "drop": 4482,
      "consistency": 4483,
      "machines": 4484,
      "stead": 4485,
      "emergency": 4486,
      "initiatives": 4487,
      "transparency": 4488,
      "York": 4489,
      "determine": 4490,
      "Fact": 4491,
      "Global": 4492,
      "Mem": 4493,
      "SL": 4494,
      "SM": 4495,
      "Sur": 4496,
      "cam": 4497,
      "fine": 4498,
      "layer": 4499,
      "nE": 4500,
      "nuc": 4501,
      "nimport": 4502,
      "pione": 4503,
      "sell": 4504,
      "slow": 4505,
      "selling": 4506,
      "vit": 4507,
      "via": 4508,
      "erce": 4509,
      "repe": 4510,
      "exchange": 4511,
      "promp": 4512,
      "abr": 4513,
      "==\\": 4514,
      "cannabis": 4515,
      "quite": 4516,
      "tional": 4517,
      "notes": 4518,
      "cook": 4519,
      "intelligence": 4520,
      "mother": 4521,
      "ums": 4522,
      "meets": 4523,
      "manip": 4524,
      "astic": 4525,
      "democ": 4526,
      "demands": 4527,
      "paralle": 4528,
      "Appro": 4529,
      "transition": 4530,
      "differences": 4531,
      "views": 4532,
      "preced": 4533,
      "movements": 4534,
      "metabolic": 4535,
      "believe": 4536,
      "running": 4537,
      "entertain": 4538,
      "Studies": 4539,
      "scientific": 4540,
      "Empower": 4541,
      "package": 4542,
      "familiar": 4543,
      "Syn": 4544,
      "heavy": 4545,
      "Enzyme": 4546,
      "Enhanced": 4547,
      "evolving": 4548,
      "toxicity": 4549,
      "recommend": 4550,
      "negative": 4551,
      "atmosphere": 4552,
      "neighborhood": 4553,
      "LinkedIn": 4554,
      "Football": 4555,
      "Clo": 4556,
      "Evolution": 4557,
      "Fire": 4558,
      "Lord": 4559,
      "Name": 4560,
      "Rise": 4561,
      "Rob": 4562,
      "Ter": 4563,
      "Word": 4564,
      "aul": 4565,
      "ban": 4566,
      "cin": 4567,
      "dated": 4568,
      "eks": 4569,
      "gem": 4570,
      "moun": 4571,
      "mass": 4572,
      "son": 4573,
      "sle": 4574,
      "estern": 4575,
      "remind": 4576,
      "oming": 4577,
      "Thanks": 4578,
      "useful": 4579,
      "agon": 4580,
      "apers": 4581,
      "weeks": 4582,
      "idential": 4583,
      "resta": 4584,
      "pool": 4585,
      "poses": 4586,
      "Story": 4587,
      "brought": 4588,
      "astro": 4589,
      "commerce": 4590,
      "assistance": 4591,
      "u2019ll": 4592,
      "tailored": 4593,
      "prem": 4594,
      "educational": 4595,
      "covery": 4596,
      "Prior": 4597,
      "breaking": 4598,
      "nAt": 4599,
      "practicality": 4600,
      "released": 4601,
      "Roof": 4602,
      "recognized": 4603,
      "contributions": 4604,
      "productivity": 4605,
      "excellence": 4606,
      "believ": 4607,
      "emphasizes": 4608,
      "didn": 4609,
      "winning": 4610,
      "Planning": 4611,
      "^^^^": 4612,
      "direction": 4613,
      "exercises": 4614,
      "mistakes": 4615,
      "Metabolism": 4616,
      "library": 4617,
      "selecting": 4618,
      "answer": 4619,
      "Include": 4620,
      "HER2": 4621,
      "Relevance": 4622,
      "Okay": 4623,
      "restaur": 4624,
      "Brit": 4625,
      "Down": 4626,
      "East": 4627,
      "LS": 4628,
      "VM": 4629,
      "aight": 4630,
      "bath": 4631,
      "biblical": 4632,
      "fair": 4633,
      "ilo": 4634,
      "nia": 4635,
      "nNetwork": 4636,
      "nControl": 4637,
      "pul": 4638,
      "six": 4639,
      "inations": 4640,
      "eries": 4641,
      "already": 4642,
      "itary": 4643,
      "loans": 4644,
      "charm": 4645,
      "adop": 4646,
      "seed": 4647,
      "ided": 4648,
      "prices": 4649,
      "Inhib": 4650,
      "compelling": 4651,
      "extre": 4652,
      "cooking": 4653,
      "drives": 4654,
      "artistic": 4655,
      "Steel": 4656,
      "illing": 4657,
      "teeth": 4658,
      "serious": 4659,
      "noise": 4660,
      "educators": 4661,
      "flour": 4662,
      "motor": 4663,
      "Canad": 4664,
      "center": 4665,
      "transactions": 4666,
      "olving": 4667,
      "choosing": 4668,
      "charge": 4669,
      "considered": 4670,
      "functions": 4671,
      "handling": 4672,
      "cardiac": 4673,
      "emphasis": 4674,
      "errors": 4675,
      "sessions": 4676,
      "index": 4677,
      "engineers": 4678,
      "objectives": 4679,
      "broader": 4680,
      "promising": 4681,
      "u20ac": 4682,
      "sophisticated": 4683,
      "igenetic": 4684,
      "ingredients": 4685,
      "Video": 4686,
      "encounter": 4687,
      "29": 4688,
      "Bid": 4689,
      "Bud": 4690,
      "Get": 4691,
      "Gold": 4692,
      "OT": 4693,
      "Women": 4694,
      "bow": 4695,
      "cross": 4696,
      "fant": 4697,
      "fash": 4698,
      "nCancer": 4699,
      "suc": 4700,
      "save": 4701,
      "send": 4702,
      "yer": 4703,
      "ana": 4704,
      "onto": 4705,
      "orts": 4706,
      "stones": 4707,
      "assu": 4708,
      "image": 4709,
      "ades": 4710,
      "added": 4711,
      "traffic": 4712,
      "white": 4713,
      "compo": 4714,
      "compared": 4715,
      "ibly": 4716,
      "2017": 4717,
      "updates": 4718,
      "astating": 4719,
      "Does": 4720,
      "cepts": 4721,
      "Ass": 4722,
      "smart": 4723,
      "collec": 4724,
      "advoc": 4725,
      "covered": 4726,
      "office": 4727,
      "attor": 4728,
      "parents": 4729,
      "final": 4730,
      "Bio": 4731,
      "nAnother": 4732,
      "interested": 4733,
      "memory": 4734,
      "muscles": 4735,
      "chemistry": 4736,
      "ylation": 4737,
      "Regularly": 4738,
      "renowned": 4739,
      "Researchers": 4740,
      "Internet": 4741,
      "unders": 4742,
      "Perspect": 4743,
      "settings": 4744,
      "outside": 4745,
      "EGFR": 4746,
      "voice": 4747,
      "describ": 4748,
      "Russia": 4749,
      "Sarah": 4750,
      "Face": 4751,
      "GE": 4752,
      "Mor": 4753,
      "Quality": 4754,
      "Self": 4755,
      "Treat": 4756,
      "Wal": 4757,
      "bid": 4758,
      "citizens": 4759,
      "gir": 4760,
      "hom": 4761,
      "length": 4762,
      "lung": 4763,
      "sl": 4764,
      "tors": 4765,
      "tissue": 4766,
      "inner": 4767,
      "toy": 4768,
      "icy": 4769,
      "edom": 4770,
      "isol": 4771,
      "dealing": 4772,
      "lost": 4773,
      "chat": 4774,
      "ellect": 4775,
      "actually": 4776,
      "ulations": 4777,
      "selection": 4778,
      "neuro": 4779,
      "lie": 4780,
      "illustrate": 4781,
      "Concepts": 4782,
      "systemic": 4783,
      "records": 4784,
      "bike": 4785,
      "Assoc": 4786,
      "akin": 4787,
      "pret": 4788,
      "books": 4789,
      "folio": 4790,
      "criteria": 4791,
      "osen": 4792,
      "ternal": 4793,
      "performances": 4794,
      "devastating": 4795,
      "findings": 4796,
      "programmed": 4797,
      "glut": 4798,
      "possibilities": 4799,
      "elev": 4800,
      "demonstrated": 4801,
      "participants": 4802,
      "arriers": 4803,
      "container": 4804,
      "iki": 4805,
      "willingness": 4806,
      "Music": 4807,
      "prosthetic": 4808,
      "reflects": 4809,
      "suffic": 4810,
      "Spiritual": 4811,
      "Institute": 4812,
      "28": 4813,
      "CA": 4814,
      "Cy": 4815,
      "Call": 4816,
      "DO": 4817,
      "Det": 4818,
      "Jose": 4819,
      "Ma": 4820,
      "Next": 4821,
      "Pac": 4822,
      "TK": 4823,
      "distr": 4824,
      "gage": 4825,
      "nEnsure": 4826,
      "rule": 4827,
      "vess": 4828,
      "zer": 4829,
      "infect": 4830,
      "oma": 4831,
      "config": 4832,
      "plas": 4833,
      "emia": 4834,
      "compliance": 4835,
      "truct": 4836,
      "mentioned": 4837,
      "pra": 4838,
      "aching": 4839,
      "quid": 4840,
      "click": 4841,
      "contains": 4842,
      "artist": 4843,
      "Stay": 4844,
      "ava": 4845,
      "crash": 4846,
      "Prodrug": 4847,
      "ously": 4848,
      "mediated": 4849,
      "relative": 4850,
      "depending": 4851,
      "profit": 4852,
      "Implement": 4853,
      "Real": 4854,
      "diabetes": 4855,
      "nSome": 4856,
      "Trump": 4857,
      "potentially": 4858,
      "presented": 4859,
      "enzymatic": 4860,
      "Inters": 4861,
      "causing": 4862,
      "Share": 4863,
      "larger": 4864,
      "travelers": 4865,
      "electric": 4866,
      "craft": 4867,
      "leadership": 4868,
      "Small": 4869,
      "teaching": 4870,
      "schedule": 4871,
      "ownership": 4872,
      "durability": 4873,
      "automation": 4874,
      "Type": 4875,
      "1980s": 4876,
      "sweet": 4877,
      "reveal": 4878,
      "uncertainty": 4879,
      "Mental": 4880,
      "mathematical": 4881,
      "budget": 4882,
      "otechnology": 4883,
      "ellectual": 4884,
      "34": 4885,
      "98": 4886,
      "Av": 4887,
      "Crit": 4888,
      "Era": 4889,
      "Ge": 4890,
      "Him": 4891,
      "Lit": 4892,
      "Love": 4893,
      "Other": 4894,
      "PS": 4895,
      "Port": 4896,
      "Sk": 4897,
      "San": 4898,
      "Sam": 4899,
      "She": 4900,
      "Us": 4901,
      "Wind": 4902,
      "Wiki": 4903,
      "average": 4904,
      "band": 4905,
      "batter": 4906,
      "fight": 4907,
      "gas": 4908,
      "hit": 4909,
      "lace": 4910,
      "luding": 4911,
      "np": 4912,
      "oes": 4913,
      "ocl": 4914,
      "sacr": 4915,
      "tical": 4916,
      "tack": 4917,
      "tiny": 4918,
      "inspect": 4919,
      "inluding": 4920,
      "thir": 4921,
      "chec": 4922,
      "chol": 4923,
      "imaging": 4924,
      "prolif": 4925,
      "eline": 4926,
      "abnormal": 4927,
      "ively": 4928,
      "trast": 4929,
      "iff": 4930,
      "weather": 4931,
      "pril": 4932,
      "shot": 4933,
      "spaces": 4934,
      "rome": 4935,
      "lip": 4936,
      "artment": 4937,
      "indic": 4938,
      "brief": 4939,
      "generate": 4940,
      "scene": 4941,
      "encing": 4942,
      "Form": 4943,
      "background": 4944,
      "prioritizing": 4945,
      "lessons": 4946,
      "okinetic": 4947,
      "pursu": 4948,
      "Manager": 4949,
      "operate": 4950,
      "u00f": 4951,
      "Lead": 4952,
      "smaller": 4953,
      "Compet": 4954,
      "Complex": 4955,
      "Historical": 4956,
      "blockchain": 4957,
      "correctly": 4958,
      "lasting": 4959,
      "consumers": 4960,
      "encourages": 4961,
      "Professional": 4962,
      "1990s": 4963,
      "datas": 4964,
      "campaigns": 4965,
      "Service": 4966,
      "roots": 4967,
      "disciplinary": 4968,
      "facilitate": 4969,
      "chronic": 4970,
      "architecture": 4971,
      "Response": 4972,
      "compassion": 4973,
      "Manufacturing": 4974,
      "WikiHow": 4975,
      "Alex": 4976,
      "During": 4977,
      "Govern": 4978,
      "Ir": 4979,
      "Pass": 4980,
      "Show": 4981,
      "Sched": 4982,
      "Vol": 4983,
      "Vari": 4984,
      "cers": 4985,
      "dim": 4986,
      "gests": 4987,
      "iking": 4988,
      "nWith": 4989,
      "script": 4990,
      "tension": 4991,
      "uk": 4992,
      "uine": 4993,
      "vibr": 4994,
      "went": 4995,
      "ycl": 4996,
      "erate": 4997,
      "oral": 4998,
      "vec": 4999,
      "asy": 5000,
      "asure": 5001,
      "dead": 5002,
      "constitut": 5003,
      "immed": 5004,
      "agre": 5005,
      "oph": 5006,
      "cloud": 5007,
      "spark": 5008,
      "2012": 5009,
      "Stat": 5010,
      "command": 5011,
      "medium": 5012,
      "asset": 5013,
      "reless": 5014,
      "introduced": 5015,
      "English": 5016,
      "profiles": 5017,
      "advice": 5018,
      "loyal": 5019,
      "Clinical": 5020,
      "close": 5021,
      "domain": 5022,
      "happy": 5023,
      "Molec": 5024,
      "received": 5025,
      "discovered": 5026,
      "Graph": 5027,
      "Blue": 5028,
      "established": 5029,
      "suggests": 5030,
      "volume": 5031,
      "sustainability": 5032,
      "buying": 5033,
      "flexible": 5034,
      "Healthcare": 5035,
      "Players": 5036,
      "morning": 5037,
      "Efficiency": 5038,
      "1970s": 5039,
      "Super": 5040,
      "Insulin": 5041,
      "Willi": 5042,
      "plifting": 5043,
      "enthusiasts": 5044,
      "Human": 5045,
      "Perspective": 5046,
      "oclonal": 5047,
      "90": 5048,
      "Camp": 5049,
      "Fil": 5050,
      "Gre": 5051,
      "Jan": 5052,
      "Lou": 5053,
      "aes": 5054,
      "bacter": 5055,
      "coffee": 5056,
      "dream": 5057,
      "double": 5058,
      "fold": 5059,
      "gut": 5060,
      "ham": 5061,
      "ibe": 5062,
      "oil": 5063,
      "sem": 5064,
      "tact": 5065,
      "ino": 5066,
      "ena": 5067,
      "atom": 5068,
      "rets": 5069,
      "stac": 5070,
      "stable": 5071,
      "isely": 5072,
      "che": 5073,
      "imagine": 5074,
      "embed": 5075,
      "olf": 5076,
      "approv": 5077,
      "idation": 5078,
      "clin": 5079,
      "sports": 5080,
      "estyle": 5081,
      "artists": 5082,
      "artificial": 5083,
      "inters": 5084,
      "straight": 5085,
      "Project": 5086,
      "disput": 5087,
      "commerc": 5088,
      "analy": 5089,
      "highest": 5090,
      "advances": 5091,
      "athlete": 5092,
      "namo": 5093,
      "ield": 5094,
      "choices": 5095,
      "featuring": 5096,
      "arrang": 5097,
      "ventional": 5098,
      "regulations": 5099,
      "reflection": 5100,
      "considerations": 5101,
      "combining": 5102,
      "responsibilities": 5103,
      "multif": 5104,
      "metabolites": 5105,
      "mption": 5106,
      "solar": 5107,
      "says": 5108,
      "Takeaways": 5109,
      "filled": 5110,
      "authentication": 5111,
      "walking": 5112,
      "evolved": 5113,
      "Support": 5114,
      "Reduced": 5115,
      "floor": 5116,
      "affordable": 5117,
      "composit": 5118,
      "62": 5119,
      "Cat": 5120,
      "Free": 5121,
      "Further": 5122,
      "Master": 5123,
      "Pan": 5124,
      "Sal": 5125,
      "Safety": 5126,
      "TS": 5127,
      "Test": 5128,
      "Writ": 5129,
      "bul": 5130,
      "jud": 5131,
      "national": 5132,
      "ende": 5133,
      "remot": 5134,
      "tooth": 5135,
      "icts": 5136,
      "isl": 5137,
      "asking": 5138,
      "forced": 5139,
      "external": 5140,
      "unting": 5141,
      "aden": 5142,
      "ud83": 5143,
      "resistant": 5144,
      "ulty": 5145,
      "entials": 5146,
      "desire": 5147,
      "please": 5148,
      "simpl": 5149,
      "websites": 5150,
      "regions": 5151,
      "ails": 5152,
      "bert": 5153,
      "Immun": 5154,
      "performing": 5155,
      "eye": 5156,
      "successfully": 5157,
      "Plat": 5158,
      "passage": 5159,
      "integrate": 5160,
      "integrating": 5161,
      "functionality": 5162,
      "breaks": 5163,
      "ashing": 5164,
      "opening": 5165,
      "productive": 5166,
      "controllers": 5167,
      "Compan": 5168,
      "rooms": 5169,
      "PID": 5170,
      "fitness": 5171,
      "crafts": 5172,
      "elimination": 5173,
      "ADC": 5174,
      "vehicles": 5175,
      "communicate": 5176,
      "influencing": 5177,
      "Smith": 5178,
      "Reading": 5179,
      "initiative": 5180,
      "casting": 5181,
      "linear": 5182,
      "German": 5183,
      "ratio": 5184,
      "adequate": 5185,
      "Joseph": 5186,
      "commercial": 5187,
      "+\\": 5188,
      "?**\\": 5189,
      "Cup": 5190,
      "Emot": 5191,
      "Good": 5192,
      "GRN": 5193,
      "Han": 5194,
      "House": 5195,
      "IG": 5196,
      "Java": 5197,
      "MD": 5198,
      "Mess": 5199,
      "Oper": 5200,
      "astr": 5201,
      "hall": 5202,
      "ifor": 5203,
      "iers": 5204,
      "mel": 5205,
      "py": 5206,
      "vy": 5207,
      "vac": 5208,
      "wedding": 5209,
      "anes": 5210,
      "onics": 5211,
      "alone": 5212,
      "icians": 5213,
      "ison": 5214,
      "aser": 5215,
      "loan": 5216,
      "immigr": 5217,
      "eles": 5218,
      "uncover": 5219,
      "ags": 5220,
      "agency": 5221,
      "ota": 5222,
      "beat": 5223,
      "lier": 5224,
      "2013": 5225,
      "Stand": 5226,
      "Conversion": 5227,
      "healing": 5228,
      "interface": 5229,
      "generations": 5230,
      "helped": 5231,
      "locations": 5232,
      "counsel": 5233,
      "Transp": 5234,
      "courses": 5235,
      "obtain": 5236,
      "memor": 5237,
      "properly": 5238,
      "Developing": 5239,
      "Despite": 5240,
      "minimal": 5241,
      "adjusts": 5242,
      "150": 5243,
      "mitig": 5244,
      "template": 5245,
      "gery": 5246,
      "affected": 5247,
      "basics": 5248,
      "places": 5249,
      "progression": 5250,
      "born": 5251,
      "Journey": 5252,
      "cuts": 5253,
      "Polit": 5254,
      "participate": 5255,
      "hosting": 5256,
      "determining": 5257,
      "communications": 5258,
      "Califor": 5259,
      "u00b7": 5260,
      "qualities": 5261,
      "aspir": 5262,
      "inspired": 5263,
      "u00e9": 5264,
      "rapidly": 5265,
      "Visual": 5266,
      "Activation": 5267,
      "coordination": 5268,
      "Mission": 5269,
      "Family": 5270,
      "Potential": 5271,
      "attributed": 5272,
      "cryptocurrency": 5273,
      "Analyze": 5274,
      "luxury": 5275,
      "Advantages": 5276,
      "belonging": 5277,
      "Approach": 5278,
      "Bay": 5279,
      "CG": 5280,
      "Cam": 5281,
      "Cur": 5282,
      "DC": 5283,
      "Elec": 5284,
      "Gl": 5285,
      "Hand": 5286,
      "Mac": 5287,
      "Sum": 5288,
      "Silver": 5289,
      "VC": 5290,
      "WS": 5291,
      "bold": 5292,
      "gear": 5293,
      "haz": 5294,
      "iat": 5295,
      "ju": 5296,
      "lining": 5297,
      "neck": 5298,
      "nOur": 5299,
      "pm": 5300,
      "pages": 5301,
      "plot": 5302,
      "rid": 5303,
      "vs": 5304,
      "vary": 5305,
      "inher": 5306,
      "recon": 5307,
      "replic": 5308,
      "leaving": 5309,
      "ami": 5310,
      "unpreced": 5311,
      "agen": 5312,
      "cancers": 5313,
      "worship": 5314,
      "worry": 5315,
      "opponents": 5316,
      "coating": 5317,
      "estic": 5318,
      "intro": 5319,
      "intest": 5320,
      "grade": 5321,
      "enders": 5322,
      "cores": 5323,
      "technique": 5324,
      "thrive": 5325,
      "England": 5326,
      "regularly": 5327,
      "Commit": 5328,
      "conversations": 5329,
      "interacting": 5330,
      "interactive": 5331,
      "facilities": 5332,
      "purposes": 5333,
      "clever": 5334,
      "recently": 5335,
      "recognition": 5336,
      "functional": 5337,
      "breakthrough": 5338,
      "define": 5339,
      "Spec": 5340,
      "contributed": 5341,
      "optimizing": 5342,
      "Therape": 5343,
      "domin": 5344,
      "cards": 5345,
      "belief": 5346,
      "Load": 5347,
      "classic": 5348,
      "packing": 5349,
      "accurately": 5350,
      "revolutionize": 5351,
      "add_": 5352,
      "Server": 5353,
      "Important": 5354,
      "milk": 5355,
      "guided": 5356,
      "cutting": 5357,
      "Identifying": 5358,
      "detection": 5359,
      "authentic": 5360,
      "electrical": 5361,
      "electronic": 5362,
      "acknowledge": 5363,
      "thesis": 5364,
      "routine": 5365,
      "continued": 5366,
      "exercise": 5367,
      "pacemakers": 5368,
      "collective": 5369,
      "eptember": 5370,
      "psychological": 5371,
      "database": 5372,
      "After": 5373,
      "items": 5374,
      "convenient": 5375,
      "picture": 5376,
      "gluten": 5377,
      "California": 5378,
      "unprecedented": 5379,
      "27": 5380,
      "54": 5381,
      "Dise": 5382,
      "EE": 5383,
      "Full": 5384,
      "Har": 5385,
      "Know": 5386,
      "Mag": 5387,
      "Meas": 5388,
      "PM": 5389,
      "Paper": 5390,
      "Search": 5391,
      "Scal": 5392,
      "Twit": 5393,
      "bank": 5394,
      "barriers": 5395,
      "ease": 5396,
      "gment": 5397,
      "gical": 5398,
      "lined": 5399,
      "nAn": 5400,
      "uth": 5401,
      "incorporate": 5402,
      "onco": 5403,
      "onds": 5404,
      "remo": 5405,
      "isian": 5406,
      "arily": 5407,
      "eters": 5408,
      "chann": 5409,
      "ama": 5410,
      "unched": 5411,
      "adding": 5412,
      "advert": 5413,
      "urches": 5414,
      "ivering": 5415,
      "que": 5416,
      "compound": 5417,
      "earlier": 5418,
      "shoulder": 5419,
      "2011": 5420,
      "stru": 5421,
      "strive": 5422,
      "genetics": 5423,
      "aven": 5424,
      "Protocol": 5425,
      "fees": 5426,
      "scap": 5427,
      "offerings": 5428,
      "arian": 5429,
      "powered": 5430,
      "irement": 5431,
      "leads": 5432,
      "leader": 5433,
      "funds": 5434,
      "Account": 5435,
      "apps": 5436,
      "approxim": 5437,
      "centuries": 5438,
      "surge": 5439,
      "App": 5440,
      "obstac": 5441,
      "visitors": 5442,
      "investigation": 5443,
      "hyth": 5444,
      "involving": 5445,
      "Island": 5446,
      "looks": 5447,
      "Orig": 5448,
      "accident": 5449,
      "demonstrates": 5450,
      "Active": 5451,
      "Security": 5452,
      "magic": 5453,
      "struggling": 5454,
      "division": 5455,
      "scoring": 5456,
      "Offer": 5457,
      "institutions": 5458,
      "eliminated": 5459,
      "Dynamo": 5460,
      "animals": 5461,
      "milestones": 5462,
      "protocols": 5463,
      "violence": 5464,
      "survival": 5465,
      "1960s": 5466,
      "Predict": 5467,
      "closely": 5468,
      "Facebook": 5469,
      "bacteria": 5470,
      "Twitter": 5471,
      "Blood": 5472,
      "Dialogue": 5473,
      "Equ": 5474,
      "Found": 5475,
      "Grow": 5476,
      "Hot": 5477,
      "MO": 5478,
      "NH": 5479,
      "Pur": 5480,
      "Phase": 5481,
      "SSL": 5482,
      "Win": 5483,
      "bot": 5484,
      "cater": 5485,
      "carriage": 5486,
      "gone": 5487,
      "kar": 5488,
      "mill": 5489,
      "pick": 5490,
      "rare": 5491,
      "spr": 5492,
      "silver": 5493,
      "vig": 5494,
      "andom": 5495,
      "icks": 5496,
      "chosen": 5497,
      "ameters": 5498,
      "ither": 5499,
      "ola": 5500,
      "applic": 5501,
      "trip": 5502,
      "Theology": 5503,
      "privacy": 5504,
      "acht": 5505,
      "restric": 5506,
      "outdoor": 5507,
      "logical": 5508,
      "2018": 5509,
      "Star": 5510,
      "gender": 5511,
      "Conduc": 5512,
      "engthen": 5513,
      "brings": 5514,
      "tee": 5515,
      "tele": 5516,
      "explaining": 5517,
      "relations": 5518,
      "valued": 5519,
      "request": 5520,
      "black": 5521,
      "ogn": 5522,
      "included": 5523,
      "auma": 5524,
      "takeaways": 5525,
      "ordinary": 5526,
      "cycle": 5527,
      "humans": 5528,
      "Arts": 5529,
      "Genetic": 5530,
      "General": 5531,
      "turns": 5532,
      "severe": 5533,
      "inally": 5534,
      "integrated": 5535,
      "Isl": 5536,
      "glass": 5537,
      "Clust": 5538,
      "Click": 5539,
      "talented": 5540,
      "metabolite": 5541,
      "published": 5542,
      "Opportun": 5543,
      "News": 5544,
      "enhanced": 5545,
      "addiction": 5546,
      "meeting": 5547,
      "excited": 5548,
      "distributed": 5549,
      "popularity": 5550,
      "foster": 5551,
      "shopping": 5552,
      "empowerment": 5553,
      "Relations": 5554,
      "Choosing": 5555,
      "Break": 5556,
      "egg": 5557,
      "exhibit": 5558,
      "hotel": 5559,
      "Deliver": 5560,
      "Environmental": 5561,
      "mechanical": 5562,
      "aceted": 5563,
      "Excellent": 5564,
      "Italian": 5565,
      "intentional": 5566,
      "Public": 5567,
      "fashion": 5568,
      "multifaceted": 5569,
      "adenylation": 5570,
      "approximately": 5571,
      "35": 5572,
      "450": 5573,
      "BC": 5574,
      "Bel": 5575,
      "Brow": 5576,
      "Ep": 5577,
      "Fost": 5578,
      "GA": 5579,
      "IR": 5580,
      "Los": 5581,
      "Mechanism": 5582,
      "P2": 5583,
      "QR": 5584,
      "Ram": 5585,
      "Sa": 5586,
      "September": 5587,
      "Tit": 5588,
      "Vir": 5589,
      "ben": 5590,
      "bab": 5591,
      "fing": 5592,
      "iable": 5593,
      "lon": 5594,
      "mine": 5595,
      "nap": 5596,
      "ode": 5597,
      "ograph": 5598,
      "oplifting": 5599,
      "ray": 5600,
      "sold": 5601,
      "utr": 5602,
      "wood": 5603,
      "yers": 5604,
      "}\\": 5605,
      "instru": 5606,
      "estr": 5607,
      "reason": 5608,
      "toler": 5609,
      "oub": 5610,
      "assign": 5611,
      "excl": 5612,
      "lose": 5613,
      "convey": 5614,
      "igious": 5615,
      "elig": 5616,
      "eless": 5617,
      "unity": 5618,
      "whel": 5619,
      "Instead": 5620,
      "opto": 5621,
      "extended": 5622,
      "poke": 5623,
      "intellectual": 5624,
      "Street": 5625,
      "inding": 5626,
      "illustr": 5627,
      "stands": 5628,
      "update": 5629,
      "assets": 5630,
      "lifestyle": 5631,
      "depart": 5632,
      "ancy": 5633,
      "served": 5634,
      "keywords": 5635,
      "producing": 5636,
      "blue": 5637,
      "responding": 5638,
      "Prayer": 5639,
      "diet": 5640,
      "buildings": 5641,
      "Information": 5642,
      "presentation": 5643,
      "2021": 5644,
      "realm": 5645,
      "Plus": 5646,
      "Once": 5647,
      "recognizes": 5648,
      "accountability": 5649,
      "aimed": 5650,
      "staying": 5651,
      "Advances": 5652,
      "reliability": 5653,
      "streamline": 5654,
      "payments": 5655,
      "accum": 5656,
      "discussed": 5657,
      "treated": 5658,
      "Direct": 5659,
      "consumption": 5660,
      "articip": 5661,
      "articles": 5662,
      "http": 5663,
      "Policy": 5664,
      "holistic": 5665,
      "magn": 5666,
      "Simple": 5667,
      "Define": 5668,
      "Calcul": 5669,
      "diagnosis": 5670,
      "anticip": 5671,
      "vulnerability": 5672,
      "Product": 5673,
      "Office": 5674,
      "uzumab": 5675,
      "antibodies": 5676,
      "criminal": 5677,
      "scenarios": 5678,
      "entrepreneurs": 5679,
      "mortgage": 5680,
      "Microsoft": 5681,
      "rosine": 5682,
      "athletes": 5683,
      "gentle": 5684,
      "showcasing": 5685,
      "premium": 5686,
      "Biden": 5687,
      "sufficient": 5688,
      "tructuring": 5689,
      "Window": 5690,
      "proliferation": 5691,
      "(\\\"": 5692,
      "):\\": 5693,
      "36": 5694,
      "Ave": 5695,
      "ET": 5696,
      "List": 5697,
      "Light": 5698,
      "Nat": 5699,
      "Sust": 5700,
      "UR": 5701,
      "bes": 5702,
      "bad": 5703,
      "dut": 5704,
      "dark": 5705,
      "hous": 5706,
      "hub": 5707,
      "lor": 5708,
      "nK": 5709,
      "nBut": 5710,
      "pp": 5711,
      "pel": 5712,
      "saf": 5713,
      "tests": 5714,
      "retail": 5715,
      "remove": 5716,
      "stro": 5717,
      "stret": 5718,
      "iced": 5719,
      "arter": 5720,
      "chances": 5721,
      "implant": 5722,
      "uling": 5723,
      "tracking": 5724,
      "Inc": 5725,
      "Install": 5726,
      "claims": 5727,
      "compens": 5728,
      "coast": 5729,
      "aint": 5730,
      "Encourage": 5731,
      "manif": 5732,
      "recycl": 5733,
      "everal": 5734,
      "assist": 5735,
      "Execut": 5736,
      "Ann": 5737,
      "offered": 5738,
      "identified": 5739,
      "Requ": 5740,
      "guard": 5741,
      "attle": 5742,
      "Trad": 5743,
      "finish": 5744,
      "surgery": 5745,
      "Apply": 5746,
      "transmit": 5747,
      "Controll": 5748,
      "specialized": 5749,
      "cyto": 5750,
      "Cole": 5751,
      "refuge": 5752,
      "Understand": 5753,
      "Recep": 5754,
      "nson": 5755,
      "criptions": 5756,
      "Leg": 5757,
      "internal": 5758,
      "looked": 5759,
      "relief": 5760,
      "protected": 5761,
      "Goals": 5762,
      "military": 5763,
      "visualize": 5764,
      "authenticity": 5765,
      "green": 5766,
      "ADME": 5767,
      "Relationship": 5768,
      "seasoned": 5769,
      "politics": 5770,
      "Breast": 5771,
      "Enhance": 5772,
      "Personalized": 5773,
      "Programming": 5774,
      "Limited": 5775,
      "Postman": 5776,
      "suffer": 5777,
      "Integration": 5778,
      "1950s": 5779,
      "2000s": 5780,
      "freedom": 5781,
      "relatively": 5782,
      "39": 5783,
      "AZ": 5784,
      "Cour": 5785,
      "Cyl": 5786,
      "Dive": 5787,
      "Donald": 5788,
      "Hi": 5789,
      "Nature": 5790,
      "Paul": 5791,
      "Right": 5792,
      "Tour": 5793,
      "fusion": 5794,
      "hands": 5795,
      "ireless": 5796,
      "kins": 5797,
      "mg": 5798,
      "papers": 5799,
      "rings": 5800,
      "tage": 5801,
      "vation": 5802,
      "wise": 5803,
      "ze": 5804,
      "esh": 5805,
      "atial": 5806,
      "ingly": 5807,
      "icious": 5808,
      "arant": 5809,
      "demo": 5810,
      "forces": 5811,
      "lots": 5812,
      "ampl": 5813,
      "amination": 5814,
      "adoption": 5815,
      "withstand": 5816,
      "urine": 5817,
      "emporary": 5818,
      "ols": 5819,
      "olate": 5820,
      "Theory": 5821,
      "thern": 5822,
      "intense": 5823,
      "genre": 5824,
      "updated": 5825,
      "interdisciplinary": 5826,
      "cricket": 5827,
      "delivering": 5828,
      "persist": 5829,
      "overwhel": 5830,
      "Assess": 5831,
      "inclusive": 5832,
      "held": 5833,
      "Unique": 5834,
      "coll": 5835,
      "ministry": 5836,
      "parties": 5837,
      "CRM": 5838,
      "becoming": 5839,
      "transc": 5840,
      "metrics": 5841,
      "police": 5842,
      "------------------------": 5843,
      "regulating": 5844,
      "memories": 5845,
      "showing": 5846,
      "plants": 5847,
      "caught": 5848,
      "cognitive": 5849,
      "League": 5850,
      "opened": 5851,
      "navigating": 5852,
      "Scient": 5853,
      "holds": 5854,
      "sensor": 5855,
      "Select": 5856,
      "encourage": 5857,
      "witch": 5858,
      "struggle": 5859,
      "wait": 5860,
      "======================================================\\": 5861,
      "motivated": 5862,
      "Spirit": 5863,
      "preparation": 5864,
      "OSHA": 5865,
      "Machine": 5866,
      "powder": 5867,
      "kidneys": 5868,
      "decline": 5869,
      "attorneys": 5870,
      "Treatment": 5871,
      "sacrific": 5872,
      "constitutional": 5873,
      "disputes": 5874,
      "composition": 5875,
      "Writing": 5876,
      "Emotional": 5877,
      "Politics": 5878,
      "optosis": 5879,
      "Sustain": 5880,
      "Receptor": 5881,
      "AC": 5882,
      "Aud": 5883,
      "Another": 5884,
      "Ca": 5885,
      "Clear": 5886,
      "Clean": 5887,
      "Elim": 5888,
      "FI": 5889,
      "Hill": 5890,
      "Mot": 5891,
      "Navig": 5892,
      "NFT": 5893,
      "Page": 5894,
      "Particip": 5895,
      "Round": 5896,
      "Spl": 5897,
      "Save": 5898,
      "Sens": 5899,
      "]:": 5900,
      "cod": 5901,
      "fur": 5902,
      "gin": 5903,
      "homes": 5904,
      "iant": 5905,
      "ja": 5906,
      "kit": 5907,
      "pread": 5908,
      "rang": 5909,
      "snow": 5910,
      "solving": 5911,
      "tied": 5912,
      "uff": 5913,
      "wild": 5914,
      "wire": 5915,
      "wides": 5916,
      "intrig": 5917,
      "erts": 5918,
      "topo": 5919,
      "oubl": 5920,
      "icul": 5921,
      "accept": 5922,
      "rot": 5923,
      "chrome": 5924,
      "imag": 5925,
      "proactive": 5926,
      "aming": 5927,
      "acts": 5928,
      "ulating": 5929,
      "trauma": 5930,
      "terrain": 5931,
      "Inde": 5932,
      "shares": 5933,
      "neural": 5934,
      "drink": 5935,
      "romic": 5936,
      "2016": 5937,
      "illed": 5938,
      "workshop": 5939,
      "creators": 5940,
      "ologists": 5941,
      "Proble": 5942,
      "disorder": 5943,
      "inclusion": 5944,
      "Unpacking": 5945,
      "regional": 5946,
      "odynamic": 5947,
      "ario": 5948,
      "consists": 5949,
      "Phil": 5950,
      "offs": 5951,
      "motive": 5952,
      "putting": 5953,
      "platin": 5954,
      "industrial": 5955,
      "humanity": 5956,
      "password": 5957,
      "combines": 5958,
      "Room": 5959,
      "ampion": 5960,
      "label": 5961,
      "Short": 5962,
      "legisl": 5963,
      "costly": 5964,
      "Friday": 5965,
      "defensive": 5966,
      "closer": 5967,
      "122": 5968,
      "computers": 5969,
      "Moon": 5970,
      "employment": 5971,
      "runs": 5972,
      "demonstrating": 5973,
      "Grou": 5974,
      "watches": 5975,
      "consumer": 5976,
      "launched": 5977,
      "Node": 5978,
      "Auth": 5979,
      "Auto": 5980,
      "Autom": 5981,
      "session": 5982,
      "evaluate": 5983,
      "appealing": 5984,
      "CLC": 5985,
      "Investment": 5986,
      "appearance": 5987,
      "Financial": 5988,
      "satisf": 5989,
      "catalyst": 5990,
      "networking": 5991,
      "transportation": 5992,
      "resonates": 5993,
      "Team": 5994,
      "milestone": 5995,
      "adversity": 5996,
      "separate": 5997,
      "Physical": 5998,
      "succeed": 5999,
      "datasets": 6000,
      "isiana": 6001,
      "Delivery": 6002,
      "widespread": 6003,
      ">\\": 6004,
      "Bur": 6005,
      "Cap": 6006,
      "Dan": 6007,
      "Est": 6008,
      "Emp": 6009,
      "Elev": 6010,
      "Fed": 6011,
      "Feedback": 6012,
      "Hun": 6013,
      "Hall": 6014,
      "Jack": 6015,
      "Long": 6016,
      "Like": 6017,
      "LIA": 6018,
      "MB": 6019,
      "Ox": 6020,
      "OCD": 6021,
      "Prec": 6022,
      "Past": 6023,
      "Path": 6024,
      "Run": 6025,
      "Ranger": 6026,
      "Sing": 6027,
      "WA": 6028,
      "Ye": 6029,
      "bum": 6030,
      "brow": 6031,
      "dance": 6032,
      "fan": 6033,
      "iot": 6034,
      "ker": 6035,
      "myst": 6036,
      "night": 6037,
      "nHowever": 6038,
      "pes": 6039,
      "pip": 6040,
      "ran": 6041,
      "ries": 6042,
      "sin": 6043,
      "squ": 6044,
      "solve": 6045,
      "switch": 6046,
      "tear": 6047,
      "tables": 6048,
      "va": 6049,
      "zon": 6050,
      "inder": 6051,
      "orient": 6052,
      "thetics": 6053,
      "retr": 6054,
      "tough": 6055,
      "decre": 6056,
      "chains": 6057,
      "prospect": 6058,
      "abuse": 6059,
      "uncontrolled": 6060,
      "aggress": 6061,
      "urt": 6062,
      "compl": 6063,
      "comment": 6064,
      "ulind": 6065,
      "bean": 6066,
      "\\\")\\": 6067,
      "suits": 6068,
      "udes": 6069,
      "sport": 6070,
      "note": 6071,
      "occas": 6072,
      "epis": 6073,
      "genuine": 6074,
      "ensions": 6075,
      "Consequences": 6076,
      "Enter": 6077,
      "bris": 6078,
      "insulation": 6079,
      "ulture": 6080,
      "desires": 6081,
      "timely": 6082,
      "China": 6083,
      "Ant": 6084,
      "Union": 6085,
      "provider": 6086,
      "CRF": 6087,
      "funding": 6088,
      "breed": 6089,
      "heads": 6090,
      "societ": 6091,
      "visibility": 6092,
      "istration": 6093,
      "musical": 6094,
      "breakfast": 6095,
      "colleagues": 6096,
      "France": 6097,
      "storm": 6098,
      "Options": 6099,
      "Scot": 6100,
      "temporary": 6101,
      "widely": 6102,
      "inhibitor": 6103,
      "losses": 6104,
      "bioactivation": 6105,
      "begins": 6106,
      "roofing": 6107,
      "Disney": 6108,
      "implementation": 6109,
      "fosters": 6110,
      "appli": 6111,
      "III": 6112,
      "Prepar": 6113,
      "empowering": 6114,
      "struggles": 6115,
      "occurs": 6116,
      "linked": 6117,
      "Enzymatic": 6118,
      "Johnson": 6119,
      "Redox": 6120,
      "mixed": 6121,
      "falls": 6122,
      "uitment": 6123,
      "ciliation": 6124,
      "Centr": 6125,
      "habits": 6126,
      "predictions": 6127,
      "Events": 6128,
      "Angeles": 6129,
      "recipe": 6130,
      "versatility": 6131,
      "paralleled": 6132,
      "neighborhoods": 6133,
      "Storytelling": 6134,
      "Association": 6135,
      "battery": 6136,
      "Louisiana": 6137,
      "obstacles": 6138,
      "Natural": 6139,
      "intrigu": 6140,
      "ulindac": 6141,
      "+------------": 6142,
      "57": 6143,
      "Bor": 6144,
      "Bow": 6145,
      "Dev": 6146,
      "Great": 6147,
      "July": 6148,
      "LP": 6149,
      "Matt": 6150,
      "Rest": 6151,
      "Sen": 6152,
      "Sat": 6153,
      "Stop": 6154,
      "Tok": 6155,
      "Uk": 6156,
      "],": 6157,
      "either": 6158,
      "fib": 6159,
      "kitch": 6160,
      "nd": 6161,
      "nic": 6162,
      "nation": 6163,
      "oo": 6164,
      "pin": 6165,
      "raw": 6166,
      "rigor": 6167,
      "tech": 6168,
      "voc": 6169,
      "vacc": 6170,
      "woman": 6171,
      "inn": 6172,
      "recr": 6173,
      "recovery": 6174,
      "ece": 6175,
      "excess": 6176,
      "contrast": 6177,
      "imes": 6178,
      "usually": 6179,
      "essence": 6180,
      "unparalleled": 6181,
      "agric": 6182,
      "older": 6183,
      "aple": 6184,
      "owsk": 6185,
      "ute": 6186,
      "ivative": 6187,
      "istical": 6188,
      "ibbean": 6189,
      "ignant": 6190,
      "romantic": 6191,
      "estly": 6192,
      "aveling": 6193,
      "Ste": 6194,
      "ocolate": 6195,
      "strike": 6196,
      "upgrad": 6197,
      "examining": 6198,
      "manner": 6199,
      "asting": 6200,
      "fulness": 6201,
      "boat": 6202,
      "boost": 6203,
      "lift": 6204,
      "corn": 6205,
      "connecting": 6206,
      "generated": 6207,
      "anything": 6208,
      "angers": 6209,
      "partner": 6210,
      "Implications": 6211,
      "viral": 6212,
      "ergies": 6213,
      "sole": 6214,
      "parking": 6215,
      "parameters": 6216,
      "surve": 6217,
      "surgical": 6218,
      "decades": 6219,
      "focuses": 6220,
      "culinary": 6221,
      "incident": 6222,
      "Creating": 6223,
      "everyday": 6224,
      "muscle": 6225,
      "legacy": 6226,
      "Christians": 6227,
      "reaches": 6228,
      "clothing": 6229,
      "concern": 6230,
      "currently": 6231,
      "graphics": 6232,
      "consistently": 6233,
      "Secure": 6234,
      "voltage": 6235,
      "determined": 6236,
      "algorithm": 6237,
      "conduct": 6238,
      "Character": 6239,
      "scores": 6240,
      "conflicts": 6241,
      "continuous": 6242,
      "kinase": 6243,
      "vulnerable": 6244,
      "---+\\": 6245,
      "describe": 6246,
      "Customer": 6247,
      "Repe": 6248,
      "chron": 6249,
      "utilize": 6250,
      "Party": 6251,
      "forgettable": 6252,
      "adverse": 6253,
      "destination": 6254,
      "constantly": 6255,
      "Drugs": 6256,
      "conservative": 6257,
      "niture": 6258,
      "unction": 6259,
      "phenomenon": 6260,
      "Credit": 6261,
      "Kogan": 6262,
      "wrong": 6263,
      "announced": 6264,
      "African": 6265,
      "democratic": 6266,
      "entertainment": 6267,
      "Empowerment": 6268,
      "Priorit": 6269,
      "Inhibitors": 6270,
      "Cyto": 6271,
      "plasma": 6272,
      "checks": 6273,
      "loyalty": 6274,
      "Williams": 6275,
      "tactics": 6276,
      "analytics": 6277,
      "memorable": 6278,
      "Disease": 6279,
      "safely": 6280,
      "+---------------+\\": 6281,
      "Ukrain": 6282,
      "65": 6283,
      "Aerial": 6284,
      "Day": 6285,
      "Eth": 6286,
      "Esau": 6287,
      "Fat": 6288,
      "Gree": 6289,
      "HD": 6290,
      "Lab": 6291,
      "Langu": 6292,
      "Muse": 6293,
      "OD": 6294,
      "Ris": 6295,
      "Ronald": 6296,
      "bond": 6297,
      "dle": 6298,
      "ders": 6299,
      "elect": 6300,
      "eleg": 6301,
      "iology": 6302,
      "mand": 6303,
      "nan": 6304,
      "oke": 6305,
      "olean": 6306,
      "sick": 6307,
      "western": 6308,
      "reward": 6309,
      "rejection": 6310,
      "stem": 6311,
      "stock": 6312,
      "iconic": 6313,
      "accounts": 6314,
      "veter": 6315,
      "imperfect": 6316,
      "prob": 6317,
      "propor": 6318,
      "amine": 6319,
      "union": 6320,
      "acting": 6321,
      "ema": 6322,
      "olic": 6323,
      "apoptosis": 6324,
      "sea": 6325,
      "prime": 6326,
      "izational": 6327,
      "negot": 6328,
      "cream": 6329,
      "epigenetic": 6330,
      "moist": 6331,
      "ensity": 6332,
      "grand": 6333,
      "Where": 6334,
      "Convers": 6335,
      "============": 6336,
      "intervention": 6337,
      "Protect": 6338,
      "brush": 6339,
      "texture": 6340,
      "display": 6341,
      "ultimate": 6342,
      "sert": 6343,
      "nothing": 6344,
      "matory": 6345,
      "----------\\": 6346,
      "justice": 6347,
      "corner": 6348,
      "connectivity": 6349,
      "u2019m": 6350,
      "mini": 6351,
      "requiring": 6352,
      "fruit": 6353,
      "berg": 6354,
      "curious": 6355,
      "pressing": 6356,
      "194": 6357,
      "bless": 6358,
      "diam": 6359,
      "supports": 6360,
      "organized": 6361,
      "Content": 6362,
      "customized": 6363,
      "Biological": 6364,
      "haven": 6365,
      "array": 6366,
      "missed": 6367,
      "limbs": 6368,
      "Behind": 6369,
      "positions": 6370,
      "sych": 6371,
      "combined": 6372,
      "responsive": 6373,
      "films": 6374,
      "mindset": 6375,
      "Lee": 6376,
      "spirin": 6377,
      "statistics": 6378,
      "computing": 6379,
      "inhibit": 6380,
      "traits": 6381,
      "suggest": 6382,
      "u2122": 6383,
      "buyers": 6384,
      "laid": 6385,
      "languages": 6386,
      "Caribbean": 6387,
      "Overview": 6388,
      "harmony": 6389,
      "leverage": 6390,
      "Council": 6391,
      "Cardiovascular": 6392,
      "gathering": 6393,
      "trigg": 6394,
      "catalyz": 6395,
      "radiation": 6396,
      "inspire": 6397,
      "Germany": 6398,
      "uzz": 6399,
      "Department": 6400,
      "couple": 6401,
      "nurse": 6402,
      "susp": 6403,
      "ometimes": 6404,
      "immersive": 6405,
      "official": 6406,
      "preserving": 6407,
      "Collaboration": 6408,
      "civilizations": 6409,
      "Architect": 6410,
      "FOLIA": 6411,
      "prompt": 6412,
      "girls": 6413,
      "Spirituality": 6414,
      "Foundation": 6415,
      "Opportunities": 6416,
      "Elimination": 6417,
      "Hunter": 6418,
      "Yeah": 6419,
      "Ukraine": 6420,
      "45": 6421,
      "AP": 6422,
      "Ama": 6423,
      "BS": 6424,
      "Dem": 6425,
      "Fred": 6426,
      "Gra": 6427,
      "Gabr": 6428,
      "Jers": 6429,
      "June": 6430,
      "Mary": 6431,
      "Media": 6432,
      "Pain": 6433,
      "P450": 6434,
      "River": 6435,
      "TH": 6436,
      "TT": 6437,
      "UCL": 6438,
      "VA": 6439,
      "Vit": 6440,
      "Wire": 6441,
      "Watch": 6442,
      "aid": 6443,
      "cies": 6444,
      "fif": 6445,
      "mates": 6446,
      "nTargeted": 6447,
      "nRemember": 6448,
      "ole": 6449,
      "rhyth": 6450,
      "spl": 6451,
      "sulf": 6452,
      "uet": 6453,
      "uators": 6454,
      "vill": 6455,
      "injection": 6456,
      "thous": 6457,
      "ender": 6458,
      "atable": 6459,
      "itu": 6460,
      "itely": 6461,
      "tok": 6462,
      "icyl": 6463,
      "edic": 6464,
      "ara": 6465,
      "accel": 6466,
      "asive": 6467,
      "consc": 6468,
      "abroad": 6469,
      "unately": 6470,
      "unforgettable": 6471,
      "ida": 6472,
      "Innov": 6473,
      "Influ": 6474,
      "**:\\": 6475,
      "ustand": 6476,
      "compos": 6477,
      "earth": 6478,
      "spent": 6479,
      "spinal": 6480,
      "allery": 6481,
      "2015": 6482,
      "occurr": 6483,
      "occup": 6484,
      "illance": 6485,
      "string": 6486,
      "strings": 6487,
      "avares": 6488,
      "undergo": 6489,
      "mann": 6490,
      "delves": 6491,
      "posts": 6492,
      "verse": 6493,
      "locate": 6494,
      "nings": 6495,
      "franch": 6496,
      "audio": 6497,
      "covering": 6498,
      "backup": 6499,
      "vie": 6500,
      "nuanced": 6501,
      "Accord": 6502,
      "apping": 6503,
      "nSeveral": 6504,
      "Contact": 6505,
      "subtle": 6506,
      "increases": 6507,
      "markets": 6508,
      "decided": 6509,
      "securing": 6510,
      "----------------------------": 6511,
      "pharmacokinetic": 6512,
      "investments": 6513,
      "gameplay": 6514,
      "ademy": 6515,
      "Drive": 6516,
      "Shark": 6517,
      "joining": 6518,
      "Strong": 6519,
      "journal": 6520,
      "closed": 6521,
      "laws": 6522,
      "About": 6523,
      "behavioral": 6524,
      "adaptability": 6525,
      "governance": 6526,
      "Regulation": 6527,
      "Black": 6528,
      "childhood": 6529,
      "idson": 6530,
      "narratives": 6531,
      "reported": 6532,
      "links": 6533,
      "purchasing": 6534,
      "Hybrid": 6535,
      "Features": 6536,
      "heavily": 6537,
      "schools": 6538,
      "harness": 6539,
      "disciplines": 6540,
      "polyadenylation": 6541,
      "whiskey": 6542,
      "breathtaking": 6543,
      "Scripture": 6544,
      "Materials": 6545,
      "cuis": 6546,
      "dogs": 6547,
      "Combination": 6548,
      "sample": 6549,
      "Properties": 6550,
      "pioneers": 6551,
      "mountain": 6552,
      "ilosop": 6553,
      "Golden": 6554,
      "tackle": 6555,
      "vibrant": 6556,
      "remote": 6557,
      "mitigate": 6558,
      "breakthroughs": 6559,
      "advertising": 6560,
      "QRIS": 6561,
      "Jersey": 6562,
      "icylic": 6563,
      "conscious": 6564,
      "':": 6565,
      ");\\": 6566,
      "31": 6567,
      "37": 6568,
      "38": 6569,
      "67": 6570,
      "Aug": 6571,
      "Austr": 6572,
      "Base": 6573,
      "Days": 6574,
      "Flex": 6575,
      "IMA": 6576,
      "Job": 6577,
      "King": 6578,
      "Ly": 6579,
      "Less": 6580,
      "Mult": 6581,
      "Match": 6582,
      "NC": 6583,
      "Oak": 6584,
      "Pack": 6585,
      "Peter": 6586,
      "QL": 6587,
      "Sol": 6588,
      "SQL": 6589,
      "Tavares": 6590,
      "User": 6591,
      "Zustand": 6592,
      "aur": 6593,
      "dating": 6594,
      "gate": 6595,
      "gift": 6596,
      "hips": 6597,
      "iary": 6598,
      "mad": 6599,
      "mys": 6600,
      "nav": 6601,
      "riev": 6602,
      "sv": 6603,
      "san": 6604,
      "sending": 6605,
      "van": 6606,
      "inactive": 6607,
      "attit": 6608,
      "oration": 6609,
      "theme": 6610,
      "refin": 6611,
      "aceful": 6612,
      "aside": 6613,
      "eces": 6614,
      "tray": 6615,
      "seven": 6616,
      "ivic": 6617,
      "terling": 6618,
      "pray": 6619,
      "percent": 6620,
      "Inj": 6621,
      "ighter": 6622,
      "drag": 6623,
      "estim": 6624,
      "2010": 6625,
      "indromic": 6626,
      "workflow": 6627,
      "cretion": 6628,
      "strengthen": 6629,
      "umin": 6630,
      "tawa": 6631,
      "meal": 6632,
      "doors": 6633,
      "interplay": 6634,
      "biom": 6635,
      "biotechnology": 6636,
      "despite": 6637,
      "owner": 6638,
      "however": 6639,
      "valon": 6640,
      "Chang": 6641,
      "Chopin": 6642,
      "designers": 6643,
      "colors": 6644,
      "wasn": 6645,
      "personality": 6646,
      "president": 6647,
      "fract": 6648,
      "frustr": 6649,
      "olutions": 6650,
      "advancing": 6651,
      "Admin": 6652,
      "Advent": 6653,
      "Track": 6654,
      "centered": 6655,
      "finance": 6656,
      "marketers": 6657,
      "raise": 6658,
      "changed": 6659,
      "pharmacological": 6660,
      "knowing": 6661,
      "precisely": 6662,
      "Society": 6663,
      "consideration": 6664,
      "faculty": 6665,
      "101": 6666,
      "passed": 6667,
      "Description": 6668,
      "equity": 6669,
      "multi": 6670,
      "talking": 6671,
      "cars": 6672,
      "carry": 6673,
      "pathway": 6674,
      "stronger": 6675,
      "minimum": 6676,
      "spirit": 6677,
      "accountable": 6678,
      "protecting": 6679,
      "paying": 6680,
      "injured": 6681,
      "discoveries": 6682,
      "pedestr": 6683,
      "Company": 6684,
      "annual": 6685,
      "installing": 6686,
      "shapes": 6687,
      "highlighted": 6688,
      "drawing": 6689,
      "monthly": 6690,
      "Consult": 6691,
      "conducting": 6692,
      "Hydro": 6693,
      "Culture": 6694,
      "momentum": 6695,
      "institution": 6696,
      "County": 6697,
      "issions": 6698,
      "resonate": 6699,
      "victory": 6700,
      "starts": 6701,
      "summer": 6702,
      "databases": 6703,
      "daunting": 6704,
      "regarding": 6705,
      "scenario": 6706,
      "Balram": 6707,
      "threats": 6708,
      "Davidson": 6709,
      "underscores": 6710,
      "praise": 6711,
      "third": 6712,
      "Complexity": 6713,
      "ashington": 6714,
      "introduce": 6715,
      "Committee": 6716,
      "baby": 6717,
      "Executive": 6718,
      "Legacy": 6719,
      "Scientists": 6720,
      "Group": 6721,
      "Establish": 6722,
      "Language": 6723,
      "Amazon": 6724,
      ")**\\": 6725,
      "->": 6726,
      ".).": 6727,
      "95": 6728,
      "Aspirin": 6729,
      "Ber": 6730,
      "Big": 6731,
      "Bun": 6732,
      "CP": 6733,
      "Cer": 6734,
      "Eg": 6735,
      "Econ": 6736,
      "Ess": 6737,
      "Fol": 6738,
      "Ground": 6739,
      "Hor": 6740,
      "Hard": 6741,
      "Ns": 6742,
      "OR": 6743,
      "Ot": 6744,
      "Psych": 6745,
      "SA": 6746,
      "Sch": 6747,
      "Snap": 6748,
      "Tal": 6749,
      "Tut": 6750,
      "Two": 6751,
      "_data": 6752,
      "ait": 6753,
      "cial": 6754,
      "catch": 6755,
      "dess": 6756,
      "dual": 6757,
      "elo": 6758,
      "fed": 6759,
      "gives": 6760,
      "mac": 6761,
      "nis": 6762,
      "nUn": 6763,
      "nReferences": 6764,
      "park": 6765,
      "ron": 6766,
      "rust": 6767,
      "ride": 6768,
      "random": 6769,
      "uitive": 6770,
      "yacht": 6771,
      "{\\": 6772,
      "esis": 6773,
      "ores": 6774,
      "oric": 6775,
      "rell": 6776,
      "stic": 6777,
      "itude": 6778,
      "ouch": 6779,
      "argu": 6780,
      "entry": 6781,
      "rovers": 6782,
      "leather": 6783,
      "asion": 6784,
      "debris": 6785,
      "etc": 6786,
      "conc": 6787,
      "construct": 6788,
      "proposal": 6789,
      "units": 6790,
      "unpredict": 6791,
      "ifiable": 6792,
      "idol": 6793,
      "kep": 6794,
      "perce": 6795,
      "restructuring": 6796,
      "clim": 6797,
      "club": 6798,
      "contamination": 6799,
      "poignant": 6800,
      "coin": 6801,
      "mob": 6802,
      "ensed": 6803,
      "grounds": 6804,
      "Context": 6805,
      "Concer": 6806,
      "meg": 6807,
      "manship": 6808,
      "technological": 6809,
      "Any": 6810,
      "19th": 6811,
      "names": 6812,
      "guarant": 6813,
      "Academy": 6814,
      "brew": 6815,
      "appropr": 6816,
      "soon": 6817,
      "ields": 6818,
      "visually": 6819,
      "cultivate": 6820,
      "Resistance": 6821,
      "raises": 6822,
      "hyper": 6823,
      "hypo": 6824,
      "refine": 6825,
      "pository": 6826,
      "grapes": 6827,
      "Explore": 6828,
      "Exploring": 6829,
      "sale": 6830,
      "compete": 6831,
      "represented": 6832,
      "stores": 6833,
      "publication": 6834,
      "gamers": 6835,
      "Techniques": 6836,
      "transformative": 6837,
      "trees": 6838,
      "administ": 6839,
      "Craf": 6840,
      "encouraging": 6841,
      "SEM": 6842,
      "authority": 6843,
      "authorized": 6844,
      "Syr": 6845,
      "reporting": 6846,
      "u03": 6847,
      "referred": 6848,
      "cels": 6849,
      "determination": 6850,
      "baseball": 6851,
      "robot": 6852,
      "Posit": 6853,
      "route": 6854,
      "Setting": 6855,
      "minute": 6856,
      "trigger": 6857,
      "horror": 6858,
      "manufacturer": 6859,
      "credibility": 6860,
      "Retriev": 6861,
      "Basic": 6862,
      "Pressure": 6863,
      "literature": 6864,
      "Emergency": 6865,
      "fellow": 6866,
      "centralized": 6867,
      "Honors": 6868,
      "inflammatory": 6869,
      "Industry": 6870,
      "Commercial": 6871,
      "recommendations": 6872,
      "astrointest": 6873,
      "Canada": 6874,
      "Pacemak": 6875,
      "channels": 6876,
      "Clustered": 6877,
      "exclusive": 6878,
      "ampionship": 6879,
      "oriented": 6880,
      "Scotland": 6881,
      "Greek": 6882,
      "tokens": 6883,
      "Austral": 6884,
      "IMAP": 6885,
      "astrointestinal": 6886,
      "\"###": 6887,
      "66": 6888,
      "85": 6889,
      "AL": 6890,
      "Civic": 6891,
      "Dom": 6892,
      "FU": 6893,
      "Fa": 6894,
      "Fund": 6895,
      "Hom": 6896,
      "Happ": 6897,
      "Hmm": 6898,
      "IRA": 6899,
      "Jac": 6900,
      "Li": 6901,
      "Mu": 6902,
      "Mel": 6903,
      "Mur": 6904,
      "Most": 6905,
      "Nur": 6906,
      "NGC": 6907,
      "Old": 6908,
      "Ped": 6909,
      "Put": 6910,
      "Rich": 6911,
      "Tur": 6912,
      "TLS": 6913,
      "Vi": 6914,
      "View": 6915,
      "Viet": 6916,
      "Wel": 6917,
      "Washington": 6918,
      "aos": 6919,
      "ba": 6920,
      "billion": 6921,
      "cand": 6922,
      "cient": 6923,
      "d7": 6924,
      "dings": 6925,
      "dining": 6926,
      "eat": 6927,
      "eply": 6928,
      "fro": 6929,
      "fits": 6930,
      "golf": 6931,
      "iately": 6932,
      "iami": 6933,
      "laser": 6934,
      "mph": 6935,
      "mber": 6936,
      "nHow": 6937,
      "nRe": 6938,
      "nPharmacodynamics": 6939,
      "nprint": 6940,
      "ogene": 6941,
      "pand": 6942,
      "pav": 6943,
      "puzz": 6944,
      "rd": 6945,
      "rating": 6946,
      "soul": 6947,
      "ture": 6948,
      "wireless": 6949,
      "yota": 6950,
      "eness": 6951,
      "enities": 6952,
      "theology": 6953,
      "theft": 6954,
      "revenue": 6955,
      "andon": 6956,
      "states": 6957,
      "itter": 6958,
      "itable": 6959,
      "rosion": 6960,
      "lee": 6961,
      "leaves": 6962,
      "deeply": 6963,
      "lox": 6964,
      "iling": 6965,
      "ille": 6966,
      "ilarly": 6967,
      "igations": 6968,
      "plom": 6969,
      "amb": 6970,
      "amins": 6971,
      "amenities": 6972,
      "ourcing": 6973,
      "usual": 6974,
      "acterial": 6975,
      "ution": 6976,
      "bear": 6977,
      "prise": 6978,
      "pricing": 6979,
      "achite": 6980,
      "Init": 6981,
      "forming": 6982,
      "=====\\": 6983,
      "resolve": 6984,
      "posing": 6985,
      "dra": 6986,
      "ologous": 6987,
      "mothers": 6988,
      "ificate": 6989,
      "portfolio": 6990,
      "Config": 6991,
      "End": 6992,
      "heal": 6993,
      "Pros": 6994,
      "overlooked": 6995,
      "Excretion": 6996,
      "afra": 6997,
      "affil": 6998,
      "peaceful": 6999,
      "anywhere": 7000,
      "minor": 7001,
      "minent": 7002,
      "ponent": 7003,
      "award": 7004,
      "variants": 7005,
      "therapist": 7006,
      "guil": 7007,
      "guides": 7008,
      "Adjust": 7009,
      "Address": 7010,
      "ryp": 7011,
      "centers": 7012,
      "Contin": 7013,
      "secrets": 7014,
      "actively": 7015,
      "Without": 7016,
      "Arab": 7017,
      "devot": 7018,
      "viewers": 7019,
      "improvements": 7020,
      "modification": 7021,
      "archae": 7022,
      "Works": 7023,
      "Targeting": 7024,
      "calculate": 7025,
      "minded": 7026,
      "trading": 7027,
      "roads": 7028,
      "Sciences": 7029,
      "Practices": 7030,
      "tenance": 7031,
      "tennis": 7032,
      "collaborative": 7033,
      "Profile": 7034,
      "searching": 7035,
      "emphasized": 7036,
      "emphasizing": 7037,
      "confident": 7038,
      "Medicines": 7039,
      "crafting": 7040,
      "crafted": 7041,
      "packages": 7042,
      "evaluating": 7043,
      "synthetic": 7044,
      "references": 7045,
      "Mini": 7046,
      "emails": 7047,
      "stimulate": 7048,
      "Patent": 7049,
      "Limitations": 7050,
      "Considerations": 7051,
      "execute": 7052,
      "execution": 7053,
      "honest": 7054,
      "Holy": 7055,
      "defined": 7056,
      "Neuro": 7057,
      "embly": 7058,
      "Between": 7059,
      "tournam": 7060,
      "Palindromic": 7061,
      "capitalize": 7062,
      "disrupt": 7063,
      "clustering": 7064,
      "panels": 7065,
      "fulfillment": 7066,
      "massive": 7067,
      "sleep": 7068,
      "collections": 7069,
      "described": 7070,
      "vessel": 7071,
      "Interspaced": 7072,
      "January": 7073,
      "anesthes": 7074,
      "Electr": 7075,
      "Foster": 7076,
      "Calculate": 7077,
      "bespoke": 7078,
      "compensation": 7079,
      "-------------------------\\": 7080,
      "Splunk": 7081,
      "Authent": 7082,
      "Precision": 7083,
      "Single": 7084,
      "agriculture": 7085,
      "solely": 7086,
      "Repeats": 7087,
      "Gabriel": 7088,
      "Follow": 7089,
      "idolite": 7090,
      "Vietnam": 7091,
      "afraid": 7092,
      ")\"}": 7093,
      "32": 7094,
      "300": 7095,
      "Ag": 7096,
      "AWS": 7097,
      "Cryp": 7098,
      "Dif": 7099,
      "Every": 7100,
      "FL": 7101,
      "IM": 7102,
      "James": 7103,
      "Lever": 7104,
      "Log": 7105,
      "Mun": 7106,
      "NO": 7107,
      "Nove": 7108,
      "Ques": 7109,
      "Rock": 7110,
      "Sterling": 7111,
      "Ten": 7112,
      "bing": 7113,
      "bod": 7114,
      "eager": 7115,
      "fem": 7116,
      "fter": 7117,
      "fish": 7118,
      "gy": 7119,
      "gaining": 7120,
      "hur": 7121,
      "heter": 7122,
      "mation": 7123,
      "nes": 7124,
      "nTh": 7125,
      "nations": 7126,
      "nCh": 7127,
      "nTr": 7128,
      "obl": 7129,
      "pen": 7130,
      "ql": 7131,
      "sn": 7132,
      "sail": 7133,
      "intr": 7134,
      "incent": 7135,
      "inars": 7136,
      "thumb": 7137,
      "atr": 7138,
      "orce": 7139,
      "album": 7140,
      "rein": 7141,
      "returning": 7142,
      "stom": 7143,
      "stood": 7144,
      "street": 7145,
      "told": 7146,
      "icago": 7147,
      "isation": 7148,
      "arts": 7149,
      "acids": 7150,
      "roid": 7151,
      "asis": 7152,
      "ilation": 7153,
      "ilray": 7154,
      "ching": 7155,
      "churches": 7156,
      "chocolate": 7157,
      "ammo": 7158,
      "amber": 7159,
      "elong": 7160,
      "ado": 7161,
      "adapter": 7162,
      "urs": 7163,
      "oly": 7164,
      "ulatory": 7165,
      "truth": 7166,
      "ifies": 7167,
      "ifts": 7168,
      "utics": 7169,
      "verification": 7170,
      "wheel": 7171,
      "achel": 7172,
      "Insur": 7173,
      "former": 7174,
      "formats": 7175,
      "quart": 7176,
      "phase": 7177,
      "genomics": 7178,
      "umatic": 7179,
      "gras": 7180,
      "geograph": 7181,
      "Conference": 7182,
      "managed": 7183,
      "delicate": 7184,
      "persever": 7185,
      "Dog": 7186,
      "ceptions": 7187,
      "medvig": 7188,
      "Ask": 7189,
      "peers": 7190,
      "correc": 7191,
      "button": 7192,
      "profits": 7193,
      "Photo": 7194,
      "expensive": 7195,
      "backgrounds": 7196,
      "motion": 7197,
      "interacts": 7198,
      "transmission": 7199,
      "transcription": 7200,
      "Toyota": 7201,
      "submit": 7202,
      "teammates": 7203,
      "observ": 7204,
      "nAfter": 7205,
      "studio": 7206,
      "Pharmacology": 7207,
      "cycles": 7208,
      "NetworkX": 7209,
      "miscarriage": 7210,
      "ventions": 7211,
      "changer": 7212,
      "greatly": 7213,
      "Coast": 7214,
      "capture": 7215,
      "modifications": 7216,
      "Head": 7217,
      "Road": 7218,
      "Issu": 7219,
      "ondon": 7220,
      "minds": 7221,
      "tradition": 7222,
      "join": 7223,
      "Guard": 7224,
      "Class": 7225,
      "Legal": 7226,
      "carbon": 7227,
      "metabolized": 7228,
      "aze": 7229,
      "domestic": 7230,
      "statue": 7231,
      "element": 7232,
      "sensit": 7233,
      "Designing": 7234,
      "musicians": 7235,
      "2003": 7236,
      "2007": 7237,
      "excit": 7238,
      "Perfect": 7239,
      "See": 7240,
      "messaging": 7241,
      "placed": 7242,
      "implemented": 7243,
      "ERP": 7244,
      "himself": 7245,
      "hardware": 7246,
      "Prem": 7247,
      "COV": 7248,
      "dependence": 7249,
      "amounts": 7250,
      "printing": 7251,
      "Communication": 7252,
      "emerging": 7253,
      "alignment": 7254,
      "measured": 7255,
      "------------------------------------------------": 7256,
      "gression": 7257,
      "directed": 7258,
      "worthy": 7259,
      "maximize": 7260,
      "uctu": 7261,
      "toxic": 7262,
      "skilled": 7263,
      "CEO": 7264,
      "Metabolic": 7265,
      "investigating": 7266,
      "paid": 7267,
      "preparing": 7268,
      "contracts": 7269,
      "discussions": 7270,
      "regardless": 7271,
      "Material": 7272,
      "Maintenance": 7273,
      "frequency": 7274,
      "scalable": 7275,
      "CYFOLIA": 7276,
      "galax": 7277,
      "hook": 7278,
      "Sunday": 7279,
      "versatile": 7280,
      "Providing": 7281,
      "Frontier": 7282,
      "Industrial": 7283,
      "________": 7284,
      "inspiration": 7285,
      "Commerce": 7286,
      "Factors": 7287,
      "nuclear": 7288,
      "motherboard": 7289,
      "Steelers": 7290,
      "Passat": 7291,
      "sparked": 7292,
      "approval": 7293,
      "ud83d": 7294,
      "hazards": 7295,
      "Growth": 7296,
      "millions": 7297,
      "Relationships": 7298,
      "recruitment": 7299,
      "Cytoscape": 7300,
      "fifth": 7301,
      "Ottawa": 7302,
      "u03b": 7303,
      "Retrieved": 7304,
      "Insurance": 7305,
      "\"#": 7306,
      "()\\": 7307,
      "Adr": 7308,
      "Age": 7309,
      "Avalon": 7310,
      "BL": 7311,
      "Binding": 7312,
      "Div": 7313,
      "Evalu": 7314,
      "ENT": 7315,
      "GT": 7316,
      "Gather": 7317,
      "GTA": 7318,
      "Having": 7319,
      "IPA": 7320,
      "IFT": 7321,
      "Kau": 7322,
      "Mind": 7323,
      "Making": 7324,
      "MPC": 7325,
      "ON": 7326,
      "PE": 7327,
      "Prom": 7328,
      "Pine": 7329,
      "Rad": 7330,
      "Rout": 7331,
      "Sw": 7332,
      "Sports": 7333,
      "Smedvig": 7334,
      "UP": 7335,
      "Will": 7336,
      "Yoga": 7337,
      "bill": 7338,
      "bone": 7339,
      "haps": 7340,
      "jug": 7341,
      "kick": 7342,
      "lest": 7343,
      "mous": 7344,
      "marriage": 7345,
      "nel": 7346,
      "nearly": 7347,
      "sou": 7348,
      "schem": 7349,
      "wish": 7350,
      "wants": 7351,
      "zone": 7352,
      "throw": 7353,
      "ened": 7354,
      "enry": 7355,
      "orida": 7356,
      "redo": 7357,
      "returns": 7358,
      "ander": 7359,
      "stance": 7360,
      "stations": 7361,
      "stated": 7362,
      "icans": 7363,
      "edited": 7364,
      "isc": 7365,
      "veget": 7366,
      "dele": 7367,
      "lov": 7368,
      "eting": 7369,
      "conv": 7370,
      "concl": 7371,
      "prominent": 7372,
      "amid": 7373,
      "usage": 7374,
      "essay": 7375,
      "===\\": 7376,
      "admit": 7377,
      "urban": 7378,
      "emissions": 7379,
      "comments": 7380,
      "weet": 7381,
      "idi": 7382,
      "pride": 7383,
      "Insert": 7384,
      "quir": 7385,
      "resume": 7386,
      "izon": 7387,
      "complet": 7388,
      "earrings": 7389,
      "containing": 7390,
      "coach": 7391,
      "anta": 7392,
      "intuitive": 7393,
      "workplace": 7394,
      "portable": 7395,
      "Congress": 7396,
      "dosing": 7397,
      "discomfort": 7398,
      "dishes": 7399,
      "arms": 7400,
      "valves": 7401,
      "peak": 7402,
      "angel": 7403,
      "anct": 7404,
      "profen": 7405,
      "fluctu": 7406,
      "curve": 7407,
      "Comfort": 7408,
      "variations": 7409,
      "React": 7410,
      "soil": 7411,
      "organizational": 7412,
      "sentiment": 7413,
      "soccer": 7414,
      "nAlex": 7415,
      "landing": 7416,
      "airflow": 7417,
      "listen": 7418,
      "fires": 7419,
      "missing": 7420,
      "tware": 7421,
      "twist": 7422,
      "supporters": 7423,
      "knows": 7424,
      "balanced": 7425,
      "Player": 7426,
      "sequencing": 7427,
      "showcases": 7428,
      "Being": 7429,
      "combat": 7430,
      "tutoring": 7431,
      "calculated": 7432,
      "traditions": 7433,
      "venant": 7434,
      "competitors": 7435,
      "populations": 7436,
      "contributing": 7437,
      "statistical": 7438,
      "Loans": 7439,
      "holding": 7440,
      "classes": 7441,
      "turned": 7442,
      "turnover": 7443,
      "dentures": 7444,
      "receiving": 7445,
      "loads": 7446,
      "seemingly": 7447,
      "onomy": 7448,
      "Technical": 7449,
      "thoughtful": 7450,
      "Joe": 7451,
      "transformed": 7452,
      "renal": 7453,
      "completed": 7454,
      "retirement": 7455,
      "litigation": 7456,
      "biggest": 7457,
      "steel": 7458,
      "coping": 7459,
      "ocker": 7460,
      "foods": 7461,
      "spirituality": 7462,
      "Similarly": 7463,
      "brother": 7464,
      "gradu": 7465,
      "scored": 7466,
      "expressing": 7467,
      "expressed": 7468,
      "Edge": 7469,
      "casual": 7470,
      "repairs": 7471,
      "u00b0": 7472,
      "appears": 7473,
      "Finance": 7474,
      "photograph": 7475,
      "institutional": 7476,
      "harsh": 7477,
      "vulnerabilities": 7478,
      "wearer": 7479,
      "Organization": 7480,
      "durable": 7481,
      "Efficacy": 7482,
      "eliminate": 7483,
      "walls": 7484,
      "bridge": 7485,
      "layers": 7486,
      "credentials": 7487,
      "songs": 7488,
      "ECT": 7489,
      "Florida": 7490,
      "extraordinary": 7491,
      "Excellence": 7492,
      "tapes": 7493,
      "conservation": 7494,
      "guns": 7495,
      "relaxation": 7496,
      "Honestly": 7497,
      "inflammation": 7498,
      "acquis": 7499,
      "missions": 7500,
      "appointment": 7501,
      "reminded": 7502,
      "restaurant": 7503,
      "restaurants": 7504,
      "VMware": 7505,
      "Budd": 7506,
      "agreements": 7507,
      "aesthetic": 7508,
      "Catal": 7509,
      "reconciliation": 7510,
      "Therapeutic": 7511,
      "eshoot": 7512,
      "furniture": 7513,
      "oubleshoot": 7514,
      "Grade": 7515,
      "franchise": 7516,
      "cuisine": 7517,
      "concise": 7518,
      "appropriate": 7519,
      "stomach": 7520,
      "grasping": 7521,
      "excitement": 7522,
      "redox": 7523,
      "42": 7524,
      "47": 7525,
      "Astro": 7526,
      "Based": 7527,
      "BHA": 7528,
      "Cro": 7529,
      "Cele": 7530,
      "Doc": 7531,
      "Dell": 7532,
      "Docker": 7533,
      "Fi": 7534,
      "GB": 7535,
      "Got": 7536,
      "Hair": 7537,
      "Low": 7538,
      "London": 7539,
      "March": 7540,
      "Mont": 7541,
      "Miami": 7542,
      "Net": 7543,
      "ST": 7544,
      "Sure": 7545,
      "Scor": 7546,
      "Section": 7547,
      "Squid": 7548,
      "Tem": 7549,
      "Tech": 7550,
      "Tax": 7551,
      "YFU": 7552,
      "bin": 7553,
      "bacterial": 7554,
      "cash": 7555,
      "csv": 7556,
      "diving": 7557,
      "fly": 7558,
      "glo": 7559,
      "greg": 7560,
      "gastrointestinal": 7561,
      "ha": 7562,
      "je": 7563,
      "ka": 7564,
      "kids": 7565,
      "lib": 7566,
      "mend": 7567,
      "pear": 7568,
      "pend": 7569,
      "pets": 7570,
      "rank": 7571,
      "rush": 7572,
      "tree": 7573,
      "tario": 7574,
      "vin": 7575,
      "winter": 7576,
      "za": 7577,
      "escrow": 7578,
      "atility": 7579,
      "orship": 7580,
      "orie": 7581,
      "alleg": 7582,
      "stamp": 7583,
      "itate": 7584,
      "itening": 7585,
      "arg": 7586,
      "entities": 7587,
      "lets": 7588,
      "ecan": 7589,
      "loe": 7590,
      "constrain": 7591,
      "igue": 7592,
      "chef": 7593,
      "plain": 7594,
      "plug": 7595,
      "agram": 7596,
      "adults": 7597,
      "urfing": 7598,
      "embodies": 7599,
      "compr": 7600,
      "ula": 7601,
      "cancell": 7602,
      "formations": 7603,
      "opy": 7604,
      "clubs": 7605,
      "noticed": 7606,
      "extension": 7607,
      "ancePR": 7608,
      "coaches": 7609,
      "liquid": 7610,
      "ocial": 7611,
      "illness": 7612,
      "ipment": 7613,
      "movie": 7614,
      "White": 7615,
      "engines": 7616,
      "iah": 7617,
      "desk": 7618,
      "boast": 7619,
      "Excels": 7620,
      "Children": 7621,
      "matr": 7622,
      "matically": 7623,
      "analyst": 7624,
      "relies": 7625,
      "helpful": 7626,
      "startup": 7627,
      "fiction": 7628,
      "phrase": 7629,
      "setup": 7630,
      "apped": 7631,
      "motif": 7632,
      "suppress": 7633,
      "True": 7634,
      "organism": 7635,
      "parent": 7636,
      "substances": 7637,
      "nAb": 7638,
      "hearts": 7639,
      "cultiv": 7640,
      "seconds": 7641,
      "calm": 7642,
      "humor": 7643,
      "charges": 7644,
      "innovations": 7645,
      "Cooking": 7646,
      "Begin": 7647,
      "modify": 7648,
      "ernity": 7649,
      "equitable": 7650,
      "onda": 7651,
      "ierarch": 7652,
      "addressed": 7653,
      "salicylic": 7654,
      "ceptin": 7655,
      "domains": 7656,
      "safer": 7657,
      "largest": 7658,
      "Monoclonal": 7659,
      "employed": 7660,
      "lotecan": 7661,
      "affecting": 7662,
      "campus": 7663,
      "Join": 7664,
      "trusted": 7665,
      "Guidelines": 7666,
      "roofs": 7667,
      "economy": 7668,
      "Poly": 7669,
      "Carol": 7670,
      "marg": 7671,
      "Present": 7672,
      "witness": 7673,
      "holiday": 7674,
      "emergence": 7675,
      "difficulties": 7676,
      "Improving": 7677,
      "Minim": 7678,
      "itesurfing": 7679,
      "Vera": 7680,
      "Parking": 7681,
      "Herceptin": 7682,
      "frameworks": 7683,
      "cas9": 7684,
      "rooted": 7685,
      "rental": 7686,
      "masterclass": 7687,
      "esterases": 7688,
      "experiencing": 7689,
      "OpenID": 7690,
      "partnerships": 7691,
      "incredibly": 7692,
      "alongside": 7693,
      "certificate": 7694,
      "speaker": 7695,
      "validation": 7696,
      "debt": 7697,
      "mechanics": 7698,
      "evolutionary": 7699,
      "Emergence": 7700,
      "felt": 7701,
      "accommodate": 7702,
      "categories": 7703,
      "sexual": 7704,
      "Optimize": 7705,
      "Slide": 7706,
      "PeopleSoft": 7707,
      "Japanese": 7708,
      "Stock": 7709,
      "Chemical": 7710,
      "repeated": 7711,
      "British": 7712,
      "OTECT": 7713,
      "fantastic": 7714,
      "isolation": 7715,
      "Government": 7716,
      "Schedule": 7717,
      "immediately": 7718,
      "atomy": 7719,
      "craftsmanship": 7720,
      "DynamoDB": 7721,
      "Equipment": 7722,
      "eligibility": 7723,
      "housing": 7724,
      "Annual": 7725,
      "overwhelming": 7726,
      "Navigating": 7727,
      "topology": 7728,
      "aggressive": 7729,
      "societal": 7730,
      "surveillance": 7731,
      "thousands": 7732,
      "Flexibility": 7733,
      "Oakland": 7734,
      "Snapforce": 7735,
      "orespon": 7736,
      "Faith": 7737,
      "puzzle": 7738,
      "heterogene": 7739,
      "BHAG": 7740,
      "constraints": 7741,
      "ancePROTECT": 7742,
      "Excelsior": 7743,
      "Avenue": 7744,
      "April": 7745,
      "Bra": 7746,
      "CT": 7747,
      "Cli": 7748,
      "Ds": 7749,
      "Fix": 7750,
      "Function": 7751,
      "Gav": 7752,
      "HR": 7753,
      "Hosp": 7754,
      "Ku": 7755,
      "Kar": 7756,
      "Last": 7757,
      "Lack": 7758,
      "Mad": 7759,
      "NY": 7760,
      "NIC": 7761,
      "Pic": 7762,
      "PTO": 7763,
      "Rose": 7764,
      "Wood": 7765,
      "WME": 7766,
      "bat": 7767,
      "bag": 7768,
      "blocking": 7769,
      "codes": 7770,
      "crop": 7771,
      "divid": 7772,
      "distance": 7773,
      "font": 7774,
      "giant": 7775,
      "mir": 7776,
      "n5": 7777,
      "nV": 7778,
      "nals": 7779,
      "nRecent": 7780,
      "nCode": 7781,
      "ov": 7782,
      "overs": 7783,
      "pit": 7784,
      "pace": 7785,
      "sen": 7786,
      "sized": 7787,
      "schol": 7788,
      "tility": 7789,
      "uits": 7790,
      "v2": 7791,
      "ville": 7792,
      "wat": 7793,
      "west": 7794,
      "wrap": 7795,
      "zi": 7796,
      "inth": 7797,
      "inery": 7798,
      "thal": 7799,
      "erve": 7800,
      "esc": 7801,
      "encompass": 7802,
      "reets": 7803,
      "sters": 7804,
      "iter": 7805,
      "eding": 7806,
      "ofeedback": 7807,
      "arth": 7808,
      "enty": 7809,
      "asil": 7810,
      "excel": 7811,
      "Thom": 7812,
      "Those": 7813,
      "conventional": 7814,
      "amco": 7815,
      "unauthorized": 7816,
      "agility": 7817,
      "emble": 7818,
      "aping": 7819,
      "compromise": 7820,
      "weigh": 7821,
      "perpet": 7822,
      "quant": 7823,
      "math": 7824,
      "izumab": 7825,
      "earned": 7826,
      "contemporary": 7827,
      "shoplifting": 7828,
      "spin": 7829,
      "spac": 7830,
      "driver": 7831,
      "efr": 7832,
      "portray": 7833,
      "artwork": 7834,
      "intim": 7835,
      "bypass": 7836,
      "phones": 7837,
      "strand": 7838,
      "ugby": 7839,
      "echoes": 7840,
      "interventions": 7841,
      "astuzumab": 7842,
      "overe": 7843,
      "feet": 7844,
      "pleasure": 7845,
      "Change": 7846,
      "Chicago": 7847,
      "tailor": 7848,
      "premise": 7849,
      "requests": 7850,
      "flat": 7851,
      "Price": 7852,
      "guests": 7853,
      "viruses": 7854,
      "diplom": 7855,
      "Trastuzumab": 7856,
      "survey": 7857,
      "teamwork": 7858,
      "Help": 7859,
      "nAl": 7860,
      "followed": 7861,
      "decide": 7862,
      "secret": 7863,
      "compreh": 7864,
      "Results": 7865,
      "humility": 7866,
      "humble": 7867,
      "realistic": 7868,
      "risis": 7869,
      "facility": 7870,
      "Ontario": 7871,
      "releasing": 7872,
      "pursuit": 7873,
      "passions": 7874,
      "cleav": 7875,
      "severity": 7876,
      "combine": 7877,
      "fluid": 7878,
      "operating": 7879,
      "operational": 7880,
      "Frame": 7881,
      "Franc": 7882,
      "ahul": 7883,
      "stored": 7884,
      "ubility": 7885,
      "Space": 7886,
      "calling": 7887,
      "optimization": 7888,
      "adjusting": 7889,
      "lawyers": 7890,
      "capable": 7891,
      "converting": 7892,
      "enhancing": 7893,
      "Monast": 7894,
      "Monday": 7895,
      "Monster": 7896,
      "employers": 7897,
      "Colle": 7898,
      "Collection": 7899,
      "faster": 7900,
      "transformations": 7901,
      "Regulatory": 7902,
      "discussing": 7903,
      "undred": 7904,
      "confidential": 7905,
      "mutation": 7906,
      "establishing": 7907,
      "Prep": 7908,
      "launch": 7909,
      "enjoyable": 7910,
      "1999": 7911,
      "outsourcing": 7912,
      "Effects": 7913,
      "crispr": 7914,
      "divine": 7915,
      "divorce": 7916,
      "Elli": 7917,
      "policymakers": 7918,
      "electronics": 7919,
      "avoiding": 7920,
      "harmon": 7921,
      "heaven": 7922,
      "Edward": 7923,
      "celebration": 7924,
      "celebrate": 7925,
      "photography": 7926,
      "passionate": 7927,
      "automatically": 7928,
      "reflecting": 7929,
      "exhibition": 7930,
      "eliminates": 7931,
      "Corpor": 7932,
      "Launch": 7933,
      "benefic": 7934,
      "procedure": 7935,
      "Modeling": 7936,
      "Background": 7937,
      "Partner": 7938,
      "breathing": 7939,
      "Landscape": 7940,
      "trained": 7941,
      "Childhood": 7942,
      "thoroughly": 7943,
      "McDonald": 7944,
      "convenience": 7945,
      "scalability": 7946,
      "Malachite": 7947,
      "brightness": 7948,
      "surprise": 7949,
      "Roofing": 7950,
      "believers": 7951,
      "^^^^^^^^": 7952,
      "charming": 7953,
      "adopting": 7954,
      "TKIs": 7955,
      "configuration": 7956,
      "revealed": 7957,
      "Immune": 7958,
      "vacation": 7959,
      "aspirin": 7960,
      "Current": 7961,
      "Specific": 7962,
      "beliefs": 7963,
      "Islamic": 7964,
      "P2P": 7965,
      "Virtual": 7966,
      "Controller": 7967,
      "CylancePROTECT": 7968,
      "Automation": 7969,
      "Pastor": 7970,
      "chainsaw": 7971,
      "intriguing": 7972,
      "Bowl": 7973,
      "Restaur": 7974,
      "Satur": 7975,
      "kitchen": 7976,
      "Risk": 7977,
      "moisture": 7978,
      "catalyzed": 7979,
      "village": 7980,
      "sanitation": 7981,
      "mega": 7982,
      "affiliate": 7983,
      "perseverance": 7984,
      "tapestry": 7985,
      "Restaurant": 7986,
      ".)": 7987,
      "75": 7988,
      "99": 7989,
      ":||": 7990,
      "A2": 7991,
      "Bil": 7992,
      "Cross": 7993,
      "Coffee": 7994,
      "EL": 7995,
      "EM": 7996,
      "EX": 7997,
      "EAT": 7998,
      "Fu": 7999,
      "Flo": 8000,
      "Gaf": 8001,
      "HC": 8002,
      "Hey": 8003,
      "Henry": 8004,
      "Honda": 8005,
      "Jenn": 8006,
      "Kin": 8007,
      "Move": 8008,
      "ND": 8009,
      "Nom": 8010,
      "Neck": 8011,
      "Pet": 8012,
      "Ra": 8013,
      "Rol": 8014,
      "Rate": 8015,
      "Tum": 8016,
      "Tele": 8017,
      "Tissue": 8018,
      "Util": 8019,
      "V2": 8020,
      "VP": 8021,
      "Vision": 8022,
      "VIII": 8023,
      "['": 8024,
      "blow": 8025,
      "cm": 8026,
      "du": 8027,
      "father": 8028,
      "hundred": 8029,
      "iations": 8030,
      "lenders": 8031,
      "mia": 8032,
      "mild": 8033,
      "nWell": 8034,
      "nYes": 8035,
      "pse": 8036,
      "sand": 8037,
      "sides": 8038,
      "tent": 8039,
      "tags": 8040,
      "vas": 8041,
      "wines": 8042,
      "inf": 8043,
      "inject": 8044,
      "anemia": 8045,
      "encryp": 8046,
      "atro": 8047,
      "orge": 8048,
      "orally": 8049,
      "retain": 8050,
      "replace": 8051,
      "replac": 8052,
      "relying": 8053,
      "regression": 8054,
      "station": 8055,
      "stars": 8056,
      "staple": 8057,
      "tober": 8058,
      "icting": 8059,
      "ician": 8060,
      "arge": 8061,
      "develo": 8062,
      "confirm": 8063,
      "iments": 8064,
      "pling": 8065,
      "abs": 8066,
      "abil": 8067,
      "abandon": 8068,
      "univers": 8069,
      "unwanted": 8070,
      "comed": 8071,
      "trench": 8072,
      "traveling": 8073,
      "seals": 8074,
      "beloved": 8075,
      "lyrics": 8076,
      "uded": 8077,
      "opie": 8078,
      "controvers": 8079,
      "shred": 8080,
      "spel": 8081,
      "spend": 8082,
      "phy": 8083,
      "striking": 8084,
      "tops": 8085,
      "Whis": 8086,
      "Concept": 8087,
      "heating": 8088,
      "oken": 8089,
      "manager": 8090,
      "inser": 8091,
      "bian": 8092,
      "ultural": 8093,
      "commands": 8094,
      "commonly": 8095,
      "Students": 8096,
      "servers": 8097,
      "notherapy": 8098,
      "sitting": 8099,
      "angle": 8100,
      "specificity": 8101,
      "specifications": 8102,
      "titles": 8103,
      "patent": 8104,
      "variables": 8105,
      "1920": 8106,
      "conversions": 8107,
      "therapists": 8108,
      "virus": 8109,
      "seeing": 8110,
      "attic": 8111,
      "organize": 8112,
      "iele": 8113,
      "finally": 8114,
      "downtime": 8115,
      "landscap": 8116,
      "monoclonal": 8117,
      "charged": 8118,
      "eyes": 8119,
      "realized": 8120,
      "regulated": 8121,
      "greatest": 8122,
      "balances": 8123,
      "Cook": 8124,
      "showed": 8125,
      "limit": 8126,
      "modified": 8127,
      "Intel": 8128,
      "ernal": 8129,
      "Recon": 8130,
      "Recogn": 8131,
      "passes": 8132,
      "Sham": 8133,
      "functioning": 8134,
      "clearly": 8135,
      "joint": 8136,
      "tutorials": 8137,
      "addresses": 8138,
      "achievements": 8139,
      "keeps": 8140,
      "ahr": 8141,
      "goods": 8142,
      "storing": 8143,
      "feeder": 8144,
      "journeys": 8145,
      "oots": 8146,
      "centric": 8147,
      "numbers": 8148,
      "mitigation": 8149,
      "Abba": 8150,
      "writers": 8151,
      "receives": 8152,
      "tender": 8153,
      "Color": 8154,
      "2001": 8155,
      "miles": 8156,
      "inhibits": 8157,
      "inhibition": 8158,
      "Board": 8159,
      "Boolean": 8160,
      "Seek": 8161,
      "basis": 8162,
      "Identity": 8163,
      "mutual": 8164,
      "Disc": 8165,
      "Embr": 8166,
      "drawbacks": 8167,
      "damaged": 8168,
      "Brand": 8169,
      "visualization": 8170,
      "emerge": 8171,
      "reference": 8172,
      "periods": 8173,
      "respective": 8174,
      "Experiment": 8175,
      "Christianity": 8176,
      "Vermon": 8177,
      "liest": 8178,
      "routes": 8179,
      "Learn": 8180,
      "menu": 8181,
      "itizen": 8182,
      "Method": 8183,
      "automotive": 8184,
      "entirely": 8185,
      "Products": 8186,
      "Lawyer": 8187,
      "motivations": 8188,
      "ceedings": 8189,
      "Tyrosine": 8190,
      "definition": 8191,
      "ecosystem": 8192,
      "Transfer": 8193,
      "Better": 8194,
      "Betts": 8195,
      "TOR": 8196,
      "u2033": 8197,
      "libraries": 8198,
      "SDG": 8199,
      "migration": 8200,
      "exploit": 8201,
      "exploiting": 8202,
      "cooling": 8203,
      "nipple": 8204,
      "October": 8205,
      "Slam": 8206,
      "Renew": 8207,
      "Africa": 8208,
      "inspiring": 8209,
      "nucle": 8210,
      "manipulation": 8211,
      "manipulate": 8212,
      "extrem": 8213,
      "DOGE": 8214,
      "Avoid": 8215,
      "ukemia": 8216,
      "Green": 8217,
      "inoa": 8218,
      "intersection": 8219,
      "Platforms": 8220,
      "Companies": 8221,
      "Hanlon": 8222,
      "MDM": 8223,
      "astric": 8224,
      "Transport": 8225,
      "iatric": 8226,
      "restrictions": 8227,
      "Conduct": 8228,
      "assignments": 8229,
      "implantable": 8230,
      "manifold": 8231,
      "ranging": 8232,
      "Elevator": 8233,
      "episode": 8234,
      "Characteristics": 8235,
      "Museum": 8236,
      "electro": 8237,
      "elegance": 8238,
      "Protection": 8239,
      "blessings": 8240,
      "Tutorial": 8241,
      "Australia": 8242,
      "Happy": 8243,
      "Liu": 8244,
      "candid": 8245,
      "November": 8246,
      "COVID": 8247,
      "fluctuations": 8248,
      "Carolina": 8249,
      "stranded": 8250,
      "overeign": 8251,
      "College": 8252,
      "Gaffer": 8253,
      "Nommo": 8254,
      ".-": 8255,
      "02": 8256,
      "3D": 8257,
      "3rd": 8258,
      "55": 8259,
      "63": 8260,
      "Aloe": 8261,
      "Bloc": 8262,
      "Core": 8263,
      "Crisis": 8264,
      "DS": 8265,
      "DV": 8266,
      "Email": 8267,
      "Fear": 8268,
      "Fant": 8269,
      "Gar": 8270,
      "Ho": 8271,
      "Had": 8272,
      "Host": 8273,
      "Hidden": 8274,
      "Kah": 8275,
      "Line": 8276,
      "Liver": 8277,
      "MS": 8278,
      "Men": 8279,
      "Mast": 8280,
      "MAT": 8281,
      "Neg": 8282,
      "Pu": 8283,
      "Sand": 8284,
      "Side": 8285,
      "Tom": 8286,
      "Tik": 8287,
      "Tilray": 8288,
      "Wright": 8289,
      "Western": 8290,
      "_gene": 8291,
      "cular": 8292,
      "farm": 8293,
      "gap": 8294,
      "hiking": 8295,
      "mic": 8296,
      "mable": 8297,
      "pal": 8298,
      "sends": 8299,
      "sovereign": 8300,
      "tight": 8301,
      "uph": 8302,
      "vents": 8303,
      "ya": 8304,
      "ying": 8305,
      "inated": 8306,
      "erals": 8307,
      "oni": 8308,
      "onuc": 8309,
      "ener": 8310,
      "alo": 8311,
      "alse": 8312,
      "itals": 8313,
      "tos": 8314,
      "edition": 8315,
      "iser": 8316,
      "acle": 8317,
      "acube": 8318,
      "acute": 8319,
      "lep": 8320,
      "leaf": 8321,
      "leukemia": 8322,
      "degrad": 8323,
      "exem": 8324,
      "extr": 8325,
      "exceed": 8326,
      "Thurs": 8327,
      "ilder": 8328,
      "plenty": 8329,
      "prop": 8330,
      "eli": 8331,
      "ellow": 8332,
      "unnecessary": 8333,
      "unintended": 8334,
      "urious": 8335,
      "ulated": 8336,
      "otal": 8337,
      "truc": 8338,
      "trial": 8339,
      "ivar": 8340,
      "beer": 8341,
      "kelet": 8342,
      "opoly": 8343,
      "compat": 8344,
      "earn": 8345,
      "spatial": 8346,
      "derivative": 8347,
      "extent": 8348,
      "liament": 8349,
      "artine": 8350,
      "ockey": 8351,
      "ologist": 8352,
      "mode": 8353,
      "mood": 8354,
      "umbers": 8355,
      "grab": 8356,
      "Ens": 8357,
      "Encounter": 8358,
      "meals": 8359,
      "engers": 8360,
      "height": 8361,
      "crib": 8362,
      "brands": 8363,
      "brides": 8364,
      "brighter": 8365,
      "ardous": 8366,
      "enduring": 8367,
      "ansion": 8368,
      "biases": 8369,
      "Asian": 8370,
      "Exchange": 8371,
      "noon": 8372,
      "nost": 8373,
      "lifts": 8374,
      "relatable": 8375,
      "introducing": 8376,
      "generating": 8377,
      "Ancient": 8378,
      "ilet": 8379,
      "worlds": 8380,
      "patience": 8381,
      "explores": 8382,
      "Imaging": 8383,
      "Phone": 8384,
      "identification": 8385,
      "named": 8386,
      "Pra": 8387,
      "Privacy": 8388,
      "virt": 8389,
      "offense": 8390,
      "transaction": 8391,
      "customization": 8392,
      "priorities": 8393,
      "takeaway": 8394,
      "deck": 8395,
      "calorie": 8396,
      "Coloss": 8397,
      "Behav": 8398,
      "incidents": 8399,
      "my_": 8400,
      "discs": 8401,
      "fortunately": 8402,
      "feels": 8403,
      "uesday": 8404,
      "u00d7": 8405,
      "Leagues": 8406,
      "ieval": 8407,
      "Struct": 8408,
      "pium": 8409,
      "Always": 8410,
      "Americans": 8411,
      "lawyer": 8412,
      "Oral": 8413,
      "Loop": 8414,
      "writer": 8415,
      "adaptive": 8416,
      "concerned": 8417,
      "reliance": 8418,
      "absorbs": 8419,
      "autorespon": 8420,
      "asked": 8421,
      "paints": 8422,
      "employee": 8423,
      "nDown": 8424,
      "Regional": 8425,
      "Regular": 8426,
      "installment": 8427,
      "Boy": 8428,
      "solubility": 8429,
      "distill": 8430,
      "machinery": 8431,
      "mutated": 8432,
      "consuming": 8433,
      "algia": 8434,
      "Second": 8435,
      "encouraged": 8436,
      "ethical": 8437,
      "Website": 8438,
      "AIM": 8439,
      "participating": 8440,
      "Workshop": 8441,
      "enjoying": 8442,
      "Author": 8443,
      "synthesis": 8444,
      "Allah": 8445,
      "speech": 8446,
      "recorded": 8447,
      "conducted": 8448,
      "taxes": 8449,
      "teachers": 8450,
      "tumors": 8451,
      "Enzymes": 8452,
      "assessment": 8453,
      "Area": 8454,
      "scheduling": 8455,
      "amino": 8456,
      "facilitating": 8457,
      "\\\\*": 8458,
      "enthusias": 8459,
      "reputable": 8460,
      "promised": 8461,
      "Holistic": 8462,
      "definitely": 8463,
      "restore": 8464,
      "skincare": 8465,
      "embark": 8466,
      "victim": 8467,
      "utilizing": 8468,
      "Insights": 8469,
      "resilient": 8470,
      "antibody": 8471,
      "crimes": 8472,
      "Respons": 8473,
      "copywriting": 8474,
      "selected": 8475,
      "whisky": 8476,
      "Landau": 8477,
      "sophistication": 8478,
      "suspect": 8479,
      "officials": 8480,
      "nutrients": 8481,
      "attacks": 8482,
      "pictures": 8483,
      "cryptocurrencies": 8484,
      "Italy": 8485,
      "BookWright": 8486,
      "IPO": 8487,
      "consultation": 8488,
      "powers": 8489,
      "expanded": 8490,
      "beginnings": 8491,
      "posals": 8492,
      "Closed": 8493,
      "Roblox": 8494,
      "Canadian": 8495,
      "advocacy": 8496,
      "pretty": 8497,
      "vessels": 8498,
      "TypeScript": 8499,
      "Skills": 8500,
      "Molecular": 8501,
      "clinicians": 8502,
      "straightforward": 8503,
      "coatings": 8504,
      "add_edge": 8505,
      "bottom": 8506,
      "karma": 8507,
      "spring": 8508,
      "cytochrome": 8509,
      "persistence": 8510,
      "Sustainable": 8511,
      "kitten": 8512,
      "Problem": 8513,
      "retrieve": 8514,
      "Matters": 8515,
      "niche": 8516,
      "Prioritize": 8517,
      "WireGuard": 8518,
      "composed": 8519,
      "refined": 8520,
      "Changes": 8521,
      "desserts": 8522,
      "perceived": 8523,
      "mobility": 8524,
      "Jaco": 8525,
      "Mueller": 8526,
      "tournament": 8527,
      "sensitivity": 8528,
      "completely": 8529,
      "marginal": 8530,
      "Prepare": 8531,
      "developer": 8532,
      "ahrir": 8533,
      "Thursday": 8534,
      "Colossians": 8535,
      "enthusiasm": 8536,
      "$$": 8537,
      "))\\": 8538,
      "44": 8539,
      "800": 8540,
      "ABL": 8541,
      "Body": 8542,
      "BLE": 8543,
      "Creat": 8544,
      "Capt": 8545,
      "Citizens": 8546,
      "Chase": 8547,
      "Dat": 8548,
      "Eric": 8549,
      "FF": 8550,
      "Fac": 8551,
      "Gal": 8552,
      "Gil": 8553,
      "Gallery": 8554,
      "Hab": 8555,
      "Je": 8556,
      "Jay": 8557,
      "Jew": 8558,
      "LN": 8559,
      "Lic": 8560,
      "Lens": 8561,
      "Lube": 8562,
      "Mr": 8563,
      "Mid": 8564,
      "Mort": 8565,
      "Nuc": 8566,
      "Pis": 8567,
      "Rav": 8568,
      "Spr": 8569,
      "Sher": 8570,
      "Tree": 8571,
      "Tuesday": 8572,
      "Ul": 8573,
      "Veter": 8574,
      "WN": 8575,
      "X_": 8576,
      "])\\": 8577,
      "dain": 8578,
      "diction": 8579,
      "fu": 8580,
      "fab": 8581,
      "gages": 8582,
      "hiring": 8583,
      "huge": 8584,
      "hubs": 8585,
      "hierarch": 8586,
      "iform": 8587,
      "kill": 8588,
      "loun": 8589,
      "ml": 8590,
      "mammo": 8591,
      "nO": 8592,
      "nYour": 8593,
      "nHe": 8594,
      "nAnd": 8595,
      "nExactly": 8596,
      "nAccording": 8597,
      "nProfessor": 8598,
      "saving": 8599,
      "tures": 8600,
      "uin": 8601,
      "viv": 8602,
      "yields": 8603,
      "zz": 8604,
      "zing": 8605,
      "indel": 8606,
      "independent": 8607,
      "thin": 8608,
      "throm": 8609,
      "endo": 8610,
      "envy": 8611,
      "rew": 8612,
      "reproductive": 8613,
      "stabil": 8614,
      "ico": 8615,
      "icon": 8616,
      "isplatin": 8617,
      "ecam": 8618,
      "championship": 8619,
      "unfold": 8620,
      "agers": 8621,
      "agree": 8622,
      "actors": 8623,
      "actuators": 8624,
      "urer": 8625,
      "complic": 8626,
      "compromising": 8627,
      "trail": 8628,
      "triple": 8629,
      "troubleshoot": 8630,
      "irrit": 8631,
      "wealth": 8632,
      "iders": 8633,
      "idge": 8634,
      "behalf": 8635,
      "verify": 8636,
      "\\\")": 8637,
      "prone": 8638,
      "prison": 8639,
      "pratro": 8640,
      "outstanding": 8641,
      "earliest": 8642,
      "contest": 8643,
      "contamin": 8644,
      "shock": 8645,
      "shaft": 8646,
      "coefficient": 8647,
      "cohes": 8648,
      "este": 8649,
      "antig": 8650,
      "inea": 8651,
      "intake": 8652,
      "philosop": 8653,
      "epi": 8654,
      "genic": 8655,
      "gencies": 8656,
      "umen": 8657,
      "grat": 8658,
      "Conven": 8659,
      "taste": 8660,
      "ferences": 8661,
      "Envi": 8662,
      "meth": 8663,
      "heated": 8664,
      "intermed": 8665,
      "examination": 8666,
      "recur": 8667,
      "endless": 8668,
      "bikes": 8669,
      "simulate": 8670,
      "corrosion": 8671,
      "relate": 8672,
      "wellness": 8673,
      "generative": 8674,
      "thrilling": 8675,
      "regn": 8676,
      "regim": 8677,
      "minerals": 8678,
      "betweenness": 8679,
      "berry": 8680,
      "beros": 8681,
      "variable": 8682,
      "produced": 8683,
      "Report": 8684,
      "Reality": 8685,
      "ships": 8686,
      "viet": 8687,
      "medicinal": 8688,
      "maybe": 8689,
      "setpoint": 8690,
      "breaches": 8691,
      "Adapt": 8692,
      "grown": 8693,
      "Trust": 8694,
      "Training": 8695,
      "headset": 8696,
      "Tools": 8697,
      "nAre": 8698,
      "hero": 8699,
      "heric": 8700,
      "prioritizes": 8701,
      "listed": 8702,
      "pson": 8703,
      "arried": 8704,
      "raised": 8705,
      "twists": 8706,
      "supportive": 8707,
      "invested": 8708,
      "viewing": 8709,
      "impacts": 8710,
      "bleeding": 8711,
      "physically": 8712,
      "natal": 8713,
      "archival": 8714,
      "famous": 8715,
      "combinations": 8716,
      "Ahmad": 8717,
      "Desert": 8718,
      "Managing": 8719,
      "Guinea": 8720,
      "achievement": 8721,
      "French": 8722,
      "u00a": 8723,
      "competing": 8724,
      "Chronic": 8725,
      "azer": 8726,
      "calls": 8727,
      "male": 8728,
      "nPost": 8729,
      "Scott": 8730,
      "beltown": 8731,
      "absorb": 8732,
      "remaining": 8733,
      "painting": 8734,
      "loading": 8735,
      "2004": 8736,
      "Artificial": 8737,
      "maintained": 8738,
      "watchmaking": 8739,
      "completion": 8740,
      "guiding": 8741,
      "relevance": 8742,
      "saying": 8743,
      "predictive": 8744,
      "paste": 8745,
      "surroundings": 8746,
      "cope": 8747,
      "volatility": 8748,
      "breastfeeding": 8749,
      "Interaction": 8750,
      "authorities": 8751,
      "nLoc": 8752,
      "moments": 8753,
      "evaluation": 8754,
      "Communic": 8755,
      "magaz": 8756,
      "u014": 8757,
      "incorporated": 8758,
      "recording": 8759,
      "Verify": 8760,
      "ITSM": 8761,
      "Quick": 8762,
      "superior": 8763,
      "diagnostic": 8764,
      "schedules": 8765,
      "Reduce": 8766,
      "Southern": 8767,
      "excreted": 8768,
      "reflected": 8769,
      "motivation": 8770,
      "radio": 8771,
      "polytechn": 8772,
      "certification": 8773,
      "layout": 8774,
      "transparent": 8775,
      "previously": 8776,
      "ESG": 8777,
      "digest": 8778,
      "Famil": 8779,
      "Combining": 8780,
      "clusters": 8781,
      "hydration": 8782,
      "windows": 8783,
      "David": 8784,
      "Years": 8785,
      "attached": 8786,
      "vitamins": 8787,
      "bathing": 8788,
      "bowl": 8789,
      "u00f1": 8790,
      "vector": 8791,
      "Transpar": 8792,
      "necklace": 8793,
      "inherent": 8794,
      "worrying": 8795,
      "Scalability": 8796,
      "removal": 8797,
      "Islanders": 8798,
      "magnetic": 8799,
      "duties": 8800,
      "demographics": 8801,
      "Motor": 8802,
      "coding": 8803,
      "occasion": 8804,
      "Antib": 8805,
      "breeds": 8806,
      "appliance": 8807,
      "Preparing": 8808,
      "Centrality": 8809,
      "August": 8810,
      "mysql": 8811,
      "Hydrolysis": 8812,
      "Economic": 8813,
      "administered": 8814,
      "lovak": 8815,
      "boasts": 8816,
      "Gavin": 8817,
      "Francis": 8818,
      "Monastrell": 8819,
      "beneficial": 8820,
      "Vermont": 8821,
      "sovereignty": 8822,
      "Ensuring": 8823,
      "Lubee": 8824,
      "Pisces": 8825,
      "Ravens": 8826,
      "ecambe": 8827,
      "pratropium": 8828,
      "'\\": 8829,
      "(-": 8830,
      "414": 8831,
      "77": 8832,
      "97": 8833,
      "?**:": 8834,
      "?\"}": 8835,
      "AA": 8836,
      "Bro": 8837,
      "Bul": 8838,
      "Bir": 8839,
      "Beach": 8840,
      "BCR": 8841,
      "Both": 8842,
      "CC": 8843,
      "Dub": 8844,
      "Daily": 8845,
      "FC": 8846,
      "Finally": 8847,
      "HT": 8848,
      "Kore": 8849,
      "Lower": 8850,
      "Lux": 8851,
      "MW": 8852,
      "Mat": 8853,
      "Mechan": 8854,
      "Nex": 8855,
      "Ol": 8856,
      "Plex": 8857,
      "Pump": 8858,
      "Pumps": 8859,
      "Please": 8860,
      "Rent": 8861,
      "Roman": 8862,
      "SH": 8863,
      "SU": 8864,
      "Temp": 8865,
      "Tube": 8866,
      "Tahrir": 8867,
      "Vo": 8868,
      "Wear": 8869,
      "bus": 8870,
      "baking": 8871,
      "banks": 8872,
      "bench": 8873,
      "battle": 8874,
      "cities": 8875,
      "cake": 8876,
      "citizen": 8877,
      "dt": 8878,
      "gall": 8879,
      "gave": 8880,
      "hi": 8881,
      "iro": 8882,
      "ius": 8883,
      "iating": 8884,
      "kne": 8885,
      "lands": 8886,
      "mRNA": 8887,
      "nfor": 8888,
      "nice": 8889,
      "nTake": 8890,
      "pd": 8891,
      "pens": 8892,
      "ril": 8893,
      "rig": 8894,
      "sil": 8895,
      "scan": 8896,
      "sizes": 8897,
      "ticket": 8898,
      "tensions": 8899,
      "warr": 8900,
      "waves": 8901,
      "erry": 8902,
      "orn": 8903,
      "orca": 8904,
      "ali": 8905,
      "almost": 8906,
      "ingu": 8907,
      "stack": 8908,
      "stuck": 8909,
      "token": 8910,
      "arises": 8911,
      "entity": 8912,
      "accoun": 8913,
      "accompl": 8914,
      "leak": 8915,
      "deals": 8916,
      "defect": 8917,
      "decentralized": 8918,
      "cee": 8919,
      "cement": 8920,
      "etting": 8921,
      "etime": 8922,
      "Then": 8923,
      "iled": 8924,
      "confront": 8925,
      "conference": 8926,
      "igg": 8927,
      "plt": 8928,
      "plies": 8929,
      "aman": 8930,
      "aban": 8931,
      "abstr": 8932,
      "unt": 8933,
      "agog": 8934,
      "agulation": 8935,
      "adult": 8936,
      "emony": 8937,
      "ollo": 8938,
      "apting": 8939,
      "iron": 8940,
      "summ": 8941,
      "priv": 8942,
      "perceptions": 8943,
      "istan": 8944,
      "istency": 8945,
      "residents": 8946,
      "ustle": 8947,
      "coa": 8948,
      "romide": 8949,
      "estone": 8950,
      "Stor": 8951,
      "Stage": 8952,
      "Style": 8953,
      "ocks": 8954,
      "umn": 8955,
      "grass": 8956,
      "Conver": 8957,
      "undergone": 8958,
      "understood": 8959,
      "fertility": 8960,
      "iaz": 8961,
      "interpret": 8962,
      "cryst": 8963,
      "okes": 8964,
      "textures": 8965,
      "endonuc": 8966,
      "species": 8967,
      "disposal": 8968,
      "descriptions": 8969,
      "booking": 8970,
      "signature": 8971,
      "timing": 8972,
      "timepi": 8973,
      "Chat": 8974,
      "Chamber": 8975,
      "religious": 8976,
      "invasive": 8977,
      "Angl": 8978,
      "akistan": 8979,
      "starters": 8980,
      "wash": 8981,
      "networkx": 8982,
      "generally": 8983,
      "CRP": 8984,
      "Weight": 8985,
      "blends": 8986,
      "blending": 8987,
      "responds": 8988,
      "guess": 8989,
      "ishment": 8990,
      "Accur": 8991,
      "appar": 8992,
      "die": 8993,
      "nSocial": 8994,
      "struction": 8995,
      "organizing": 8996,
      "financing": 8997,
      "Apollo": 8998,
      "critic": 8999,
      "ToDB": 9000,
      "Biotechnology": 9001,
      "thank": 9002,
      "instability": 9003,
      "meticul": 9004,
      "marketplace": 9005,
      "presenting": 9006,
      "Pharmacodynamic": 9007,
      "listing": 9008,
      "eyond": 9009,
      "regulators": 9010,
      "supported": 9011,
      "proteomics": 9012,
      "lightweight": 9013,
      "capturing": 9014,
      "Onco": 9015,
      "myelo": 9016,
      "fluids": 9017,
      "testim": 9018,
      "calculating": 9019,
      "clearance": 9020,
      "joined": 9021,
      "Exploration": 9022,
      "talents": 9023,
      "authors": 9024,
      "u201cI": 9025,
      "journals": 9026,
      "Allow": 9027,
      "genesis": 9028,
      "minimizes": 9029,
      "1562": 9030,
      "tempor": 9031,
      "remained": 9032,
      "perfection": 9033,
      "prevention": 9034,
      "accused": 9035,
      "collaborate": 9036,
      "collaborations": 9037,
      "likeli": 9038,
      "nFinally": 9039,
      "Blast": 9040,
      "Medicare": 9041,
      "fault": 9042,
      "surrounded": 9043,
      "Discovery": 9044,
      "Cricket": 9045,
      "u30e": 9046,
      "Consistency": 9047,
      "Valid": 9048,
      "featured": 9049,
      "oxidation": 9050,
      "oxaban": 9051,
      "filling": 9052,
      "footprint": 9053,
      "participation": 9054,
      "waiting": 9055,
      "existence": 9056,
      "Blockchain": 9057,
      "speaking": 9058,
      "Airtable": 9059,
      "conducive": 9060,
      "containers": 9061,
      "Poor": 9062,
      "smoothly": 9063,
      "smoothie": 9064,
      "celebrity": 9065,
      "Musk": 9066,
      "personnel": 9067,
      "objects": 9068,
      "automatic": 9069,
      "screw": 9070,
      "Efficient": 9071,
      "fears": 9072,
      "Corinth": 9073,
      "CSLN": 9074,
      "pushing": 9075,
      "ecoin": 9076,
      "bird": 9077,
      "validate": 9078,
      "Basics": 9079,
      "ometric": 9080,
      "immersion": 9081,
      "plifies": 9082,
      "seamlessly": 9083,
      "EDTLS": 9084,
      "frequently": 9085,
      "experimental": 9086,
      "experimentation": 9087,
      "CYP": 9088,
      "accommodation": 9089,
      "athletic": 9090,
      "hydrated": 9091,
      "phenomena": 9092,
      "sauce": 9093,
      "interconnectedness": 9094,
      "Koo": 9095,
      "fatigue": 9096,
      "NSCLC": 9097,
      "Renal": 9098,
      "surprising": 9099,
      "attempts": 9100,
      "sellers": 9101,
      "adopt": 9102,
      "extreme": 9103,
      "Implementing": 9104,
      "Portfolio": 9105,
      "pursue": 9106,
      "Filter": 9107,
      "approved": 9108,
      "immigration": 9109,
      "Standard": 9110,
      "Purpose": 9111,
      "SSL_": 9112,
      "applicants": 9113,
      "Epigenetic": 9114,
      "soldiers": 9115,
      "oubt": 9116,
      "refugee": 9117,
      "amplify": 9118,
      "collagen": 9119,
      "FIFA": 9120,
      "NFTs": 9121,
      "SaveToDB": 9122,
      "imagination": 9123,
      "Index": 9124,
      "workshops": 9125,
      "ranking": 9126,
      "sickle": 9127,
      "triggering": 9128,
      "promptly": 9129,
      "Lessons": 9130,
      "Injuries": 9131,
      "Administration": 9132,
      "CPU": 9133,
      "Welcome": 9134,
      "jugation": 9135,
      "anctuary": 9136,
      "Celebr": 9137,
      "pendant": 9138,
      "analysts": 9139,
      "heterogeneity": 9140,
      "encompasses": 9141,
      "Thompson": 9142,
      "Framework": 9143,
      "Necklace": 9144,
      "Tumor": 9145,
      "1920s": 9146,
      "Renewable": 9147,
      "ivaroxaban": 9148,
      "cribed": 9149,
      "Behavior": 9150,
      "nDownload": 9151,
      "esteem": 9152,
      "u0142": 9153,
      "Transparency": 9154,
      "mysqlnd": 9155,
      "iropract": 9156,
      "endonuclease": 9157,
      "Anglican": 9158,
      "myeloid": 9159,
      "likelihood": 9160,
      "(\\": 9161,
      "53": 9162,
      "61": 9163,
      "Ach": 9164,
      "BE": 9165,
      "CU": 9166,
      "Dro": 9167,
      "EP": 9168,
      "Easy": 9169,
      "FS": 9170,
      "Five": 9171,
      "Fly": 9172,
      "Fresh": 9173,
      "GS": 9174,
      "Gaming": 9175,
      "Glee": 9176,
      "HO": 9177,
      "Hop": 9178,
      "Imat": 9179,
      "Ira": 9180,
      "IBA": 9181,
      "Ka": 9182,
      "Ker": 9183,
      "Lunch": 9184,
      "Mil": 9185,
      "Mut": 9186,
      "Miz": 9187,
      "Plot": 9188,
      "PPI": 9189,
      "Pakistan": 9190,
      "RE": 9191,
      "Rahul": 9192,
      "Scre": 9193,
      "Sph": 9194,
      "Size": 9195,
      "Sounds": 9196,
      "Source": 9197,
      "SIFT": 9198,
      "Santa": 9199,
      "Tor": 9200,
      "Tell": 9201,
      "UI": 9202,
      "Vanc": 9203,
      "Way": 9204,
      "Woo": 9205,
      "Wait": 9206,
      "bx": 9207,
      "batt": 9208,
[...]
