{
  "version": "1.0",
  "truncation": null,
  "padding": null,
  "added_tokens": [
    {
      "id": 0,
      "content": "[PAD]",
      "single_word": false,
      "lstrip": false,
      "rstrip": false,
      "normalized": false,
      "special": true
    },
    {
      "id": 1,
      "content": "[UNK]",
      "single_word": false,
      "lstrip": false,
      "rstrip": false,
      "normalized": false,
      "special": true
    },
    {
      "id": 2,
      "content": "[CLS]",
      "single_word": false,
      "lstrip": false,
      "rstrip": false,
      "normalized": false,
      "special": true
    },
    {
      "id": 3,
      "content": "[SEP]",
      "single_word": false,
      "lstrip": false,
      "rstrip": false,
      "normalized": false,
      "special": true
    },
    {
      "id": 4,
      "content": "[MASK]",
      "single_word": false,
      "lstrip": false,
      "rstrip": false,
      "normalized": false,
      "special": true
    }
  ],
  "normalizer": null,
  "pre_tokenizer": {
    "type": "Whitespace"
  },
  "post_processor": null,
  "decoder": null,
  "model": {
    "type": "BPE",
    "dropout": null,
    "unk_token": "[UNK]",
    "continuing_subword_prefix": null,
    "end_of_word_suffix": null,
    "fuse_unk": false,
    "byte_fallback": false,
    "ignore_merges": false,
    "vocab": {
      "[PAD]": 0,
      "[UNK]": 1,
      "[CLS]": 2,
      "[SEP]": 3,
      "[MASK]": 4,
      "\u0013": 5,
      "!": 6,
      "\"": 7,
      "#": 8,
      "$": 9,
      "%": 10,
      "&": 11,
      "'": 12,
      "(": 13,
      ")": 14,
      "*": 15,
      "+": 16,
      ",": 17,
      "-": 18,
      ".": 19,
      "/": 20,
      "0": 21,
      "1": 22,
      "2": 23,
      "3": 24,
      "4": 25,
      "5": 26,
      "6": 27,
      "7": 28,
      "8": 29,
      "9": 30,
      ":": 31,
      ";": 32,
      "<": 33,
      "=": 34,
      ">": 35,
      "?": 36,
      "@": 37,
      "A": 38,
      "B": 39,
      "C": 40,
      "D": 41,
      "E": 42,
      "F": 43,
      "G": 44,
      "H": 45,
      "I": 46,
      "J": 47,
      "K": 48,
      "L": 49,
      "M": 50,
      "N": 51,
      "O": 52,
      "P": 53,
      "Q": 54,
      "R": 55,
      "S": 56,
      "T": 57,
      "U": 58,
      "V": 59,
      "W": 60,
      "X": 61,
      "Y": 62,
      "Z": 63,
      "[": 64,
      "\\": 65,
      "]": 66,
      "^": 67,
      "_": 68,
      "`": 69,
      "a": 70,
      "b": 71,
      "c": 72,
      "d": 73,
      "e": 74,
      "f": 75,
      "g": 76,
      "h": 77,
      "i": 78,
      "j": 79,
      "k": 80,
      "l": 81,
      "m": 82,
      "n": 83,
      "o": 84,
      "p": 85,
      "q": 86,
      "r": 87,
      "s": 88,
      "t": 89,
      "u": 90,
      "v": 91,
      "w": 92,
      "x": 93,
      "y": 94,
      "z": 95,
      "{": 96,
      "|": 97,
      "}": 98,
      "~": 99,
      "¡": 100,
      "¢": 101,
      "£": 102,
      "¥": 103,
      "§": 104,
      "©": 105,
      "«": 106,
      "¬": 107,
      "­": 108,
      "®": 109,
      "°": 110,
      "±": 111,
      "²": 112,
      "³": 113,
      "´": 114,
      "µ": 115,
      "·": 116,
      "¹": 117,
      "»": 118,
      "¼": 119,
      "½": 120,
      "¾": 121,
      "¿": 122,
      "Á": 123,
      "Ä": 124,
      "Å": 125,
      "Æ": 126,
      "Ç": 127,
      "É": 128,
      "Ó": 129,
      "Õ": 130,
      "Ö": 131,
      "×": 132,
      "Ø": 133,
      "Ü": 134,
      "ß": 135,
      "à": 136,
      "á": 137,
      "â": 138,
      "ã": 139,
      "ä": 140,
      "å": 141,
      "æ": 142,
      "ç": 143,
      "è": 144,
      "é": 145,
      "ê": 146,
      "ë": 147,
      "ì": 148,
      "í": 149,
      "î": 150,
      "ï": 151,
      "ð": 152,
      "ñ": 153,
      "ò": 154,
      "ó": 155,
      "ô": 156,
      "ö": 157,
      "÷": 158,
      "ø": 159,
      "ú": 160,
      "û": 161,
      "ü": 162,
      "ÿ": 163,
      "ā": 164,
      "ą": 165,
      "ć": 166,
      "Č": 167,
      "ē": 168,
      "ę": 169,
      "ğ": 170,
      "Ĥ": 171,
      "ħ": 172,
      "ī": 173,
      "ı": 174,
      "ľ": 175,
      "Ł": 176,
      "ł": 177,
      "ń": 178,
      "ŋ": 179,
      "ō": 180,
      "ő": 181,
      "ř": 182,
      "ŝ": 183,
      "ş": 184,
      "Š": 185,
      "š": 186,
      "ţ": 187,
      "ū": 188,
      "Ż": 189,
      "ſ": 190,
      "ǎ": 191,
      "ǐ": 192,
      "ǚ": 193,
      "ɑ": 194,
      "ɒ": 195,
      "ɔ": 196,
      "ə": 197,
      "ɛ": 198,
      "ɡ": 199,
      "ɪ": 200,
      "ʃ": 201,
      "ʉ": 202,
      "ʊ": 203,
      "ʌ": 204,
      "ʰ": 205,
      "ʻ": 206,
      "ʿ": 207,
      "ˈ": 208,
      "ˌ": 209,
      "ː": 210,
      "ˣ": 211,
      "́": 212,
      "̄": 213,
      "̇": 214,
      "̥": 215,
      "ͣ": 216,
      "Ͷ": 217,
      ";": 218,
      "Γ": 219,
      "Δ": 220,
      "Θ": 221,
      "Π": 222,
      "Σ": 223,
      "Φ": 224,
      "Χ": 225,
      "Ω": 226,
      "ά": 227,
      "έ": 228,
      "ί": 229,
      "α": 230,
      "β": 231,
      "γ": 232,
      "δ": 233,
      "ε": 234,
      "ζ": 235,
      "η": 236,
      "θ": 237,
      "ι": 238,
      "κ": 239,
      "λ": 240,
      "μ": 241,
      "ν": 242,
      "ο": 243,
      "π": 244,
      "ρ": 245,
      "ς": 246,
      "σ": 247,
      "τ": 248,
      "υ": 249,
      "φ": 250,
      "χ": 251,
      "ψ": 252,
      "ω": 253,
      "ό": 254,
      "ϕ": 255,
      "ϵ": 256,
      "П": 257,
      "а": 258,
      "в": 259,
      "и": 260,
      "к": 261,
      "м": 262,
      "о": 263,
      "р": 264,
      "т": 265,
      "ф": 266,
      "я": 267,
      "і": 268,
      "ה": 269,
      "ח": 270,
      "מ": 271,
      "ש": 272,
      "ة": 273,
      "ق": 274,
      "و": 275,
      "ं": 276,
      "ज": 277,
      "भ": 278,
      "र": 279,
      "व": 280,
      "श": 281,
      "ा": 282,
      "े": 283,
      "ै": 284,
      "ബ": 285,
      "ง": 286,
      "ส": 287,
      "ู": 288,
      "Ꭰ": 289,
      "Ꭲ": 290,
      "Ꭹ": 291,
      "Ꮕ": 292,
      "Ꮧ": 293,
      "Ꮹ": 294,
      "ᵀ": 295,
      "ᵇ": 296,
      "ᵍ": 297,
      "ᵗ": 298,
      "ᵢ": 299,
      "ᵣ": 300,
      "ᵧ": 301,
      "ᶠ": 302,
      "ḍ": 303,
      "ḕ": 304,
      "ḗ": 305,
      "ḥ": 306,
      "ḳ": 307,
      "ḵ": 308,
      "Ṣ": 309,
      "Ṭ": 310,
      "ạ": 311,
      "ἀ": 312,
      "ἅ": 313,
      "ἐ": 314,
      "ἔ": 315,
      "ἰ": 316,
      "ἱ": 317,
      "ὐ": 318,
      "ὕ": 319,
      "ᾱ": 320,
      "ῖ": 321,
      "ῦ": 322,
      "​": 323,
      "‌": 324,
      "‍": 325,
      "‎": 326,
      "‐": 327,
      "‑": 328,
      "–": 329,
      "—": 330,
      "―": 331,
      "‖": 332,
      "‘": 333,
      "’": 334,
      "“": 335,
      "”": 336,
      "„": 337,
      "†": 338,
      "•": 339,
      "…": 340,
      "′": 341,
      "″": 342,
      "›": 343,
      "⁄": 344,
      "⁰": 345,
      "⁴": 346,
      "⁵": 347,
      "⁶": 348,
      "⁷": 349,
      "⁸": 350,
      "⁹": 351,
      "⁺": 352,
      "⁻": 353,
      "ⁿ": 354,
      "₀": 355,
      "₁": 356,
      "₂": 357,
      "₃": 358,
      "₄": 359,
      "₅": 360,
      "₆": 361,
      "₇": 362,
      "₈": 363,
      "₋": 364,
      "ₐ": 365,
      "ₑ": 366,
      "ₓ": 367,
      "ₖ": 368,
      "ₘ": 369,
      "ₙ": 370,
      "ₚ": 371,
      "ₛ": 372,
      "ₜ": 373,
      "₦": 374,
      "₩": 375,
      "€": 376,
      "₱": 377,
      "₹": 378,
      "⃣": 379,
      "ℏ": 380,
      "ℓ": 381,
      "ℝ": 382,
      "™": 383,
      "ℤ": 384,
      "Ω": 385,
      "ℹ": 386,
      "⅓": 387,
      "⅔": 388,
      "⅛": 389,
      "⅜": 390,
      "⅝": 391,
      "⅞": 392,
      "←": 393,
      "↑": 394,
      "→": 395,
      "↓": 396,
      "↔": 397,
      "↘": 398,
      "↦": 399,
      "↳": 400,
      "⇄": 401,
      "⇒": 402,
      "∀": 403,
      "∂": 404,
      "∃": 405,
      "∆": 406,
      "∇": 407,
      "∈": 408,
      "∉": 409,
      "∎": 410,
      "∑": 411,
      "−": 412,
      "∙": 413,
      "√": 414,
      "∝": 415,
      "∞": 416,
      "∧": 417,
      "∨": 418,
      "∫": 419,
      "∼": 420,
      "≈": 421,
      "≠": 422,
      "≡": 423,
      "≤": 424,
      "≥": 425,
      "≳": 426,
      "⊕": 427,
      "⊙": 428,
      "⋅": 429,
      "⋮": 430,
      "⋯": 431,
      "⌘": 432,
      "〈": 433,
      "⏩": 434,
      "⏰": 435,
      "⏳": 436,
      "①": 437,
      "②": 438,
      "③": 439,
      "─": 440,
      "│": 441,
      "┌": 442,
      "┐": 443,
      "└": 444,
      "┘": 445,
      "├": 446,
      "┤": 447,
      "┬": 448,
      "┴": 449,
      "┼": 450,
      "▲": 451,
      "►": 452,
      "▼": 453,
      "◼": 454,
      "★": 455,
      "☆": 456,
      "☉": 457,
      "☐": 458,
      "☑": 459,
      "☒": 460,
      "☰": 461,
      "☺": 462,
      "♀": 463,
      "♂": 464,
      "♪": 465,
      "♭": 466,
      "♯": 467,
      "⚔": 468,
      "⚕": 469,
      "⚖": 470,
      "⚙": 471,
      "⚛": 472,
      "⚠": 473,
      "⚡": 474,
      "⚽": 475,
      "✅": 476,
      "✈": 477,
      "✉": 478,
      "✍": 479,
      "✏": 480,
      "✓": 481,
      "✔": 482,
      "✖": 483,
      "✘": 484,
      "✚": 485,
      "✨": 486,
      "❄": 487,
      "❌": 488,
      "❓": 489,
      "❤": 490,
      "➔": 491,
      "➜": 492,
      "➡": 493,
      "⟩": 494,
      "⬜": 495,
      "⭐": 496,
      "」": 497,
      "い": 498,
      "う": 499,
      "お": 500,
      "こ": 501,
      "ご": 502,
      "さ": 503,
      "ざ": 504,
      "す": 505,
      "ち": 506,
      "で": 507,
      "に": 508,
      "は": 509,
      "ま": 510,
      "よ": 511,
      "れ": 512,
      "ん": 513,
      "ㅋ": 514,
      "你": 515,
      "先": 516,
      "合": 517,
      "圣": 518,
      "士": 519,
      "女": 520,
      "好": 521,
      "心": 522,
      "敬": 523,
      "核": 524,
      "猪": 525,
      "生": 526,
      "疲": 527,
      "碑": 528,
      "礼": 529,
      "结": 530,
      "舒": 531,
      "贵": 532,
      "适": 533,
      "ꞏ": 534,
      "녕": 535,
      "말": 536,
      "사": 537,
      "세": 538,
      "안": 539,
      "요": 540,
      "인": 541,
      "하": 542,
      "ﬁ": 543,
      "ﬂ": 544,
      "ﷺ": 545,
      "︎": 546,
      "️": 547,
      "﻿": 548,
      "（": 549,
      "）": 550,
      "𝐈": 551,
      "𝐞": 552,
      "𝐮": 553,
      "𝐴": 554,
      "𝐵": 555,
      "𝐶": 556,
      "𝐸": 557,
      "𝐹": 558,
      "𝐻": 559,
      "𝐼": 560,
      "𝐽": 561,
      "𝐿": 562,
      "𝑀": 563,
      "𝑂": 564,
      "𝑎": 565,
      "𝑑": 566,
      "𝑒": 567,
      "𝑔": 568,
      "𝑛": 569,
      "𝑠": 570,
      "🌄": 571,
      "🌈": 572,
      "🌊": 573,
      "🌌": 574,
      "🌍": 575,
      "🌎": 576,
      "🌐": 577,
      "🌕": 578,
      "🌙": 579,
      "🌞": 580,
      "🌟": 581,
      "🌠": 582,
      "🌡": 583,
      "🌧": 584,
      "🌪": 585,
      "🌬": 586,
      "🌱": 587,
      "🌲": 588,
      "🌳": 589,
      "🌴": 590,
      "🌸": 591,
      "🌾": 592,
      "🌿": 593,
      "🍑": 594,
      "🍓": 595,
      "🍔": 596,
      "🍽": 597,
      "🎁": 598,
      "🎈": 599,
      "🎉": 600,
      "🎒": 601,
      "🎓": 602,
      "🎡": 603,
      "🎢": 604,
      "🎥": 605,
      "🎧": 606,
      "🎨": 607,
      "🎫": 608,
      "🎭": 609,
      "🎮": 610,
      "🎯": 611,
      "🎽": 612,
      "🏀": 613,
      "🏃": 614,
      "🏆": 615,
      "🏗": 616,
      "🏙": 617,
      "🏛": 618,
      "🏞": 619,
      "🏟": 620,
      "🏠": 621,
      "🏡": 622,
      "🏫": 623,
      "🏰": 624,
      "🏺": 625,
      "🐍": 626,
      "🐔": 627,
      "🐜": 628,
      "🐮": 629,
      "🐰": 630,
      "🐱": 631,
      "🐲": 632,
      "🐶": 633,
      "🐾": 634,
      "👀": 635,
      "👂": 636,
      "👇": 637,
      "👉": 638,
      "👋": 639,
      "👍": 640,
      "👎": 641,
      "👟": 642,
      "👣": 643,
      "👤": 644,
      "👩": 645,
      "👶": 646,
      "👸": 647,
      "💀": 648,
      "💖": 649,
      "💙": 650,
      "💡": 651,
      "💤": 652,
      "💪": 653,
      "💫": 654,
      "💬": 655,
      "💰": 656,
      "💳": 657,
      "📀": 658,
      "📅": 659,
      "📈": 660,
      "📊": 661,
      "📌": 662,
      "📍": 663,
      "📏": 664,
      "📐": 665,
      "📑": 666,
      "📖": 667,
      "📗": 668,
      "📘": 669,
      "📚": 670,
      "📜": 671,
      "📡": 672,
      "📢": 673,
      "📣": 674,
      "📥": 675,
      "📦": 676,
      "📧": 677,
      "📬": 678,
      "📱": 679,
      "📲": 680,
      "📺": 681,
      "📻": 682,
      "🔁": 683,
      "🔄": 684,
      "🔊": 685,
      "🔌": 686,
      "🔍": 687,
      "🔑": 688,
      "🔒": 689,
      "🔔": 690,
      "🔗": 691,
      "🔚": 692,
      "🔟": 693,
      "🔠": 694,
      "🔥": 695,
      "🔧": 696,
      "🔨": 697,
      "🔩": 698,
      "🔬": 699,
      "🔭": 700,
      "🔮": 701,
      "🔹": 702,
      "🕊": 703,
      "🕖": 704,
      "🕗": 705,
      "🕰": 706,
      "🕸": 707,
      "🖐": 708,
      "🖼": 709,
      "🗂": 710,
      "🗣": 711,
      "🗺": 712,
      "🗻": 713,
      "🗿": 714,
      "😁": 715,
      "😃": 716,
      "😊": 717,
      "😎": 718,
      "😜": 719,
      "🙂": 720,
      "🙋": 721,
      "🚀": 722,
      "🚂": 723,
      "🚗": 724,
      "🚙": 725,
      "🚢": 726,
      "🚦": 727,
      "🚨": 728,
      "🚪": 729,
      "🚫": 730,
      "🚴": 731,
      "🚶": 732,
      "🛠": 733,
      "🛡": 734,
      "🛤": 735,
      "🛰": 736,
      "🟢": 737,
      "🤔": 738,
      "🤖": 739,
      "🤝": 740,
      "🤩": 741,
      "🤸": 742,
      "🥳": 743,
      "🦴": 744,
      "🦾": 745,
      "🧠": 746,
      "🧩": 747,
      "🧪": 748,
      "🧬": 749,
      "🧭": 750,
      "🧮": 751,
      "🪁": 752,
      "🪑": 753,
      "🪙": 754,
      "🪛": 755,
      "🪨": 756,
      "in": 757,
      "er": 758,
      "th": 759,
      "on": 760,
      "an": 761,
      "at": 762,
      "es": 763,
      "en": 764,
      "**": 765,
      "or": 766,
      "al": 767,
      "re": 768,
      "ing": 769,
      "ti": 770,
      "--": 771,
      "the": 772,
      "st": 773,
      "ar": 774,
      "ed": 775,
      "and": 776,
      "ic": 777,
      "ro": 778,
      "is": 779,
      "it": 780,
      "to": 781,
      "ac": 782,
      "le": 783,
      "ou": 784,
      "ion": 785,
      "ent": 786,
      "of": 787,
      "##": 788,
      "as": 789,
      "el": 790,
      "ec": 791,
      "ation": 792,
      "om": 793,
      "for": 794,
      "et": 795,
      "ol": 796,
      "----": 797,
      "ig": 798,
      "ch": 799,
      "tion": 800,
      "il": 801,
      "ce": 802,
      "Th": 803,
      "ve": 804,
      "ur": 805,
      "ow": 806,
      "id": 807,
      "em": 808,
      "ers": 809,
      "am": 810,
      "ad": 811,
      "pl": 812,
      "pro": 813,
      "un": 814,
      "ap": 815,
      "us": 816,
      "ul": 817,
      "ess": 818,
      "ag": 819,
      "con": 820,
      "ab": 821,
      "ex": 822,
      "tr": 823,
      "im": 824,
      "ter": 825,
      "ate": 826,
      "ity": 827,
      "The": 828,
      "ay": 829,
      "**:": 830,
      "ith": 831,
      "that": 832,
      "com": 833,
      "ly": 834,
      "od": 835,
      "se": 836,
      "ts": 837,
      "ment": 838,
      "ir": 839,
      "op": 840,
      "ver": 841,
      "with": 842,
      "tic": 843,
      "lo": 844,
      "you": 845,
      "if": 846,
      "ut": 847,
      "ach": 848,
      "su": 849,
      "wh": 850,
      "###": 851,
      "igh": 852,
      "qu": 853,
      "ain": 854,
      "are": 855,
      "ud": 856,
      "ke": 857,
      "In": 858,
      "ot": 859,
      "uc": 860,
      "str": 861,
      "pr": 862,
      "sh": 863,
      ":**": 864,
      "can": 865,
      "li": 866,
      "--------": 867,
      "per": 868,
      "all": 869,
      "ure": 870,
      "ine": 871,
      "be": 872,
      "ev": 873,
      "ep": 874,
      "St": 875,
      "og": 876,
      "we": 877,
      "ical": 878,
      "sp": 879,
      "==": 880,
      "iv": 881,
      "um": 882,
      "res": 883,
      "wor": 884,
      "ip": 885,
      "ance": 886,
      "iz": 887,
      "ial": 888,
      "ies": 889,
      "cl": 890,
      "ive": 891,
      "our": 892,
      "ne": 893,
      "me": 894,
      "ign": 895,
      "oc": 896,
      "ef": 897,
      "each": 898,
      "ear": 899,
      "gr": 900,
      "form": 901,
      "ence": 902,
      "ple": 903,
      "ist": 904,
      "out": 905,
      "end": 906,
      "Wh": 907,
      "po": 908,
      "por": 909,
      "rom": 910,
      "ther": 911,
      "est": 912,
      "age": 913,
      "ust": 914,
      "ations": 915,
      "der": 916,
      "ib": 917,
      "ect": 918,
      "av": 919,
      "ens": 920,
      "oun": 921,
      "Con": 922,
      "enti": 923,
      "act": 924,
      "ind": 925,
      "ight": 926,
      "ard": 927,
      "---": 928,
      "ge": 929,
      "by": 930,
      "up": 931,
      "rec": 932,
      "tions": 933,
      "enc": 934,
      "ack": 935,
      "iti": 936,
      "ill": 937,
      "te": 938,
      "cre": 939,
      "ans": 940,
      "from": 941,
      "ore": 942,
      "ell": 943,
      "cr": 944,
      "af": 945,
      "ant": 946,
      "work": 947,
      "ory": 948,
      "able": 949,
      ").": 950,
      "cont": 951,
      "00": 952,
      "co": 953,
      "ide": 954,
      "dr": 955,
      "ug": 956,
      "par": 957,
      "its": 958,
      "ak": 959,
      "duc": 960,
      "mo": 961,
      "sy": 962,
      "ass": 963,
      "ual": 964,
      "ast": 965,
      "your": 966,
      "eacher": 967,
      "ld": 968,
      "one": 969,
      "olog": 970,
      "ents": 971,
      "Teacher": 972,
      "ph": 973,
      "Ex": 974,
      "ech": 975,
      "ates": 976,
      "into": 977,
      "port": 978,
      "mod": 979,
      "inter": 980,
      "cess": 981,
      "ata": 982,
      "ility": 983,
      "ary": 984,
      "====": 985,
      "sc": 986,
      "ated": 987,
      "dis": 988,
      "ext": 989,
      "fr": 990,
      "comp": 991,
      "ase": 992,
      "lec": 993,
      "br": 994,
      "ors": 995,
      "fer": 996,
      "ss": 997,
      "di": 998,
      "stem": 999,
      "he": 1000,
      "Stud": 1001,
      "fl": 1002,
      "Pro": 1003,
      "int": 1004,
      "bo": 1005,
      "ere": 1006,
      "als": 1007,
      "ue": 1008,
      "ser": 1009,
      "tur": 1010,
      "fe": 1011,
      "this": 1012,
      "tical": 1013,
      "``": 1014,
      "ating": 1015,
      "20": 1016,
      "anc": 1017,
      "ative": 1018,
      "tive": 1019,
      "over": 1020,
      "ous": 1021,
      "like": 1022,
      "Ch": 1023,
      "pe": 1024,
      "ark": 1025,
      "stand": 1026,
      "ail": 1027,
      "ys": 1028,
      "comm": 1029,
      "pre": 1030,
      "ok": 1031,
      "|--------": 1032,
      "man": 1033,
      "eng": 1034,
      "ics": 1035,
      "ace": 1036,
      "ome": 1037,
      "ty": 1038,
      "ile": 1039,
      "how": 1040,
      "not": 1041,
      "ting": 1042,
      "aw": 1043,
      "ese": 1044,
      "ew": 1045,
      "ice": 1046,
      "mat": 1047,
      "ame": 1048,
      "ll": 1049,
      "ning": 1050,
      "Com": 1051,
      "loc": 1052,
      "under": 1053,
      "do": 1054,
      "ake": 1055,
      "Student": 1056,
      "This": 1057,
      "ave": 1058,
      "data": 1059,
      "ific": 1060,
      "tim": 1061,
      "get": 1062,
      "prov": 1063,
      "their": 1064,
      "system": 1065,
      "An": 1066,
      "ong": 1067,
      "Re": 1068,
      "use": 1069,
      "des": 1070,
      "de": 1071,
      "high": 1072,
      "ang": 1073,
      "dev": 1074,
      "ia": 1075,
      "fic": 1076,
      "tional": 1077,
      "Tr": 1078,
      "ound": 1079,
      "min": 1080,
      "ments": 1081,
      "own": 1082,
      "En": 1083,
      "ower": 1084,
      "cul": 1085,
      "gro": 1086,
      "time": 1087,
      "bl": 1088,
      "lear": 1089,
      "no": 1090,
      "ins": 1091,
      "ugh": 1092,
      "ture": 1093,
      "ten": 1094,
      "tiv": 1095,
      "med": 1096,
      "elop": 1097,
      "ential": 1098,
      "but": 1099,
      "col": 1100,
      "ability": 1101,
      "ks": 1102,
      "ational": 1103,
      "art": 1104,
      "und": 1105,
      "io": 1106,
      "ement": 1107,
      "ely": 1108,
      "spec": 1109,
      "ience": 1110,
      "gen": 1111,
      "play": 1112,
      "ology": 1113,
      "By": 1114,
      "echn": 1115,
      "very": 1116,
      "rough": 1117,
      "old": 1118,
      "about": 1119,
      "ful": 1120,
      "ild": 1121,
      "cor": 1122,
      "ould": 1123,
      "What": 1124,
      "Pr": 1125,
      "trans": 1126,
      "ities": 1127,
      "mark": 1128,
      ".,": 1129,
      "val": 1130,
      "more": 1131,
      "ings": 1132,
      "\\(": 1133,
      "ite": 1134,
      "reg": 1135,
      "ath": 1136,
      "els": 1137,
      "Im": 1138,
      "serv": 1139,
      "ample": 1140,
      "struc": 1141,
      "uring": 1142,
      "plic": 1143,
      "erg": 1144,
      "ise": 1145,
      "have": 1146,
      "red": 1147,
      "new": 1148,
      "sign": 1149,
      "go": 1150,
      "pol": 1151,
      "ish": 1152,
      "low": 1153,
      "ms": 1154,
      "has": 1155,
      "arr": 1156,
      "ink": 1157,
      "stud": 1158,
      "app": 1159,
      "ency": 1160,
      "ession": 1161,
      "It": 1162,
      "ateg": 1163,
      "back": 1164,
      "requ": 1165,
      "au": 1166,
      "ays": 1167,
      "ures": 1168,
      "ick": 1169,
      "Ac": 1170,
      "inv": 1171,
      "bu": 1172,
      "these": 1173,
      "they": 1174,
      "ution": 1175,
      "bet": 1176,
      "mon": 1177,
      "ich": 1178,
      "line": 1179,
      "vi": 1180,
      "Un": 1181,
      "How": 1182,
      "pon": 1183,
      "pat": 1184,
      "ition": 1185,
      "pres": 1186,
      "ob": 1187,
      "cur": 1188,
      "fir": 1189,
      "ision": 1190,
      "hel": 1191,
      "pers": 1192,
      "10": 1193,
      "Ad": 1194,
      "ize": 1195,
      "just": 1196,
      "now": 1197,
      "exper": 1198,
      "through": 1199,
      "text": 1200,
      "ost": 1201,
      "ater": 1202,
      "####": 1203,
      "develop": 1204,
      "gu": 1205,
      "vers": 1206,
      "standing": 1207,
      "sing": 1208,
      "set": 1209,
      "ient": 1210,
      "les": 1211,
      "========": 1212,
      "cep": 1213,
      "where": 1214,
      "ased": 1215,
      "dec": 1216,
      "design": 1217,
      "ital": 1218,
      "read": 1219,
      "aph": 1220,
      "19": 1221,
      "tegr": 1222,
      "sec": 1223,
      "For": 1224,
      "rel": 1225,
      "need": 1226,
      "```": 1227,
      "commun": 1228,
      "cer": 1229,
      "pos": 1230,
      "yn": 1231,
      "coun": 1232,
      "anal": 1233,
      "expl": 1234,
      "tics": 1235,
      "main": 1236,
      "ord": 1237,
      "*:": 1238,
      "fi": 1239,
      "alth": 1240,
      "ber": 1241,
      "Step": 1242,
      "process": 1243,
      "what": 1244,
      "bi": 1245,
      "tern": 1246,
      "any": 1247,
      "),": 1248,
      "bal": 1249,
      "ines": 1250,
      "sim": 1251,
      "tain": 1252,
      "will": 1253,
      "when": 1254,
      "sup": 1255,
      "cons": 1256,
      "As": 1257,
      "sm": 1258,
      "techn": 1259,
      "ort": 1260,
      ".”": 1261,
      "ized": 1262,
      "who": 1263,
      "other": 1264,
      "met": 1265,
      "help": 1266,
      "produc": 1267,
      "power": 1268,
      "os": 1269,
      "Ke": 1270,
      "sur": 1271,
      "lev": 1272,
      "agement": 1273,
      "off": 1274,
      "ross": 1275,
      "usion": 1276,
      "arm": 1277,
      "reat": 1278,
      "ven": 1279,
      "fec": 1280,
      "earch": 1281,
      "vir": 1282,
      "Use": 1283,
      "ular": 1284,
      "such": 1285,
      "ness": 1286,
      "ences": 1287,
      "onal": 1288,
      "incl": 1289,
      "ari": 1290,
      "ves": 1291,
      "etwork": 1292,
      "ree": 1293,
      "mak": 1294,
      "oy": 1295,
      "action": 1296,
      "mis": 1297,
      "Res": 1298,
      "ices": 1299,
      "cent": 1300,
      "Why": 1301,
      "arget": 1302,
      "comple": 1303,
      "ization": 1304,
      "bec": 1305,
      "ustr": 1306,
      "put": 1307,
      "ship": 1308,
      "world": 1309,
      "dem": 1310,
      "\\)": 1311,
      "sol": 1312,
      "ade": 1313,
      "cell": 1314,
      "ris": 1315,
      "soc": 1316,
      "tural": 1317,
      "air": 1318,
      "Pl": 1319,
      "ween": 1320,
      "rol": 1321,
      "real": 1322,
      "ological": 1323,
      "eld": 1324,
      "elf": 1325,
      "dif": 1326,
      "light": 1327,
      "tor": 1328,
      "every": 1329,
      "lif": 1330,
      "ted": 1331,
      "inc": 1332,
      "tw": 1333,
      "ange": 1334,
      "some": 1335,
      "prac": 1336,
      "sub": 1337,
      "fin": 1338,
      "ior": 1339,
      "day": 1340,
      "tit": 1341,
      "led": 1342,
      "ages": 1343,
      "ynam": 1344,
      "her": 1345,
      "cal": 1346,
      "vis": 1347,
      "acy": 1348,
      "view": 1349,
      "market": 1350,
      "was": 1351,
      "them": 1352,
      "ond": 1353,
      "between": 1354,
      "ider": 1355,
      "ible": 1356,
      "model": 1357,
      "del": 1358,
      "ape": 1359,
      "using": 1360,
      "ows": 1361,
      "sure": 1362,
      "ern": 1363,
      "When": 1364,
      "iqu": 1365,
      "unc": 1366,
      "step": 1367,
      "let": 1368,
      "keep": 1369,
      "care": 1370,
      "ubl": 1371,
      "gan": 1372,
      "ose": 1373,
      "ward": 1374,
      "may": 1375,
      "mem": 1376,
      "strateg": 1377,
      "respon": 1378,
      "mer": 1379,
      "ax": 1380,
      "ysis": 1381,
      "ights": 1382,
      "ulti": 1383,
      "lead": 1384,
      "ature": 1385,
      "plan": 1386,
      "health": 1387,
      "ues": 1388,
      "itical": 1389,
      "ety": 1390,
      "det": 1391,
      "ivers": 1392,
      "which": 1393,
      "includ": 1394,
      "eck": 1395,
      "prof": 1396,
      "fact": 1397,
      "appro": 1398,
      "arch": 1399,
      "gh": 1400,
      "often": 1401,
      "cho": 1402,
      "pec": 1403,
      "incre": 1404,
      "sion": 1405,
      "than": 1406,
      "uman": 1407,
      "12": 1408,
      "Ar": 1409,
      "|----------------": 1410,
      "ople": 1411,
      "fol": 1412,
      "stat": 1413,
      "bre": 1414,
      "Ph": 1415,
      "cap": 1416,
      "Example": 1417,
      "ood": 1418,
      "progr": 1419,
      "ply": 1420,
      "used": 1421,
      "If": 1422,
      "key": 1423,
      "reduc": 1424,
      "Str": 1425,
      "echan": 1426,
      "We": 1427,
      "ject": 1428,
      "ref": 1429,
      "see": 1430,
      "understanding": 1431,
      "Le": 1432,
      "ives": 1433,
      "perform": 1434,
      "lab": 1435,
      "integr": 1436,
      "viron": 1437,
      "Mod": 1438,
      "systems": 1439,
      "ustom": 1440,
      "list": 1441,
      "iness": 1442,
      "fore": 1443,
      "ergy": 1444,
      "ets": 1445,
      "pect": 1446,
      "Cl": 1447,
      "year": 1448,
      "flu": 1449,
      "while": 1450,
      "ism": 1451,
      "inform": 1452,
      "tice": 1453,
      "saf": 1454,
      "small": 1455,
      "press": 1456,
      "def": 1457,
      "first": 1458,
      "differ": 1459,
      "adv": 1460,
      "ases": 1461,
      "clusion": 1462,
      "ving": 1463,
      "build": 1464,
      "Sh": 1465,
      "then": 1466,
      "sk": 1467,
      "aging": 1468,
      "ub": 1469,
      "ry": 1470,
      "000": 1471,
      "ection": 1472,
      "target": 1473,
      "oring": 1474,
      "equ": 1475,
      "based": 1476,
      "so": 1477,
      "down": 1478,
      "import": 1479,
      "hist": 1480,
      "log": 1481,
      "cle": 1482,
      "apter": 1483,
      "ire": 1484,
      "cost": 1485,
      "ering": 1486,
      "raph": 1487,
      "Ap": 1488,
      "also": 1489,
      "effec": 1490,
      "pot": 1491,
      "Prac": 1492,
      "iting": 1493,
      "fy": 1494,
      "icy": 1495,
      "ode": 1496,
      "provid": 1497,
      "ash": 1498,
      "oper": 1499,
      "ically": 1500,
      "grow": 1501,
      "ps": 1502,
      "pact": 1503,
      "igital": 1504,
      "bod": 1505,
      "complex": 1506,
      "Cont": 1507,
      "leg": 1508,
      "wr": 1509,
      "That": 1510,
      "drug": 1511,
      "vol": 1512,
      "tool": 1513,
      "vari": 1514,
      "ters": 1515,
      "network": 1516,
      "ality": 1517,
      "Rec": 1518,
      "people": 1519,
      "ble": 1520,
      "less": 1521,
      "hy": 1522,
      "adi": 1523,
      "ploy": 1524,
      "ute": 1525,
      "crip": 1526,
      "ends": 1527,
      "research": 1528,
      "hand": 1529,
      "ples": 1530,
      "land": 1531,
      "tal": 1532,
      "atch": 1533,
      "row": 1534,
      "15": 1535,
      "Wor": 1536,
      "ces": 1537,
      "king": 1538,
      "plications": 1539,
      "ix": 1540,
      "ather": 1541,
      "Key": 1542,
      ")**": 1543,
      "ough": 1544,
      "ric": 1545,
      "inal": 1546,
      "long": 1547,
      "inst": 1548,
      "only": 1549,
      "disc": 1550,
      "ublic": 1551,
      "turn": 1552,
      "Sy": 1553,
      "ause": 1554,
      "rect": 1555,
      "vironment": 1556,
      "He": 1557,
      "look": 1558,
      "dic": 1559,
      "fac": 1560,
      "local": 1561,
      "aud": 1562,
      "even": 1563,
      "learning": 1564,
      "Em": 1565,
      "essential": 1566,
      "ibility": 1567,
      "specific": 1568,
      "uce": 1569,
      "func": 1570,
      "ied": 1571,
      "control": 1572,
      "identi": 1573,
      "must": 1574,
      "does": 1575,
      "lay": 1576,
      "ams": 1577,
      "train": 1578,
      "present": 1579,
      "ural": 1580,
      "conn": 1581,
      "onom": 1582,
      "part": 1583,
      "dep": 1584,
      "uture": 1585,
      "both": 1586,
      "ivid": 1587,
      "ling": 1588,
      "ances": 1589,
      "ner": 1590,
      "way": 1591,
      "amil": 1592,
      "Al": 1593,
      "usiness": 1594,
      "30": 1595,
      "might": 1596,
      "Let": 1597,
      "ulation": 1598,
      "ie": 1599,
      "amp": 1600,
      "atform": 1601,
      "ograph": 1602,
      "tem": 1603,
      "ene": 1604,
      "life": 1605,
      "chang": 1606,
      "self": 1607,
      "contr": 1608,
      "organ": 1609,
      "ian": 1610,
      "IS": 1611,
      "signific": 1612,
      "support": 1613,
      "test": 1614,
      "personal": 1615,
      "ma": 1616,
      "phys": 1617,
      "fil": 1618,
      "know": 1619,
      "ense": 1620,
      "enef": 1621,
      "jec": 1622,
      "These": 1623,
      "follow": 1624,
      "To": 1625,
      "gener": 1626,
      "Conclusion": 1627,
      "create": 1628,
      "elec": 1629,
      "contin": 1630,
      "Dr": 1631,
      "lim": 1632,
      "ult": 1633,
      "gre": 1634,
      "after": 1635,
      "multi": 1636,
      "come": 1637,
      "Lo": 1638,
      "structure": 1639,
      "class": 1640,
      "Op": 1641,
      "char": 1642,
      "oth": 1643,
      "social": 1644,
      "many": 1645,
      "202": 1646,
      "risk": 1647,
      "Data": 1648,
      "custom": 1649,
      "mun": 1650,
      "You": 1651,
      "make": 1652,
      "chapter": 1653,
      "lock": 1654,
      "ividual": 1655,
      "community": 1656,
      "anced": 1657,
      "idence": 1658,
      "ify": 1659,
      "icro": 1660,
      "oid": 1661,
      "potential": 1662,
      "human": 1663,
      "hold": 1664,
      "iter": 1665,
      "sum": 1666,
      "within": 1667,
      "eed": 1668,
      "foc": 1669,
      "add": 1670,
      "face": 1671,
      "ier": 1672,
      "share": 1673,
      "path": 1674,
      "approach": 1675,
      "tle": 1676,
      "tro": 1677,
      "story": 1678,
      "educ": 1679,
      "ons": 1680,
      "Des": 1681,
      "ogn": 1682,
      "activ": 1683,
      "feel": 1684,
      "fect": 1685,
      "load": 1686,
      "road": 1687,
      "Anal": 1688,
      "ule": 1689,
      "hav": 1690,
      "show": 1691,
      "before": 1692,
      "Be": 1693,
      "well": 1694,
      "top": 1695,
      "num": 1696,
      "stor": 1697,
      "Sc": 1698,
      "making": 1699,
      "mechan": 1700,
      "ched": 1701,
      "ote": 1702,
      "could": 1703,
      "without": 1704,
      "book": 1705,
      "Is": 1706,
      "individual": 1707,
      "development": 1708,
      "NA": 1709,
      "actions": 1710,
      "environment": 1711,
      "allow": 1712,
      "most": 1713,
      "point": 1714,
      "ards": 1715,
      "istr": 1716,
      "change": 1717,
      "ination": 1718,
      "access": 1719,
      "effic": 1720,
      "iven": 1721,
      "ited": 1722,
      "atic": 1723,
      "hip": 1724,
      "cept": 1725,
      "tell": 1726,
      "car": 1727,
      "ger": 1728,
      "align": 1729,
      "Me": 1730,
      "|------------": 1731,
      "stre": 1732,
      "ties": 1733,
      "ication": 1734,
      ".*": 1735,
      "think": 1736,
      "ques": 1737,
      "analysis": 1738,
      "field": 1739,
      "ann": 1740,
      "energy": 1741,
      "ways": 1742,
      "ique": 1743,
      "System": 1744,
      "ules": 1745,
      "his": 1746,
      "hear": 1747,
      "across": 1748,
      "200": 1749,
      "itive": 1750,
      "Inter": 1751,
      "experience": 1752,
      "platform": 1753,
      "right": 1754,
      "pass": 1755,
      "cover": 1756,
      "ants": 1757,
      "grad": 1758,
      "evol": 1759,
      "Man": 1760,
      "ints": 1761,
      "times": 1762,
      "example": 1763,
      "policy": 1764,
      "engine": 1765,
      "Under": 1766,
      "cultural": 1767,
      "So": 1768,
      "role": 1769,
      "*.": 1770,
      "atory": 1771,
      "performance": 1772,
      "narr": 1773,
      "labor": 1774,
      "Dev": 1775,
      "ension": 1776,
      "during": 1777,
      "decision": 1778,
      "frame": 1779,
      "post": 1780,
      "nov": 1781,
      "ale": 1782,
      "roll": 1783,
      "izing": 1784,
      "Col": 1785,
      "chall": 1786,
      "partic": 1787,
      "there": 1788,
      "body": 1789,
      "early": 1790,
      "move": 1791,
      "treat": 1792,
      "================": 1793,
      "public": 1794,
      "50": 1795,
      "On": 1796,
      "lar": 1797,
      "ources": 1798,
      "vs": 1799,
      "ones": 1800,
      "water": 1801,
      "team": 1802,
      "dom": 1803,
      "ansp": 1804,
      "prom": 1805,
      "ynamics": 1806,
      "Ro": 1807,
      "prec": 1808,
      "famil": 1809,
      "simple": 1810,
      "active": 1811,
      "call": 1812,
      "ership": 1813,
      "ground": 1814,
      "dro": 1815,
      "|----": 1816,
      "business": 1817,
      "mus": 1818,
      "*,": 1819,
      "lobal": 1820,
      "Co": 1821,
      "ze": 1822,
      "erial": 1823,
      "meas": 1824,
      ":*": 1825,
      "pose": 1826,
      "significant": 1827,
      "pur": 1828,
      "Fr": 1829,
      "provide": 1830,
      "count": 1831,
      "vent": 1832,
      "cy": 1833,
      "sequ": 1834,
      "two": 1835,
      "De": 1836,
      "typ": 1837,
      "thod": 1838,
      "Pre": 1839,
      "ium": 1840,
      "thing": 1841,
      "big": 1842,
      "open": 1843,
      "digital": 1844,
      "fri": 1845,
      "Pol": 1846,
      "cruc": 1847,
      "Br": 1848,
      "Soc": 1849,
      "case": 1850,
      "lex": 1851,
      "Qu": 1852,
      "Practical": 1853,
      "influ": 1854,
      "18": 1855,
      "head": 1856,
      "Eng": 1857,
      "consider": 1858,
      "ator": 1859,
      "benef": 1860,
      "impact": 1861,
      "analy": 1862,
      "cour": 1863,
      "feed": 1864,
      "emo": 1865,
      "intern": 1866,
      "auto": 1867,
      "They": 1868,
      "ators": 1869,
      "ek": 1870,
      "exam": 1871,
      "tra": 1872,
      "{\\": 1873,
      "learn": 1874,
      "force": 1875,
      "crucial": 1876,
      "PR": 1877,
      "run": 1878,
      "place": 1879,
      "Cons": 1880,
      "Med": 1881,
      "inary": 1882,
      "ask": 1883,
      "ires": 1884,
      "ved": 1885,
      "aps": 1886,
      "prot": 1887,
      "pli": 1888,
      "orical": 1889,
      "group": 1890,
      "law": 1891,
      "lection": 1892,
      "iver": 1893,
      "utes": 1894,
      "month": 1895,
      "prove": 1896,
      "CR": 1897,
      "comes": 1898,
      "offer": 1899,
      "ift": 1900,
      "optim": 1901,
      "suc": 1902,
      "atures": 1903,
      "doc": 1904,
      "ills": 1905,
      "ests": 1906,
      "anti": 1907,
      "rent": 1908,
      "would": 1909,
      "eting": 1910,
      "ime": 1911,
      "modern": 1912,
      "tures": 1913,
      "my": 1914,
      "*“": 1915,
      "Bu": 1916,
      "models": 1917,
      "()": 1918,
      "Per": 1919,
      "vide": 1920,
      "invol": 1921,
      "start": 1922,
      "clear": 1923,
      "quality": 1924,
      "aster": 1925,
      "frac": 1926,
      "word": 1927,
      "ource": 1928,
      "growth": 1929,
      "students": 1930,
      "Ref": 1931,
      "denti": 1932,
      "Ear": 1933,
      "overn": 1934,
      "avel": 1935,
      "Dis": 1936,
      "Or": 1937,
      "acc": 1938,
      "pattern": 1939,
      "?”": 1940,
      "plement": 1941,
      "value": 1942,
      "changes": 1943,
      "aim": 1944,
      "ush": 1945,
      "rate": 1946,
      "uses": 1947,
      "----------------": 1948,
      "Hist": 1949,
      "future": 1950,
      "room": 1951,
      "oot": 1952,
      "clo": 1953,
      "sti": 1954,
      "maintain": 1955,
      "ired": 1956,
      "iny": 1957,
      "mal": 1958,
      "single": 1959,
      "torch": 1960,
      "different": 1961,
      "transform": 1962,
      "econom": 1963,
      "ensive": 1964,
      "Reg": 1965,
      "angu": 1966,
      "study": 1967,
      "web": 1968,
      "Ass": 1969,
      "content": 1970,
      "yp": 1971,
      "state": 1972,
      "flow": 1973,
      "should": 1974,
      "conf": 1975,
      "enges": 1976,
      "take": 1977,
      "were": 1978,
      "Your": 1979,
      "relation": 1980,
      "tools": 1981,
      "New": 1982,
      "dress": 1983,
      "level": 1984,
      "via": 1985,
      "ands": 1986,
      "predic": 1987,
      "mission": 1988,
      "PU": 1989,
      "find": 1990,
      "ury": 1991,
      "Techn": 1992,
      "break": 1993,
      "sens": 1994,
      "Cr": 1995,
      "ches": 1996,
      "With": 1997,
      "pay": 1998,
      "urity": 1999,
      "pi": 2000,
      "critical": 2001,
      "actly": 2002,
      "material": 2003,
      "loss": 2004,
      "olar": 2005,
      "context": 2006,
      "game": 2007,
      "gene": 2008,
      "Par": 2009,
      "ever": 2010,
      "gl": 2011,
      "framework": 2012,
      "dist": 2013,
      "eline": 2014,
      "convers": 2015,
      "cli": 2016,
      "utions": 2017,
      "High": 2018,
      "bers": 2019,
      "success": 2020,
      "Integr": 2021,
      "lect": 2022,
      "duction": 2023,
      "bed": 2024,
      "Develop": 2025,
      "check": 2026,
      "ban": 2027,
      "ites": 2028,
      "proper": 2029,
      "rics": 2030,
      "issu": 2031,
      "regul": 2032,
      "micro": 2033,
      "AI": 2034,
      "therap": 2035,
      "respons": 2036,
      "exp": 2037,
      "comb": 2038,
      "position": 2039,
      "print": 2040,
      "plac": 2041,
      "next": 2042,
      "unique": 2043,
      "history": 2044,
      "istic": 2045,
      "ledge": 2046,
      "Design": 2047,
      "why": 2048,
      "iving": 2049,
      "Trans": 2050,
      "plication": 2051,
      "ification": 2052,
      "Au": 2053,
      "den": 2054,
      "sal": 2055,
      "bel": 2056,
      "found": 2057,
      "Take": 2058,
      "same": 2059,
      "ument": 2060,
      "expect": 2061,
      "ious": 2062,
      "technology": 2063,
      "eter": 2064,
      "record": 2065,
      "Gr": 2066,
      "again": 2067,
      "verage": 2068,
      "guid": 2069,
      "adap": 2070,
      "ength": 2071,
      "Mark": 2072,
      "media": 2073,
      "table": 2074,
      "Cre": 2075,
      "Go": 2076,
      "site": 2077,
      "toge": 2078,
      "distr": 2079,
      "explore": 2080,
      "together": 2081,
      "onstr": 2082,
      "ouse": 2083,
      "understand": 2084,
      "Lear": 2085,
      "corpor": 2086,
      "firm": 2087,
      "cells": 2088,
      "program": 2089,
      "years": 2090,
      "ding": 2091,
      "erc": 2092,
      "ining": 2093,
      "Pers": 2094,
      "ains": 2095,
      "Do": 2096,
      "information": 2097,
      "asing": 2098,
      "try": 2099,
      "core": 2100,
      "track": 2101,
      "yth": 2102,
      "\\).": 2103,
      "ined": 2104,
      "user": 2105,
      "Understanding": 2106,
      "Ser": 2107,
      "tis": 2108,
      "iences": 2109,
      "brand": 2110,
      "narrative": 2111,
      "att": 2112,
      "**.": 2113,
      "special": 2114,
      "armac": 2115,
      "training": 2116,
      "Commun": 2117,
      "safety": 2118,
      "pop": 2119,
      "reach": 2120,
      "improve": 2121,
      "offers": 2122,
      "ield": 2123,
      "mind": 2124,
      "remain": 2125,
      "}}": 2126,
      "ensuring": 2127,
      "graph": 2128,
      "industr": 2129,
      "relationship": 2130,
      "reduce": 2131,
      "those": 2132,
      "ental": 2133,
      "Identi": 2134,
      "pack": 2135,
      "sof": 2136,
      "anguage": 2137,
      "prote": 2138,
      "ensure": 2139,
      "Cul": 2140,
      "management": 2141,
      "acter": 2142,
      "quick": 2143,
      "tric": 2144,
      "chool": 2145,
      "pression": 2146,
      "profession": 2147,
      "pliance": 2148,
      "Bi": 2149,
      "online": 2150,
      "practice": 2151,
      "behav": 2152,
      "iate": 2153,
      "portun": 2154,
      "employ": 2155,
      "compon": 2156,
      "Sec": 2157,
      "been": 2158,
      "aling": 2159,
      "being": 2160,
      "ipl": 2161,
      "ually": 2162,
      "Strateg": 2163,
      "Can": 2164,
      "isms": 2165,
      "mean": 2166,
      "ables": 2167,
      "drugs": 2168,
      "Se": 2169,
      "iev": 2170,
      "minim": 2171,
      "services": 2172,
      "illustr": 2173,
      "mar": 2174,
      "method": 2175,
      "points": 2176,
      "around": 2177,
      "Gu": 2178,
      "syn": 2179,
      "ff": 2180,
      "atives": 2181,
      "makes": 2182,
      "side": 2183,
      "ney": 2184,
      "building": 2185,
      "become": 2186,
      "including": 2187,
      "Set": 2188,
      "ns": 2189,
      "ilities": 2190,
      "avig": 2191,
      "thor": 2192,
      "invest": 2193,
      "innov": 2194,
      "ening": 2195,
      "omes": 2196,
      "function": 2197,
      "product": 2198,
      "Sim": 2199,
      "itect": 2200,
      "valu": 2201,
      "Gen": 2202,
      "tices": 2203,
      "az": 2204,
      "address": 2205,
      "direct": 2206,
      "Sup": 2207,
      "atural": 2208,
      "ced": 2209,
      "AP": 2210,
      "itor": 2211,
      "ython": 2212,
      "ges": 2213,
      "chem": 2214,
      "transp": 2215,
      "nu": 2216,
      "Out": 2217,
      "Mon": 2218,
      "lish": 2219,
      "term": 2220,
      "Check": 2221,
      "Mo": 2222,
      "sw": 2223,
      "short": 2224,
      "space": 2225,
      "uro": 2226,
      "adjust": 2227,
      "brid": 2228,
      "Sm": 2229,
      "demonstr": 2230,
      "ions": 2231,
      "stain": 2232,
      "higher": 2233,
      "ats": 2234,
      "jects": 2235,
      "free": 2236,
      "mach": 2237,
      "rob": 2238,
      "At": 2239,
      "friend": 2240,
      "global": 2241,
      "Build": 2242,
      "No": 2243,
      "From": 2244,
      "requires": 2245,
      "ele": 2246,
      "Exactly": 2247,
      "still": 2248,
      "Case": 2249,
      "want": 2250,
      "ether": 2251,
      "require": 2252,
      "board": 2253,
      "iod": 2254,
      "yle": 2255,
      "ron": 2256,
      "tific": 2257,
      "hour": 2258,
      "ynamic": 2259,
      "medic": 2260,
      "detail": 2261,
      "emerg": 2262,
      "sym": 2263,
      "away": 2264,
      "ason": 2265,
      "initi": 2266,
      "ified": 2267,
      "ered": 2268,
      "ict": 2269,
      "patient": 2270,
      "ra": 2271,
      "good": 2272,
      "code": 2273,
      "dise": 2274,
      "ancial": 2275,
      "stay": 2276,
      "service": 2277,
      "piec": 2278,
      "Intro": 2279,
      "importance": 2280,
      "home": 2281,
      "\\[": 2282,
      "ball": 2283,
      "Fe": 2284,
      "\\]": 2285,
      "project": 2286,
      "Over": 2287,
      "bas": 2288,
      "type": 2289,
      "wind": 2290,
      "needs": 2291,
      "25": 2292,
      "ists": 2293,
      "ste": 2294,
      "event": 2295,
      "aking": 2296,
      "Val": 2297,
      "memory": 2298,
      "safe": 2299,
      "challenges": 2300,
      "agine": 2301,
      "phas": 2302,
      "size": 2303,
      "steps": 2304,
      "effective": 2305,
      "non": 2306,
      "}{": 2307,
      "akes": 2308,
      "review": 2309,
      "pecial": 2310,
      "reli": 2311,
      "trust": 2312,
      "jour": 2313,
      "against": 2314,
      "Cal": 2315,
      "she": 2316,
      "eth": 2317,
      "nor": 2318,
      "til": 2319,
      "pain": 2320,
      "hol": 2321,
      "uch": 2322,
      "travel": 2323,
      "patterns": 2324,
      "focus": 2325,
      "govern": 2326,
      "engagement": 2327,
      "rates": 2328,
      "ally": 2329,
      "intro": 2330,
      "14": 2331,
      "mess": 2332,
      "upd": 2333,
      "visual": 2334,
      "Analysis": 2335,
      "Def": 2336,
      "Met": 2337,
      "?*": 2338,
      "cross": 2339,
      "report": 2340,
      "had": 2341,
      "Keep": 2342,
      "Power": 2343,
      "ging": 2344,
      "itch": 2345,
      "Tor": 2346,
      "physical": 2347,
      "pressure": 2348,
      "include": 2349,
      "tract": 2350,
      "**,": 2351,
      "Cas": 2352,
      "ars": 2353,
      "chain": 2354,
      "strategies": 2355,
      "aft": 2356,
      "fund": 2357,
      "ories": 2358,
      "ario": 2359,
      "ames": 2360,
      "ops": 2361,
      "better": 2362,
      "represent": 2363,
      "condi": 2364,
      "Think": 2365,
      "ids": 2366,
      "ared": 2367,
      "cred": 2368,
      "sound": 2369,
      "stream": 2370,
      "):": 2371,
      "opportun": 2372,
      "marketing": 2373,
      "various": 2374,
      "sense": 2375,
      "means": 2376,
      "oto": 2377,
      "ending": 2378,
      "avoid": 2379,
      "cancer": 2380,
      "cepts": 2381,
      "happ": 2382,
      "price": 2383,
      "oud": 2384,
      "calcul": 2385,
      "ident": 2386,
      "iversity": 2387,
      "aditional": 2388,
      "la": 2389,
      "allows": 2390,
      "ports": 2391,
      "rele": 2392,
      "gor": 2393,
      "Work": 2394,
      "gg": 2395,
      "alk": 2396,
      "thentic": 2397,
      "ery": 2398,
      "iques": 2399,
      "shows": 2400,
      "recogn": 2401,
      "Di": 2402,
      "ufact": 2403,
      "pic": 2404,
      "sustain": 2405,
      "princ": 2406,
      "knowledge": 2407,
      "Comp": 2408,
      "map": 2409,
      "ration": 2410,
      "priv": 2411,
      "mom": 2412,
      "shar": 2413,
      "ored": 2414,
      "ded": 2415,
      "eness": 2416,
      "ips": 2417,
      "sych": 2418,
      "adem": 2419,
      "yond": 2420,
      "shap": 2421,
      "iency": 2422,
      "Prof": 2423,
      "ock": 2424,
      "tocol": 2425,
      "Sp": 2426,
      "communication": 2427,
      "tom": 2428,
      "ank": 2429,
      "ference": 2430,
      "gorith": 2431,
      "cop": 2432,
      "empor": 2433,
      "izes": 2434,
      "benefits": 2435,
      "Ne": 2436,
      "nec": 2437,
      "natural": 2438,
      "meric": 2439,
      "prior": 2440,
      "week": 2441,
      "Network": 2442,
      "err": 2443,
      "family": 2444,
      "ton": 2445,
      "because": 2446,
      "Dec": 2447,
      "eper": 2448,
      "distrib": 2449,
      "ho": 2450,
      "lines": 2451,
      "sched": 2452,
      "second": 2453,
      "dat": 2454,
      "features": 2455,
      "Rem": 2456,
      "improv": 2457,
      "helps": 2458,
      "mit": 2459,
      "discipl": 2460,
      "Bo": 2461,
      "poss": 2462,
      "sil": 2463,
      "uter": 2464,
      "enario": 2465,
      "aily": 2466,
      "language": 2467,
      "60": 2468,
      "All": 2469,
      "fall": 2470,
      "navig": 2471,
      "though": 2472,
      "uous": 2473,
      "Plan": 2474,
      "driven": 2475,
      "lower": 2476,
      "clean": 2477,
      "Americ": 2478,
      "ief": 2479,
      "lood": 2480,
      "best": 2481,
      "legal": 2482,
      "camp": 2483,
      "har": 2484,
      "hard": 2485,
      "biology": 2486,
      "CRIS": 2487,
      "ienti": 2488,
      "order": 2489,
      "ography": 2490,
      "mental": 2491,
      "rece": 2492,
      "aper": 2493,
      "CRISPR": 2494,
      "period": 2495,
      "__": 2496,
      "response": 2497,
      "individuals": 2498,
      "inical": 2499,
      "Ins": 2500,
      "strategy": 2501,
      "connect": 2502,
      "100": 2503,
      "return": 2504,
      "rap": 2505,
      "Learning": 2506,
      "sts": 2507,
      "God": 2508,
      "city": 2509,
      "link": 2510,
      "shape": 2511,
      "made": 2512,
      "istics": 2513,
      "ude": 2514,
      "AM": 2515,
      "strong": 2516,
      "contrib": 2517,
      "ping": 2518,
      "evidence": 2519,
      "resh": 2520,
      "bol": 2521,
      "ped": 2522,
      "enh": 2523,
      "provides": 2524,
      "weight": 2525,
      "Torch": 2526,
      "elines": 2527,
      "broad": 2528,
      "gin": 2529,
      "common": 2530,
      "scape": 2531,
      "comput": 2532,
      "Cas9": 2533,
      "mag": 2534,
      "Each": 2535,
      "mil": 2536,
      "urn": 2537,
      "concept": 2538,
      "ients": 2539,
      "avor": 2540,
      "toward": 2541,
      "ta": 2542,
      "tware": 2543,
      "talk": 2544,
      "Ef": 2545,
      "round": 2546,
      "creating": 2547,
      "question": 2548,
      "Ge": 2549,
      "ablish": 2550,
      "aries": 2551,
      "eval": 2552,
      "speed": 2553,
      "music": 2554,
      "Identify": 2555,
      "aff": 2556,
      "rather": 2557,
      "ont": 2558,
      "Adv": 2559,
      "fort": 2560,
      "ption": 2561,
      "assess": 2562,
      "identify": 2563,
      "sat": 2564,
      "lat": 2565,
      "ults": 2566,
      "Min": 2567,
      "acts": 2568,
      "sever": 2569,
      "World": 2570,
      "economic": 2571,
      "rich": 2572,
      "16": 2573,
      "ended": 2574,
      "|---------": 2575,
      "deep": 2576,
      "setting": 2577,
      "Consider": 2578,
      "gain": 2579,
      "unch": 2580,
      "events": 2581,
      "balance": 2582,
      "following": 2583,
      "behavior": 2584,
      "Prec": 2585,
      "cir": 2586,
      "ike": 2587,
      "tiny": 2588,
      "iation": 2589,
      "skills": 2590,
      "Fir": 2591,
      "dim": 2592,
      "zy": 2593,
      "Ob": 2594,
      "indic": 2595,
      "person": 2596,
      "processes": 2597,
      "ieve": 2598,
      "Cor": 2599,
      "account": 2600,
      "proble": 2601,
      "don": 2602,
      "shift": 2603,
      "school": 2604,
      "ides": 2605,
      "applications": 2606,
      "metrics": 2607,
      "providing": 2608,
      "Af": 2609,
      "rig": 2610,
      "Study": 2611,
      "emotional": 2612,
      "Mat": 2613,
      "fit": 2614,
      "hib": 2615,
      "ials": 2616,
      "transl": 2617,
      "struction": 2618,
      "spir": 2619,
      "eas": 2620,
      "match": 2621,
      "Leg": 2622,
      "evalu": 2623,
      "multiple": 2624,
      "ayer": 2625,
      "Time": 2626,
      "values": 2627,
      "culture": 2628,
      "insights": 2629,
      "card": 2630,
      "ware": 2631,
      "ull": 2632,
      "allowing": 2633,
      "range": 2634,
      "collabor": 2635,
      "Model": 2636,
      "Digital": 2637,
      "block": 2638,
      "men": 2639,
      "full": 2640,
      "ready": 2641,
      "Sun": 2642,
      "ca": 2643,
      "abol": 2644,
      "Post": 2645,
      "science": 2646,
      "consist": 2647,
      "particip": 2648,
      "deeper": 2649,
      "accur": 2650,
      "surface": 2651,
      "due": 2652,
      "emphas": 2653,
      "tax": 2654,
      "Introduction": 2655,
      "users": 2656,
      "conver": 2657,
      "Intern": 2658,
      "Control": 2659,
      "omen": 2660,
      "ialog": 2661,
      "math": 2662,
      "character": 2663,
      "fast": 2664,
      ")**:": 2665,
      "Rep": 2666,
      "region": 2667,
      "shared": 2668,
      "feedback": 2669,
      "foot": 2670,
      "ensures": 2671,
      "And": 2672,
      "financial": 2673,
      "Ver": 2674,
      "sed": 2675,
      "certain": 2676,
      "ived": 2677,
      "heart": 2678,
      "tives": 2679,
      "production": 2680,
      "treatment": 2681,
      "page": 2682,
      "One": 2683,
      "ox": 2684,
      "compliance": 2685,
      "star": 2686,
      "tention": 2687,
      "CO": 2688,
      "others": 2689,
      "industry": 2690,
      "cript": 2691,
      "sav": 2692,
      "tation": 2693,
      "anim": 2694,
      "itig": 2695,
      "video": 2696,
      "ently": 2697,
      "avail": 2698,
      "security": 2699,
      "ral": 2700,
      "──": 2701,
      "emporary": 2702,
      "Ab": 2703,
      "Up": 2704,
      "Impact": 2705,
      "Imagine": 2706,
      "Sign": 2707,
      "increase": 2708,
      "measure": 2709,
      "super": 2710,
      "ane": 2711,
      "company": 2712,
      "pair": 2713,
      "ises": 2714,
      "iples": 2715,
      ".**": 2716,
      "temper": 2717,
      "While": 2718,
      "medical": 2719,
      "delve": 2720,
      "relationships": 2721,
      "encies": 2722,
      "controll": 2723,
      "commit": 2724,
      "|------": 2725,
      "bound": 2726,
      "claim": 2727,
      "Research": 2728,
      "CE": 2729,
      "que": 2730,
      "scale": 2731,
      "Systems": 2732,
      "draw": 2733,
      "But": 2734,
      "few": 2735,
      "Management": 2736,
      "here": 2737,
      "thes": 2738,
      "Health": 2739,
      "costs": 2740,
      "Cent": 2741,
      "device": 2742,
      "uts": 2743,
      "resources": 2744,
      "11": 2745,
      "watch": 2746,
      "reducing": 2747,
      "Social": 2748,
      "sl": 2749,
      "outcomes": 2750,
      "location": 2751,
      "fail": 2752,
      "ians": 2753,
      "love": 2754,
      "tre": 2755,
      "Real": 2756,
      "current": 2757,
      "70": 2758,
      "email": 2759,
      "preser": 2760,
      "practices": 2761,
      "iety": 2762,
      "session": 2763,
      "istance": 2764,
      "instit": 2765,
      "Rev": 2766,
      "base": 2767,
      "mor": 2768,
      "Ind": 2769,
      "box": 2770,
      "lights": 2771,
      "hind": 2772,
      "strategic": 2773,
      "efficient": 2774,
      "works": 2775,
      "guide": 2776,
      "sit": 2777,
      "necess": 2778,
      "evolution": 2779,
      "algorith": 2780,
      "clim": 2781,
      "influence": 2782,
      "duce": 2783,
      "apply": 2784,
      "\\(\\": 2785,
      "apping": 2786,
      "itecture": 2787,
      "ope": 2788,
      "exploring": 2789,
      "Bl": 2790,
      "mix": 2791,
      "pt": 2792,
      "three": 2793,
      "interest": 2794,
      "US": 2795,
      "food": 2796,
      "reflec": 2797,
      "job": 2798,
      "standard": 2799,
      "fully": 2800,
      "student": 2801,
      "Cultural": 2802,
      "Target": 2803,
      "orig": 2804,
      "First": 2805,
      "DNA": 2806,
      "days": 2807,
      "Human": 2808,
      "pip": 2809,
      "demand": 2810,
      "ID": 2811,
      "enab": 2812,
      "designed": 2813,
      "secure": 2814,
      "discus": 2815,
      "aign": 2816,
      "smo": 2817,
      "number": 2818,
      "ialogue": 2819,
      "manufact": 2820,
      "PS": 2821,
      "dynamics": 2822,
      "olution": 2823,
      "experiences": 2824,
      "tail": 2825,
      "aged": 2826,
      "authentic": 2827,
      "child": 2828,
      "ember": 2829,
      "traditional": 2830,
      "udget": 2831,
      "factors": 2832,
      "mechanisms": 2833,
      "itation": 2834,
      "ump": 2835,
      "Gre": 2836,
      "Pe": 2837,
      "ulate": 2838,
      "reduces": 2839,
      "24": 2840,
      "iew": 2841,
      "name": 2842,
      "Context": 2843,
      "practical": 2844,
      "install": 2845,
      "Personal": 2846,
      "ft": 2847,
      "lit": 2848,
      "mm": 2849,
      "signals": 2850,
      "matters": 2851,
      "keeps": 2852,
      "Create": 2853,
      "tick": 2854,
      "aste": 2855,
      "sor": 2856,
      "prevent": 2857,
      "Po": 2858,
      "mill": 2859,
      "leading": 2860,
      "integration": 2861,
      "ements": 2862,
      "Cho": 2863,
      "engineering": 2864,
      "decisions": 2865,
      "Vis": 2866,
      "cat": 2867,
      "strain": 2868,
      "forward": 2869,
      "daily": 2870,
      "matic": 2871,
      "Hel": 2872,
      "SE": 2873,
      "scre": 2874,
      "inj": 2875,
      "tenance": 2876,
      "`.": 2877,
      "equip": 2878,
      "reh": 2879,
      "eco": 2880,
      "ilt": 2881,
      "techniques": 2882,
      "80": 2883,
      "CPU": 2884,
      "player": 2885,
      "important": 2886,
      "client": 2887,
      "protein": 2888,
      "professional": 2889,
      "volution": 2890,
      "AR": 2891,
      "beyond": 2892,
      "questions": 2893,
      "Role": 2894,
      "frequ": 2895,
      "eral": 2896,
      "highlight": 2897,
      "Loc": 2898,
      "yield": 2899,
      "exec": 2900,
      "izations": 2901,
      "Some": 2902,
      "itoring": 2903,
      "networks": 2904,
      "eler": 2905,
      "bor": 2906,
      "lik": 2907,
      "drop": 2908,
      "concepts": 2909,
      "bit": 2910,
      "ancing": 2911,
      "ministr": 2912,
      "identity": 2913,
      "great": 2914,
      "ots": 2915,
      "powerful": 2916,
      "ffer": 2917,
      "13": 2918,
      "yet": 2919,
      "reve": 2920,
      "itual": 2921,
      "ah": 2922,
      "uted": 2923,
      "customer": 2924,
      "Final": 2925,
      "did": 2926,
      "author": 2927,
      "concer": 2928,
      "serve": 2929,
      "platforms": 2930,
      "style": 2931,
      "recent": 2932,
      "audience": 2933,
      "Future": 2934,
      "Historical": 2935,
      "17": 2936,
      "theory": 2937,
      "environmental": 2938,
      "house": 2939,
      "anch": 2940,
      "\\,": 2941,
      "war": 2942,
      "especial": 2943,
      "ily": 2944,
      "Modern": 2945,
      "especially": 2946,
      "90": 2947,
      "later": 2948,
      "cup": 2949,
      "ik": 2950,
      "protocol": 2951,
      "Mechan": 2952,
      "odes": 2953,
      "arti": 2954,
      "telling": 2955,
      "scienti": 2956,
      "Hy": 2957,
      "mid": 2958,
      "prim": 2959,
      "medicine": 2960,
      "depth": 2961,
      "machine": 2962,
      "?**": 2963,
      "etings": 2964,
      "effects": 2965,
      "Early": 2966,
      "disease": 2967,
      "---|": 2968,
      "becomes": 2969,
      "valid": 2970,
      "Py": 2971,
      "isely": 2972,
      "Phys": 2973,
      "Pres": 2974,
      "fa": 2975,
      "say": 2976,
      "today": 2977,
      "search": 2978,
      "duct": 2979,
      "compe": 2980,
      "relev": 2981,
      "omic": 2982,
      "max": 2983,
      "issues": 2984,
      "color": 2985,
      "agno": 2986,
      "photo": 2987,
      "pan": 2988,
      "Saf": 2989,
      "heav": 2990,
      "Add": 2991,
      "give": 2992,
      "Serv": 2993,
      "iet": 2994,
      "ster": 2995,
      "ival": 2996,
      "devices": 2997,
      "biological": 2998,
      "`,": 2999,
      "astic": 3000,
      "irr": 3001,
      "ately": 3002,
      "alle": 3003,
      "ament": 3004,
      "Main": 3005,
      "^{": 3006,
      "living": 3007,
      "Coun": 3008,
      "trig": 3009,
      "venue": 3010,
      "layers": 3011,
      "journey": 3012,
      "aid": 3013,
      "atter": 3014,
      "ems": 3015,
      "stress": 3016,
      "ume": 3017,
      "fee": 3018,
      "ratic": 3019,
      "Community": 3020,
      "Solar": 3021,
      "blood": 3022,
      "ender": 3023,
      "players": 3024,
      "observ": 3025,
      "Action": 3026,
      "mass": 3027,
      "interactions": 3028,
      "goals": 3029,
      "education": 3030,
      "materials": 3031,
      "Here": 3032,
      "Wr": 3033,
      "Ther": 3034,
      "area": 3035,
      "large": 3036,
      ",”": 3037,
      "adop": 3038,
      "ird": 3039,
      "formation": 3040,
      "member": 3041,
      "partn": 3042,
      "Rel": 3043,
      "rapid": 3044,
      "dynamic": 3045,
      "robust": 3046,
      "last": 3047,
      "affect": 3048,
      "vo": 3049,
      "cles": 3050,
      "40": 3051,
      "targeted": 3052,
      "Custom": 3053,
      "tively": 3054,
      "fost": 3055,
      "studies": 3056,
      "//": 3057,
      "host": 3058,
      "ores": 3059,
      "ditional": 3060,
      "piece": 3061,
      "Now": 3062,
      "ses": 3063,
      "ilar": 3064,
      "itiz": 3065,
      "deter": 3066,
      "ench": 3067,
      "oney": 3068,
      "corporate": 3069,
      "Core": 3070,
      "Small": 3071,
      "tition": 3072,
      "Analy": 3073,
      "aining": 3074,
      "hum": 3075,
      "affic": 3076,
      "increasing": 3077,
      "components": 3078,
      "Struc": 3079,
      "Perform": 3080,
      "OS": 3081,
      "python": 3082,
      "computer": 3083,
      "Process": 3084,
      "Remember": 3085,
      "Jo": 3086,
      "estim": 3087,
      "aming": 3088,
      "exist": 3089,
      "compreh": 3090,
      "historical": 3091,
      "bring": 3092,
      "After": 3093,
      "ey": 3094,
      "several": 3095,
      "rup": 3096,
      "establish": 3097,
      "connec": 3098,
      "kn": 3099,
      "near": 3100,
      "Car": 3101,
      "jo": 3102,
      "past": 3103,
      "wide": 3104,
      "therapy": 3105,
      "Exper": 3106,
      "Read": 3107,
      "ographic": 3108,
      "Sum": 3109,
      "tig": 3110,
      "gar": 3111,
      "cut": 3112,
      "rules": 3113,
      "istical": 3114,
      "implement": 3115,
      "status": 3116,
      "push": 3117,
      "words": 3118,
      "Earth": 3119,
      "conditions": 3120,
      "software": 3121,
      "psych": 3122,
      "isk": 3123,
      "spe": 3124,
      "|--------------------": 3125,
      "cycle": 3126,
      "examples": 3127,
      "achieve": 3128,
      "protect": 3129,
      "jor": 3130,
      "urance": 3131,
      "strength": 3132,
      "layer": 3133,
      "Every": 3134,
      "lic": 3135,
      "utional": 3136,
      "political": 3137,
      "heat": 3138,
      "hours": 3139,
      "Pat": 3140,
      "source": 3141,
      "patients": 3142,
      "approx": 3143,
      "gment": 3144,
      "ming": 3145,
      "ove": 3146,
      "Expl": 3147,
      "called": 3148,
      "friendly": 3149,
      "ux": 3150,
      "era": 3151,
      "trade": 3152,
      "stories": 3153,
      "AT": 3154,
      "pir": 3155,
      "thetic": 3156,
      "minutes": 3157,
      ".\"": 3158,
      "pharmac": 3159,
      "SS": 3160,
      "vision": 3161,
      "months": 3162,
      "tissu": 3163,
      "Aud": 3164,
      "LE": 3165,
      "Exam": 3166,
      "something": 3167,
      "moment": 3168,
      "Cost": 3169,
      "Euro": 3170,
      "live": 3171,
      "molec": 3172,
      "experim": 3173,
      "ademic": 3174,
      "temperature": 3175,
      "sect": 3176,
      "parts": 3177,
      "document": 3178,
      "sn": 3179,
      "However": 3180,
      "directly": 3181,
      "introduc": 3182,
      "500": 3183,
      "tual": 3184,
      "ensity": 3185,
      "paper": 3186,
      "ologies": 3187,
      "buy": 3188,
      "average": 3189,
      "mob": 3190,
      "Found": 3191,
      "fra": 3192,
      "biom": 3193,
      "levels": 3194,
      "PyTorch": 3195,
      "fig": 3196,
      "Comput": 3197,
      "required": 3198,
      "cast": 3199,
      "flex": 3200,
      "groups": 3201,
      "rigor": 3202,
      "tow": 3203,
      "direc": 3204,
      "arter": 3205,
      "ugg": 3206,
      "itions": 3207,
      "planning": 3208,
      "programs": 3209,
      "principles": 3210,
      "apeu": 3211,
      "unit": 3212,
      "Open": 3213,
      "uit": 3214,
      "ilience": 3215,
      "projects": 3216,
      "opportunities": 3217,
      "Sub": 3218,
      "teach": 3219,
      "urther": 3220,
      "plant": 3221,
      "international": 3222,
      "hic": 3223,
      "ren": 3224,
      "trib": 3225,
      "Sur": 3226,
      "divers": 3227,
      "lot": 3228,
      "metabol": 3229,
      "Integration": 3230,
      "Bre": 3231,
      "Lif": 3232,
      "file": 3233,
      "budget": 3234,
      "asks": 3235,
      "encing": 3236,
      "encour": 3237,
      "collec": 3238,
      "built": 3239,
      "AC": 3240,
      "electr": 3241,
      "rain": 3242,
      "output": 3243,
      "overall": 3244,
      "far": 3245,
      "win": 3246,
      "advanced": 3247,
      "Practice": 3248,
      "gold": 3249,
      "fix": 3250,
      "American": 3251,
      "Cur": 3252,
      "working": 3253,
      "================================": 3254,
      "Energy": 3255,
      ".”*": 3256,
      "bodies": 3257,
      "cholar": 3258,
      "ML": 3259,
      "Tim": 3260,
      "nn": 3261,
      "campaign": 3262,
      "behind": 3263,
      "--|": 3264,
      "front": 3265,
      "Fin": 3266,
      "II": 3267,
      "Mis": 3268,
      "ishing": 3269,
      "Log": 3270,
      "prob": 3271,
      "shif": 3272,
      "elling": 3273,
      "activity": 3274,
      "PC": 3275,
      "ifies": 3276,
      "Cap": 3277,
      "scal": 3278,
      "appear": 3279,
      "ularly": 3280,
      "little": 3281,
      "Test": 3282,
      "technical": 3283,
      "remains": 3284,
      "vention": 3285,
      "efficiency": 3286,
      "uration": 3287,
      "traffic": 3288,
      "instance": 3289,
      "embed": 3290,
      "Del": 3291,
      "Typ": 3292,
      "onic": 3293,
      "whether": 3294,
      "application": 3295,
      "navigate": 3296,
      "locks": 3297,
      "note": 3298,
      "2023": 3299,
      "ideas": 3300,
      "functional": 3301,
      "Ed": 3302,
      "mitig": 3303,
      "Tool": 3304,
      "Sk": 3305,
      "carr": 3306,
      "Stat": 3307,
      "cription": 3308,
      ");": 3309,
      "ken": 3310,
      "aves": 3311,
      "above": 3312,
      "phone": 3313,
      "Policy": 3314,
      "Europe": 3315,
      "deb": 3316,
      "skill": 3317,
      "offering": 3318,
      "symbol": 3319,
      "Using": 3320,
      "rise": 3321,
      "outs": 3322,
      "consum": 3323,
      "season": 3324,
      "ogle": 3325,
      "spread": 3326,
      "Implement": 3327,
      "everyone": 3328,
      "Fl": 3329,
      "RNA": 3330,
      "Class": 3331,
      "Review": 3332,
      "asure": 3333,
      "coord": 3334,
      "Mem": 3335,
      "rat": 3336,
      "scenario": 3337,
      "sequences": 3338,
      "empl": 3339,
      "PD": 3340,
      "fill": 3341,
      "compan": 3342,
      "Progr": 3343,
      "Bas": 3344,
      "Eth": 3345,
      "Ret": 3346,
      "enzy": 3347,
      "bar": 3348,
      "lin": 3349,
      "bio": 3350,
      "cases": 3351,
      "stage": 3352,
      "products": 3353,
      "internal": 3354,
      "dam": 3355,
      "tivity": 3356,
      "frastructure": 3357,
      "Cross": 3358,
      "increased": 3359,
      "writing": 3360,
      "Jour": 3361,
      "ativ": 3362,
      "proof": 3363,
      "motion": 3364,
      "regulatory": 3365,
      "Engine": 3366,
      "another": 3367,
      "ampl": 3368,
      "lying": 3369,
      "ensor": 3370,
      "Play": 3371,
      "feature": 3372,
      "progress": 3373,
      "rest": 3374,
      "Multi": 3375,
      "bur": 3376,
      "div": 3377,
      "fric": 3378,
      "Pharmac": 3379,
      "Google": 3380,
      "chann": 3381,
      "looking": 3382,
      "Micro": 3383,
      "date": 3384,
      "acity": 3385,
      "broader": 3386,
      "IT": 3387,
      "Scal": 3388,
      "itors": 3389,
      "correct": 3390,
      "release": 3391,
      "ilit": 3392,
      "advant": 3393,
      "Gene": 3394,
      "cook": 3395,
      "inside": 3396,
      "planet": 3397,
      "profile": 3398,
      "ring": 3399,
      "ancer": 3400,
      "Respon": 3401,
      "Line": 3402,
      "unders": 3403,
      "Are": 3404,
      "ht": 3405,
      "wall": 3406,
      "lean": 3407,
      "contemporary": 3408,
      "Recent": 3409,
      "Development": 3410,
      "aut": 3411,
      "adapt": 3412,
      "dren": 3413,
      "param": 3414,
      "goal": 3415,
      "involves": 3416,
      "urch": 3417,
      "respect": 3418,
      "goti": 3419,
      "deliver": 3420,
      "transpar": 3421,
      "mut": 3422,
      "options": 3423,
      "Alex": 3424,
      "rein": 3425,
      "Calcul": 3426,
      "comprehensive": 3427,
      "hor": 3428,
      "surve": 3429,
      "bot": 3430,
      "fun": 3431,
      "reson": 3432,
      "apeutic": 3433,
      "..": 3434,
      "areas": 3435,
      "Arch": 3436,
      "Law": 3437,
      "eks": 3438,
      "nal": 3439,
      "cellent": 3440,
      "types": 3441,
      "oration": 3442,
      "chron": 3443,
      "minute": 3444,
      "Av": 3445,
      "Te": 3446,
      "ina": 3447,
      "acing": 3448,
      "ildren": 3449,
      "utor": 3450,
      "continue": 3451,
      "Red": 3452,
      "}\\": 3453,
      "once": 3454,
      "interpre": 3455,
      "major": 3456,
      "Back": 3457,
      "results": 3458,
      "fied": 3459,
      "Oper": 3460,
      "hot": 3461,
      "yl": 3462,
      "antic": 3463,
      "attention": 3464,
      "landscape": 3465,
      "mirr": 3466,
      "needed": 3467,
      "acceler": 3468,
      "hood": 3469,
      "too": 3470,
      "Precisely": 3471,
      "agnos": 3472,
      "MS": 3473,
      "sel": 3474,
      "ero": 3475,
      "distribution": 3476,
      "Good": 3477,
      "total": 3478,
      "connection": 3479,
      "wid": 3480,
      "exc": 3481,
      "ivery": 3482,
      "offic": 3483,
      "clinical": 3484,
      "ricul": 3485,
      "Building": 3486,
      "enabling": 3487,
      "Econ": 3488,
      "sem": 3489,
      "trad": 3490,
      "maintenance": 3491,
      "limited": 3492,
      "Clo": 3493,
      "Tw": 3494,
      "lever": 3495,
      "abilities": 3496,
      "ferences": 3497,
      "History": 3498,
      "Educ": 3499,
      "IP": 3500,
      "stone": 3501,
      "const": 3502,
      "Indi": 3503,
      "bright": 3504,
      "numbers": 3505,
      "Simple": 3506,
      "Public": 3507,
      "uments": 3508,
      "drive": 3509,
      "continuous": 3510,
      "dimension": 3511,
      "situ": 3512,
      "revenue": 3513,
      "lives": 3514,
      "forms": 3515,
      "fire": 3516,
      "frameworks": 3517,
      "Even": 3518,
      "staff": 3519,
      "monitoring": 3520,
      "presence": 3521,
      "uel": 3522,
      "roof": 3523,
      "idden": 3524,
      "signal": 3525,
      "similar": 3526,
      "Look": 3527,
      "sales": 3528,
      "brain": 3529,
      "iated": 3530,
      "ony": 3531,
      "titive": 3532,
      "Bec": 3533,
      "achiev": 3534,
      "Refer": 3535,
      "May": 3536,
      "sun": 3537,
      "elements": 3538,
      "Mach": 3539,
      "Nor": 3540,
      "bon": 3541,
      "ount": 3542,
      "updates": 3543,
      "GPU": 3544,
      "solar": 3545,
      "contact": 3546,
      "ognitive": 3547,
      "ged": 3548,
      "gives": 3549,
      "posure": 3550,
      "feels": 3551,
      "expected": 3552,
      "repe": 3553,
      "sugg": 3554,
      "mediate": 3555,
      "band": 3556,
      "resolution": 3557,
      "ibr": 3558,
      "iber": 3559,
      "ups": 3560,
      "confl": 3561,
      "apprec": 3562,
      "perspec": 3563,
      "problem": 3564,
      "original": 3565,
      "utr": 3566,
      "aways": 3567,
      "precision": 3568,
      "limit": 3569,
      "API": 3570,
      "-|": 3571,
      "produce": 3572,
      "teams": 3573,
      "Access": 3574,
      "separ": 3575,
      "Care": 3576,
      "Well": 3577,
      "bul": 3578,
      "organization": 3579,
      "national": 3580,
      "among": 3581,
      "century": 3582,
      "final": 3583,
      "tour": 3584,
      "net": 3585,
      "2020": 3586,
      "finish": 3587,
      "architecture": 3588,
      "meaning": 3589,
      "Ev": 3590,
      "writ": 3591,
      "sharing": 3592,
      "eters": 3593,
      "sumer": 3594,
      "Common": 3595,
      "45": 3596,
      "walk": 3597,
      "capture": 3598,
      "picture": 3599,
      "necessary": 3600,
      "ceed": 3601,
      "idea": 3602,
      "Assess": 3603,
      "liter": 3604,
      "mig": 3605,
      "icing": 3606,
      "icies": 3607,
      "spot": 3608,
      "Act": 3609,
      "stake": 3610,
      "editing": 3611,
      "Prodrugs": 3612,
      "server": 3613,
      "someone": 3614,
      "disciplinary": 3615,
      "Det": 3616,
      "dive": 3617,
      "flo": 3618,
      "scr": 3619,
      "extract": 3620,
      "Transp": 3621,
      "conversion": 3622,
      "methods": 3623,
      "satis": 3624,
      "International": 3625,
      "likely": 3626,
      "CT": 3627,
      "implications": 3628,
      "soft": 3629,
      "write": 3630,
      "ercise": 3631,
      "component": 3632,
      "transport": 3633,
      "Equ": 3634,
      "oting": 3635,
      "ewel": 3636,
      "depend": 3637,
      "movement": 3638,
      "faith": 3639,
      "joy": 3640,
      "standards": 3641,
      "reduction": 3642,
      "known": 3643,
      "Cancer": 3644,
      "appl": 3645,
      "ios": 3646,
      "Contin": 3647,
      "typically": 3648,
      "smooth": 3649,
      "Syn": 3650,
      "rout": 3651,
      "until": 3652,
      "seen": 3653,
      "usive": 3654,
      "processing": 3655,
      "Doc": 3656,
      "meet": 3657,
      "innovation": 3658,
      "Ah": 3659,
      "vehic": 3660,
      "Their": 3661,
      "Inst": 3662,
      "libr": 3663,
      "|-----------": 3664,
      "website": 3665,
      "Global": 3666,
      "Mus": 3667,
      "ram": 3668,
      "zing": 3669,
      "analytics": 3670,
      "available": 3671,
      "ER": 3672,
      "image": 3673,
      "rigorous": 3674,
      "expression": 3675,
      "operations": 3676,
      "purpose": 3677,
      "AD": 3678,
      "storage": 3679,
      "Land": 3680,
      "purch": 3681,
      "('": 3682,
      "):**": 3683,
      "gent": 3684,
      "spl": 3685,
      "tili": 3686,
      "forces": 3687,
      "mand": 3688,
      "counts": 3689,
      "quickly": 3690,
      "error": 3691,
      "Performance": 3692,
      "Bel": 3693,
      "RO": 3694,
      "effect": 3695,
      "formal": 3696,
      "serves": 3697,
      "ternal": 3698,
      "integrity": 3699,
      "customers": 3700,
      "distinc": 3701,
      "primary": 3702,
      "sources": 3703,
      "warm": 3704,
      "Through": 3705,
      "score": 3706,
      "ception": 3707,
      "credit": 3708,
      "placement": 3709,
      "Safety": 3710,
      "rights": 3711,
      "enge": 3712,
      "Stand": 3713,
      "orders": 3714,
      "maxim": 3715,
      "cing": 3716,
      "cloud": 3717,
      "servation": 3718,
      "structures": 3719,
      "related": 3720,
      "|------------------------": 3721,
      "climate": 3722,
      "cil": 3723,
      "vas": 3724,
      "terms": 3725,
      "ivil": 3726,
      "whole": 3727,
      "researchers": 3728,
      "Quick": 3729,
      "normal": 3730,
      "thought": 3731,
      "Mater": 3732,
      "bro": 3733,
      "spect": 3734,
      "circ": 3735,
      "tun": 3736,
      "Business": 3737,
      "giving": 3738,
      "scholar": 3739,
      "possible": 3740,
      "py": 3741,
      "confirm": 3742,
      "extra": 3743,
      "Because": 3744,
      "gression": 3745,
      "informed": 3746,
      "Matters": 3747,
      "fusion": 3748,
      "lam": 3749,
      "ecks": 3750,
      "uck": 3751,
      "aceu": 3752,
      "ising": 3753,
      "asc": 3754,
      "cool": 3755,
      "Ask": 3756,
      "pathways": 3757,
      "Long": 3758,
      "instruc": 3759,
      "themat": 3760,
      "lip": 3761,
      "cris": 3762,
      "armaceu": 3763,
      "holds": 3764,
      "therapies": 3765,
      "relevant": 3766,
      "tone": 3767,
      "thesis": 3768,
      "fresh": 3769,
      "enter": 3770,
      "wear": 3771,
      "includes": 3772,
      "testing": 3773,
      "payment": 3774,
      "genetic": 3775,
      "property": 3776,
      "National": 3777,
      "Selec": 3778,
      "hes": 3779,
      "Legal": 3780,
      "ned": 3781,
      "edge": 3782,
      "idents": 3783,
      "ags": 3784,
      "healthcare": 3785,
      "factor": 3786,
      "arity": 3787,
      "left": 3788,
      "igence": 3789,
      "employe": 3790,
      "investment": 3791,
      "million": 3792,
      "things": 3793,
      "lies": 3794,
      "itize": 3795,
      "inters": 3796,
      "solutions": 3797,
      "32": 3798,
      "Qual": 3799,
      "mary": 3800,
      "money": 3801,
      "pet": 3802,
      "artic": 3803,
      "begin": 3804,
      "version": 3805,
      "|-------": 3806,
      "message": 3807,
      "Evalu": 3808,
      "Risk": 3809,
      "**—": 3810,
      "loop": 3811,
      "️⃣": 3812,
      "andom": 3813,
      "sets": 3814,
      "confidence": 3815,
      "conversation": 3816,
      "Func": 3817,
      "remember": 3818,
      "result": 3819,
      "genes": 3820,
      "supply": 3821,
      "Organ": 3822,
      "predict": 3823,
      "valuable": 3824,
      "precise": 3825,
      "hab": 3826,
      "ecd": 3827,
      "shop": 3828,
      "series": 3829,
      "curr": 3830,
      "choice": 3831,
      "Optim": 3832,
      "issue": 3833,
      "allel": 3834,
      "Life": 3835,
      "ewelry": 3836,
      "vital": 3837,
      "quanti": 3838,
      "Chapter": 3839,
      "Feed": 3840,
      "Off": 3841,
      "Reduc": 3842,
      "cod": 3843,
      "tension": 3844,
      "input": 3845,
      "ret": 3846,
      "aces": 3847,
      "aving": 3848,
      "cores": 3849,
      "demands": 3850,
      "Lead": 3851,
      "2022": 3852,
      "ierarch": 3853,
      "edical": 3854,
      "ulations": 3855,
      "creates": 3856,
      "communities": 3857,
      "reduced": 3858,
      "copy": 3859,
      "omics": 3860,
      "roles": 3861,
      "Story": 3862,
      "descr": 3863,
      "Market": 3864,
      "Yes": 3865,
      "Chall": 3866,
      "plays": 3867,
      "List": 3868,
      "pen": 3869,
      "aly": 3870,
      "lets": 3871,
      "okine": 3872,
      "transfer": 3873,
      "Mar": 3874,
      "appe": 3875,
      "Apply": 3876,
      "operation": 3877,
      "ler": 3878,
      "Biology": 3879,
      "screen": 3880,
      "equipment": 3881,
      "compar": 3882,
      "weak": 3883,
      "weeks": 3884,
      "cular": 3885,
      "Import": 3886,
      "structured": 3887,
      "Big": 3888,
      "uss": 3889,
      "forcement": 3890,
      "Benef": 3891,
      "enced": 3892,
      "assoc": 3893,
      "objec": 3894,
      "filter": 3895,
      "concerns": 3896,
      "Bal": 3897,
      "La": 3898,
      "Lim": 3899,
      "gi": 3900,
      "pto": 3901,
      "recomm": 3902,
      "academic": 3903,
      "absor": 3904,
      "Tip": 3905,
      "vest": 3906,
      "infrastructure": 3907,
      "conven": 3908,
      "199": 3909,
      "Web": 3910,
      "dou": 3911,
      "sent": 3912,
      "effectively": 3913,
      "commitment": 3914,
      "Am": 3915,
      "touch": 3916,
      "seed": 3917,
      "collaboration": 3918,
      "plate": 3919,
      "positive": 3920,
      "course": 3921,
      "chemical": 3922,
      "Value": 3923,
      "protocols": 3924,
      "Narr": 3925,
      "Ques": 3926,
      "fat": 3927,
      "pin": 3928,
      "resilience": 3929,
      "|----------": 3930,
      "respond": 3931,
      "storytelling": 3932,
      "oil": 3933,
      "ante": 3934,
      "answ": 3935,
      "moving": 3936,
      "datab": 3937,
      "further": 3938,
      "promis": 3939,
      "constrain": 3940,
      "presents": 3941,
      "businesses": 3942,
      "friends": 3943,
      "Her": 3944,
      "Not": 3945,
      "mic": 3946,
      "inate": 3947,
      "thr": 3948,
      "netic": 3949,
      "Chris": 3950,
      "posed": 3951,
      "contract": 3952,
      "otal": 3953,
      "Python": 3954,
      "hal": 3955,
      "ployment": 3956,
      "Know": 3957,
      "bind": 3958,
      "administr": 3959,
      "contain": 3960,
      "manufacturing": 3961,
      "Dem": 3962,
      "hidden": 3963,
      "isn": 3964,
      "resistance": 3965,
      "brief": 3966,
      "armaceutical": 3967,
      "highlights": 3968,
      "assessment": 3969,
      "Dif": 3970,
      "cou": 3971,
      "ww": 3972,
      "stop": 3973,
      "uries": 3974,
      "proced": 3975,
      "Marketing": 3976,
      "demonstrates": 3977,
      "')": 3978,
      "much": 3979,
      "night": 3980,
      "metal": 3981,
      "modeling": 3982,
      "volume": 3983,
      "benefit": 3984,
      "maintaining": 3985,
      "tification": 3986,
      "Su": 3987,
      "ck": 3988,
      "dialogue": 3989,
      "wa": 3990,
      "tise": 3991,
      "Start": 3992,
      "Implications": 3993,
      "privacy": 3994,
      "”**": 3995,
      "trends": 3996,
      "commod": 3997,
      "capital": 3998,
      "physics": 3999,
      "datas": 4000,
      "mathb": 4001,
      "nature": 4002,
      "ects": 4003,
      "Structure": 4004,
      "diverse": 4005,
      "apes": 4006,
      "outh": 4007,
      "urban": 4008,
      "ously": 4009,
      "counter": 4010,
      "rule": 4011,
      "Theory": 4012,
      "acks": 4013,
      "Local": 4014,
      "Map": 4015,
      "cam": 4016,
      "tasks": 4017,
      "eful": 4018,
      "itself": 4019,
      "organizations": 4020,
      "schedule": 4021,
      "',": 4022,
      "Dep": 4023,
      "children": 4024,
      "crete": 4025,
      "cryp": 4026,
      "swe": 4027,
      "therapeutic": 4028,
      "capacity": 4029,
      "animals": 4030,
      "Christi": 4031,
      "Tips": 4032,
      "rem": 4033,
      "omet": 4034,
      "Verify": 4035,
      "che": 4036,
      "exposure": 4037,
      "members": 4038,
      "generation": 4039,
      "sequence": 4040,
      "She": 4041,
      "Spec": 4042,
      "tac": 4043,
      "Part": 4044,
      "late": 4045,
      "functions": 4046,
      "puts": 4047,
      "raw": 4048,
      "store": 4049,
      "comfort": 4050,
      "interaction": 4051,
      "policies": 4052,
      "reflect": 4053,
      "illustrate": 4054,
      "Choose": 4055,
      "ST": 4056,
      "craf": 4057,
      "Requ": 4058,
      "expectations": 4059,
      "Security": 4060,
      "frequency": 4061,
      "Form": 4062,
      "minimal": 4063,
      "sin": 4064,
      "icated": 4065,
      "insurance": 4066,
      "cording": 4067,
      "advent": 4068,
      "Medic": 4069,
      "details": 4070,
      "Advanced": 4071,
      "determin": 4072,
      "manage": 4073,
      "Application": 4074,
      "holders": 4075,
      "revolution": 4076,
      "occur": 4077,
      "interact": 4078,
      "technologies": 4079,
      "records": 4080,
      "Support": 4081,
      "ga": 4082,
      "itable": 4083,
      "ager": 4084,
      "favor": 4085,
      "apy": 4086,
      "Who": 4087,
      "creative": 4088,
      "foundation": 4089,
      "%.": 4090,
      "Show": 4091,
      "tial": 4092,
      "immun": 4093,
      "turning": 4094,
      "solid": 4095,
      "Visual": 4096,
      "batter": 4097,
      "grade": 4098,
      "enses": 4099,
      "thres": 4100,
      "conclusion": 4101,
      "Examples": 4102,
      "oph": 4103,
      "delivery": 4104,
      "PA": 4105,
      "emp": 4106,
      "ads": 4107,
      "never": 4108,
      "Environment": 4109,
      "longer": 4110,
      "Dynamics": 4111,
      "pul": 4112,
      "wal": 4113,
      "”*": 4114,
      "underlying": 4115,
      "career": 4116,
      "ublish": 4117,
      "autom": 4118,
      "faster": 4119,
      "tu": 4120,
      "itage": 4121,
      "Though": 4122,
      "peak": 4123,
      "significance": 4124,
      "ecosystem": 4125,
      "Distr": 4126,
      "ai": 4127,
      "fold": 4128,
      "iles": 4129,
      "exts": 4130,
      "Track": 4131,
      "keeping": 4132,
      "Strategic": 4133,
      "yields": 4134,
      "Famil": 4135,
      "Run": 4136,
      "och": 4137,
      "reports": 4138,
      "loy": 4139,
      "discover": 4140,
      "Deep": 4141,
      "faces": 4142,
      "ifying": 4143,
      "promise": 4144,
      "alty": 4145,
      "always": 4146,
      "ache": 4147,
      "provided": 4148,
      "sites": 4149,
      "healthy": 4150,
      "Day": 4151,
      "Ill": 4152,
      "Year": 4153,
      "Art": 4154,
      "tells": 4155,
      "coverage": 4156,
      "guidelines": 4157,
      "://": 4158,
      "inating": 4159,
      "empower": 4160,
      "prodrugs": 4161,
      "party": 4162,
      "door": 4163,
      "companies": 4164,
      "dle": 4165,
      "ised": 4166,
      "units": 4167,
      "connected": 4168,
      "controlled": 4169,
      "guard": 4170,
      "everyday": 4171,
      "reveal": 4172,
      "22": 4173,
      "Lab": 4174,
      "incorpor": 4175,
      "htt": 4176,
      "entire": 4177,
      "versus": 4178,
      "Cour": 4179,
      "_i": 4180,
      "kind": 4181,
      "true": 4182,
      "partnership": 4183,
      "mes": 4184,
      "State": 4185,
      "linear": 4186,
      "His": 4187,
      "consistent": 4188,
      "Pos": 4189,
      "master": 4190,
      "sus": 4191,
      "atom": 4192,
      "click": 4193,
      "negoti": 4194,
      "oretical": 4195,
      "private": 4196,
      "okinetics": 4197,
      "Vari": 4198,
      "inition": 4199,
      "prep": 4200,
      "Press": 4201,
      "narratives": 4202,
      "rix": 4203,
      "states": 4204,
      "ford": 4205,
      "selection": 4206,
      "config": 4207,
      "Does": 4208,
      "Many": 4209,
      "itude": 4210,
      "boards": 4211,
      "Enh": 4212,
      "government": 4213,
      "35": 4214,
      "plans": 4215,
      "perfect": 4216,
      "reading": 4217,
      "Targeted": 4218,
      "heavy": 4219,
      "alter": 4220,
      "urable": 4221,
      "emb": 4222,
      "diagnos": 4223,
      "Training": 4224,
      "clients": 4225,
      "popular": 4226,
      "innovative": 4227,
      "voice": 4228,
      "club": 4229,
      "pects": 4230,
      "Technical": 4231,
      "mathbf": 4232,
      "Water": 4233,
      "radi": 4234,
      "selec": 4235,
      "ipe": 4236,
      "coach": 4237,
      "sions": 4238,
      "logic": 4239,
      "hyth": 4240,
      "holder": 4241,
      "Code": 4242,
      "dog": 4243,
      "iring": 4244,
      "izer": 4245,
      "enhance": 4246,
      "speak": 4247,
      "Hand": 4248,
      "mium": 4249,
      "arante": 4250,
      "root": 4251,
      "umb": 4252,
      "iple": 4253,
      "dash": 4254,
      "four": 4255,
      "slow": 4256,
      "vel": 4257,
      "neg": 4258,
      "gets": 4259,
      "Avoid": 4260,
      "*—": 4261,
      "MA": 4262,
      "mapping": 4263,
      "arri": 4264,
      "United": 4265,
      "logs": 4266,
      "green": 4267,
      "Critical": 4268,
      "Service": 4269,
      "Narrative": 4270,
      "crow": 4271,
      "nic": 4272,
      "ened": 4273,
      "images": 4274,
      "Initi": 4275,
      "echo": 4276,
      "facilit": 4277,
      "properties": 4278,
      "Mid": 4279,
      "rop": 4280,
      "species": 4281,
      "maps": 4282,
      "spr": 4283,
      "stim": 4284,
      "initial": 4285,
      "mobile": 4286,
      "Non": 4287,
      "lack": 4288,
      "ert": 4289,
      "plicit": 4290,
      "viol": 4291,
      "window": 4292,
      "ffic": 4293,
      "thus": 4294,
      "enough": 4295,
      "resource": 4296,
      "inves": 4297,
      "Emerg": 4298,
      "connections": 4299,
      "CC": 4300,
      "}\\)": 4301,
      "sphere": 4302,
      "Comb": 4303,
      "virtual": 4304,
      "sounds": 4305,
      "sessions": 4306,
      "SD": 4307,
      "estic": 4308,
      "external": 4309,
      "blue": 4310,
      "surround": 4311,
      "Record": 4312,
      "larger": 4313,
      "algorithms": 4314,
      "investig": 4315,
      "batch": 4316,
      "**“": 4317,
      "idity": 4318,
      "Clinical": 4319,
      "families": 4320,
      "Guide": 4321,
      "regulation": 4322,
      "going": 4323,
      "central": 4324,
      "town": 4325,
      "inates": 4326,
      "Prov": 4327,
      "Auto": 4328,
      "Economic": 4329,
      "\\),": 4330,
      "_0": 4331,
      "amental": 4332,
      "odynamics": 4333,
      "detect": 4334,
      "label": 4335,
      "istry": 4336,
      "involved": 4337,
      "Low": 4338,
      "My": 4339,
      "War": 4340,
      "tigh": 4341,
      "etch": 4342,
      "transition": 4343,
      "regular": 4344,
      "section": 4345,
      "fields": 4346,
      "Write": 4347,
      "Cell": 4348,
      "sle": 4349,
      "construc": 4350,
      "Stre": 4351,
      "film": 4352,
      "Its": 4353,
      "bill": 4354,
      "qual": 4355,
      "Char": 4356,
      "request": 4357,
      "subtle": 4358,
      "folio": 4359,
      "activities": 4360,
      "mechanical": 4361,
      "Machine": 4362,
      "(`": 4363,
      "coming": 4364,
      "yourself": 4365,
      "Prot": 4366,
      "seeking": 4367,
      "uly": 4368,
      "coll": 4369,
      "accuracy": 4370,
      "Sof": 4371,
      "length": 4372,
      "orts": 4373,
      "stability": 4374,
      "covery": 4375,
      "choose": 4376,
      "vironments": 4377,
      "improvement": 4378,
      "Foc": 4379,
      "Note": 4380,
      "jus": 4381,
      "taking": 4382,
      "zz": 4383,
      "Exec": 4384,
      "Ensure": 4385,
      "hydro": 4386,
      "References": 4387,
      "Link": 4388,
      "RAM": 4389,
      "cause": 4390,
      "rad": 4391,
      "spat": 4392,
      "expertise": 4393,
      "falls": 4394,
      "Considerations": 4395,
      "easy": 4396,
      "hon": 4397,
      "inhib": 4398,
      "Load": 4399,
      "aligns": 4400,
      "pieces": 4401,
      "milest": 4402,
      "Sched": 4403,
      "aes": 4404,
      "ype": 4405,
      "blend": 4406,
      "background": 4407,
      "continu": 4408,
      "combination": 4409,
      "improved": 4410,
      "Right": 4411,
      "da": 4412,
      "song": 4413,
      "script": 4414,
      "elim": 4415,
      "quis": 4416,
      "electric": 4417,
      "involve": 4418,
      "professionals": 4419,
      "Strategy": 4420,
      "Memory": 4421,
      "Grow": 4422,
      "Har": 4423,
      "dy": 4424,
      "says": 4425,
      "ibilities": 4426,
      "engaging": 4427,
      "office": 4428,
      "looks": 4429,
      "audit": 4430,
      "sustainable": 4431,
      "Sust": 4432,
      "itics": 4433,
      "women": 4434,
      "exempl": 4435,
      "antum": 4436,
      "proved": 4437,
      "Socratic": 4438,
      "Regul": 4439,
      "Direc": 4440,
      "utorial": 4441,
      "IN": 4442,
      "ister": 4443,
      "Adjust": 4444,
      "Elec": 4445,
      "Pay": 4446,
      "gather": 4447,
      "kg": 4448,
      "inated": 4449,
      "matter": 4450,
      "matically": 4451,
      "sheet": 4452,
      "density": 4453,
      "rist": 4454,
      "eration": 4455,
      "onto": 4456,
      "altern": 4457,
      "isol": 4458,
      "least": 4459,
      "marks": 4460,
      "particularly": 4461,
      "places": 4462,
      "hosp": 4463,
      "antit": 4464,
      "ody": 4465,
      "phen": 4466,
      "────": 4467,
      "distinct": 4468,
      "Pred": 4469,
      "turns": 4470,
      "Collabor": 4471,
      "reflects": 4472,
      "Game": 4473,
      "Offer": 4474,
      "Ter": 4475,
      "ecast": 4476,
      "Scenario": 4477,
      "Online": 4478,
      "opportunity": 4479,
      "Effec": 4480,
      "Quality": 4481,
      "tang": 4482,
      "focused": 4483,
      "Method": 4484,
      "?”*": 4485,
      "spiritual": 4486,
      "Air": 4487,
      "tend": 4488,
      "poly": 4489,
      "developing": 4490,
      "Engagement": 4491,
      "Physical": 4492,
      "Document": 4493,
      "mine": 4494,
      "piv": 4495,
      "threat": 4496,
      "ilos": 4497,
      "strugg": 4498,
      "alignment": 4499,
      "Frame": 4500,
      "damage": 4501,
      "written": 4502,
      "spatial": 4503,
      "Less": 4504,
      "Content": 4505,
      "inste": 4506,
      "measures": 4507,
      "ais": 4508,
      "him": 4509,
      "close": 4510,
      "Fol": 4511,
      "cand": 4512,
      "offee": 4513,
      "itiv": 4514,
      "criter": 4515,
      "Before": 4516,
      "constant": 4517,
      "dates": 4518,
      "jud": 4519,
      "univers": 4520,
      "acknow": 4521,
      "experiment": 4522,
      "GD": 4523,
      "Suc": 4524,
      "fuel": 4525,
      "jewelry": 4526,
      "imaging": 4527,
      "notes": 4528,
      "pathy": 4529,
      "challenge": 4530,
      "Setting": 4531,
      "Joh": 4532,
      "reput": 4533,
      "ably": 4534,
      "ogen": 4535,
      "2019": 4536,
      "breath": 4537,
      "complexities": 4538,
      "Technology": 4539,
      "segment": 4540,
      "greeting": 4541,
      "analyze": 4542,
      "proteins": 4543,
      "ethical": 4544,
      "tissue": 4545,
      "items": 4546,
      "integrated": 4547,
      "protection": 4548,
      "Takeaway": 4549,
      "Outcome": 4550,
      "existing": 4551,
      "eye": 4552,
      "Foundations": 4553,
      "64": 4554,
      "environments": 4555,
      "icate": 4556,
      "toy": 4557,
      "exchange": 4558,
      "Align": 4559,
      "Sustain": 4560,
      "75": 4561,
      "Ma": 4562,
      "org": 4563,
      "developers": 4564,
      "centric": 4565,
      "static": 4566,
      "mechanics": 4567,
      "requirements": 4568,
      "Feedback": 4569,
      "Sym": 4570,
      "diseases": 4571,
      "Light": 4572,
      "fair": 4573,
      "ulner": 4574,
      "monitor": 4575,
      "smart": 4576,
      "Media": 4577,
      "Define": 4578,
      "shifts": 4579,
      "blocks": 4580,
      "games": 4581,
      "artis": 4582,
      "format": 4583,
      "noise": 4584,
      "towards": 4585,
      "Cred": 4586,
      "inf": 4587,
      "iding": 4588,
      "craft": 4589,
      "Provide": 4590,
      "automatically": 4591,
      "shaped": 4592,
      "Distrib": 4593,
      "Success": 4594,
      "tes": 4595,
      "amount": 4596,
      "Christ": 4597,
      "anger": 4598,
      "Science": 4599,
      "illustrates": 4600,
      "\\,\\": 4601,
      "Prom": 4602,
      "given": 4603,
      "tum": 4604,
      "elves": 4605,
      "epend": 4606,
      "modules": 4607,
      "Adap": 4608,
      "instructions": 4609,
      "gers": 4610,
      "mers": 4611,
      "weather": 4612,
      "boost": 4613,
      "applied": 4614,
      "LA": 4615,
      "Sal": 4616,
      "Vol": 4617,
      "\\$": 4618,
      "usage": 4619,
      "dry": 4620,
      "Students": 4621,
      "ancy": 4622,
      "operational": 4623,
      "Overview": 4624,
      "categ": 4625,
      "oral": 4626,
      "scores": 4627,
      "histor": 4628,
      "Applications": 4629,
      "handling": 4630,
      "Takeaways": 4631,
      "basic": 4632,
      "stead": 4633,
      "European": 4634,
      "Ethical": 4635,
      "crisis": 4636,
      ")*": 4637,
      "Path": 4638,
      "Port": 4639,
      "fish": 4640,
      "consumer": 4641,
      "independ": 4642,
      "detection": 4643,
      "Strategies": 4644,
      "nutr": 4645,
      "constraints": 4646,
      "Regulatory": 4647,
      "ME": 4648,
      "Num": 4649,
      "Ur": 4650,
      "risks": 4651,
      "domestic": 4652,
      "prioritize": 4653,
      "Govern": 4654,
      "ective": 4655,
      "Incre": 4656,
      "center": 4657,
      "failure": 4658,
      "biomedical": 4659,
      "antitative": 4660,
      "CS": 4661,
      "Self": 4662,
      "infl": 4663,
      "medi": 4664,
      "settings": 4665,
      "regional": 4666,
      "migration": 4667,
      "Based": 4668,
      "aul": 4669,
      "squ": 4670,
      "option": 4671,
      "evaluate": 4672,
      "conflict": 4673,
      "income": 4674,
      "along": 4675,
      "agre": 4676,
      "statement": 4677,
      "Cloud": 4678,
      "distance": 4679,
      "Summary": 4680,
      "Cy": 4681,
      "anx": 4682,
      "rot": 4683,
      "index": 4684,
      "engage": 4685,
      "--------------------------------": 4686,
      "Checklist": 4687,
      "Effic": 4688,
      "Typical": 4689,
      "satisf": 4690,
      "DA": 4691,
      "Pur": 4692,
      "Pot": 4693,
      "ades": 4694,
      "perce": 4695,
      "news": 4696,
      "activation": 4697,
      "books": 4698,
      "https": 4699,
      "Afric": 4700,
      "HR": 4701,
      "bone": 4702,
      "ederal": 4703,
      "guarante": 4704,
      "Instit": 4705,
      "Program": 4706,
      "CB": 4707,
      "Script": 4708,
      "hierarch": 4709,
      "rhyth": 4710,
      "leaders": 4711,
      "introduced": 4712,
      "Illustr": 4713,
      "Ag": 4714,
      "Gro": 4715,
      "GIS": 4716,
      "essor": 4717,
      "Conn": 4718,
      "driving": 4719,
      "compet": 4720,
      "Measure": 4721,
      "cycles": 4722,
      "Feature": 4723,
      "receive": 4724,
      "ecdote": 4725,
      "son": 4726,
      "commerc": 4727,
      "explain": 4728,
      "accurate": 4729,
      "renew": 4730,
      "checks": 4731,
      "University": 4732,
      "leads": 4733,
      "reliable": 4734,
      "enable": 4735,
      "amin": 4736,
      "additional": 4737,
      "skin": 4738,
      "audio": 4739,
      "limits": 4740,
      "|-------------": 4741,
      "2000": 4742,
      "elev": 4743,
      "invent": 4744,
      "integrating": 4745,
      "efficacy": 4746,
      "Disc": 4747,
      "participants": 4748,
      "eel": 4749,
      "saw": 4750,
      "unte": 4751,
      "imal": 4752,
      "everything": 4753,
      "advance": 4754,
      "Decision": 4755,
      "institutions": 4756,
      "Christian": 4757,
      "\",": 4758,
      "refer": 4759,
      "repair": 4760,
      "heritage": 4761,
      "adding": 4762,
      "successful": 4763,
      "scientists": 4764,
      "commercial": 4765,
      "El": 4766,
      "Jes": 4767,
      "LS": 4768,
      "tries": 4769,
      "metic": 4770,
      "turing": 4771,
      "topic": 4772,
      "laws": 4773,
      "improving": 4774,
      "increasingly": 4775,
      "bs": 4776,
      "du": 4777,
      "surv": 4778,
      "themes": 4779,
      "Book": 4780,
      "Card": 4781,
      "During": 4782,
      "hous": 4783,
      "thems": 4784,
      "shops": 4785,
      "Comple": 4786,
      "Compar": 4787,
      "solution": 4788,
      "instant": 4789,
      "dedicated": 4790,
      "teacher": 4791,
      "waste": 4792,
      "oul": 4793,
      "created": 4794,
      "country": 4795,
      "Autom": 4796,
      "Jesus": 4797,
      "vey": 4798,
      "insight": 4799,
      "promoting": 4800,
      "instead": 4801,
      "atility": 4802,
      "usually": 4803,
      "tempor": 4804,
      "mathemat": 4805,
      "Super": 4806,
      "themselves": 4807,
      "CD": 4808,
      "East": 4809,
      "Home": 4810,
      "osing": 4811,
      "remin": 4812,
      "consequences": 4813,
      "clin": 4814,
      "ector": 4815,
      "ails": 4816,
      "fundamental": 4817,
      "User": 4818,
      "pick": 4819,
      "instr": 4820,
      "scop": 4821,
      "verse": 4822,
      "statistical": 4823,
      "Challenges": 4824,
      "database": 4825,
      "Word": 4826,
      "cele": 4827,
      "embr": 4828,
      "flavor": 4829,
      "increases": 4830,
      "emergency": 4831,
      "Education": 4832,
      "ds": 4833,
      "attrib": 4834,
      "abil": 4835,
      "express": 4836,
      "ventions": 4837,
      "representation": 4838,
      "mel": 4839,
      "ansion": 4840,
      "Platform": 4841,
      "onomy": 4842,
      "changing": 4843,
      "courage": 4844,
      "shaping": 4845,
      "hardware": 4846,
      "celebr": 4847,
      "Dialogue": 4848,
      "takes": 4849,
      "enables": 4850,
      "otes": 4851,
      "subs": 4852,
      "schedul": 4853,
      "ratio": 4854,
      "Psych": 4855,
      "Special": 4856,
      "Journal": 4857,
      "48": 4858,
      "iar": 4859,
      "awar": 4860,
      "True": 4861,
      "society": 4862,
      "Once": 4863,
      "expand": 4864,
      "launch": 4865,
      "Find": 4866,
      "Sw": 4867,
      "Us": 4868,
      "already": 4869,
      "ung": 4870,
      "neigh": 4871,
      "Studies": 4872,
      "flag": 4873,
      "artment": 4874,
      "Week": 4875,
      "typical": 4876,
      "routine": 4877,
      "Lev": 4878,
      "simply": 4879,
      "reviews": 4880,
      "transparency": 4881,
      "Cer": 4882,
      "Call": 4883,
      "cas": 4884,
      "sell": 4885,
      "worth": 4886,
      "pharmaceutical": 4887,
      "Proof": 4888,
      "Project": 4889,
      "views": 4890,
      "contrast": 4891,
      "guidance": 4892,
      "itchen": 4893,
      "advantage": 4894,
      "Age": 4895,
      "bow": 4896,
      "dig": 4897,
      "won": 4898,
      "ley": 4899,
      "prodrug": 4900,
      "locking": 4901,
      "personalized": 4902,
      "bridge": 4903,
      "availability": 4904,
      "civil": 4905,
      "ng": 4906,
      "scan": 4907,
      "task": 4908,
      "ulin": 4909,
      "Int": 4910,
      "|--------------": 4911,
      "traject": 4912,
      "problems": 4913,
      "boundaries": 4914,
      "morning": 4915,
      "token": 4916,
      "chat": 4917,
      "excellent": 4918,
      "seem": 4919,
      "motiv": 4920,
      "2018": 4921,
      "2024": 4922,
      "People": 4923,
      "Standard": 4924,
      "fre": 4925,
      "vulner": 4926,
      "actors": 4927,
      "complexity": 4928,
      "evolving": 4929,
      "describ": 4930,
      "associated": 4931,
      "28": 4932,
      "dot": 4933,
      "vic": 4934,
      "inten": 4935,
      "Priv": 4936,
      "Additional": 4937,
      "supports": 4938,
      "files": 4939,
      "competitive": 4940,
      "^{-": 4941,
      "Happ": 4942,
      "Tod": 4943,
      "rely": 4944,
      "reward": 4945,
      "idential": 4946,
      "prop": 4947,
      "construction": 4948,
      "handle": 4949,
      "having": 4950,
      "Bet": 4951,
      "Block": 4952,
      "CA": 4953,
      "Pack": 4954,
      "intric": 4955,
      "rock": 4956,
      "quarter": 4957,
      "Exp": 4958,
      "continues": 4959,
      "probability": 4960,
      "stakeholders": 4961,
      "crypto": 4962,
      "unk": 4963,
      "clust": 4964,
      "recover": 4965,
      "flows": 4966,
      "tiveness": 4967,
      "positions": 4968,
      "robot": 4969,
      "underscores": 4970,
      "(\\": 4971,
      "Spe": 4972,
      "gas": 4973,
      "ums": 4974,
      "hands": 4975,
      "Suppose": 4976,
      "psychological": 4977,
      "awareness": 4978,
      "Clear": 4979,
      "Ho": 4980,
      "fine": 4981,
      "reference": 4982,
      "idate": 4983,
      "experi": 4984,
      "leadership": 4985,
      "treatments": 4986,
      "Experience": 4987,
      "vehicle": 4988,
      "))": 4989,
      "tech": 4990,
      "meeting": 4991,
      "Share": 4992,
      "sensitive": 4993,
      "Follow": 4994,
      "cognitive": 4995,
      "pool": 4996,
      "Flow": 4997,
      "Top": 4998,
      "Treat": 4999,
      "grav": 5000,
      "responsible": 5001,
      "indicates": 5002,
      "21": 5003,
      "GB": 5004,
      "Make": 5005,
      "Text": 5006,
      "pow": 5007,
      "acro": 5008,
      "effort": 5009,
      "visit": 5010,
      "2021": 5011,
      "Continuous": 5012,
      "300": 5013,
      "Gold": 5014,
      "redi": 5015,
      "ingredi": 5016,
      "moves": 5017,
      "playing": 5018,
      "developments": 5019,
      "translate": 5020,
      "Assessment": 5021,
      "library": 5022,
      "Rom": 5023,
      "Vir": 5024,
      "cues": 5025,
      "gear": 5026,
      "gest": 5027,
      "gaps": 5028,
      "aspect": 5029,
      "clud": 5030,
      "compared": 5031,
      "Appro": 5032,
      "examine": 5033,
      "tangible": 5034,
      "?\"": 5035,
      "Rate": 5036,
      "dual": 5037,
      "sometimes": 5038,
      "evolve": 5039,
      "ativity": 5040,
      "double": 5041,
      "Need": 5042,
      "bus": 5043,
      "brow": 5044,
      "kids": 5045,
      "tests": 5046,
      "ycl": 5047,
      "concrete": 5048,
      "driver": 5049,
      "ancient": 5050,
      "runs": 5051,
      "pipeline": 5052,
      "highlighting": 5053,
      "itivity": 5054,
      "Today": 5055,
      "Camp": 5056,
      "Dynamic": 5057,
      "Ger": 5058,
      "ague": 5059,
      "imag": 5060,
      "Maintain": 5061,
      "trigger": 5062,
      "parameters": 5063,
      "!”": 5064,
      "IM": 5065,
      "crim": 5066,
      "collection": 5067,
      "documents": 5068,
      "savings": 5069,
      "Signific": 5070,
      "Clean": 5071,
      "ET": 5072,
      "icon": 5073,
      "explored": 5074,
      "complete": 5075,
      "lighting": 5076,
      "merely": 5077,
      "listen": 5078,
      "population": 5079,
      "initiatives": 5080,
      "condition": 5081,
      "flexibility": 5082,
      "enjoy": 5083,
      "diam": 5084,
      "Prote": 5085,
      "profit": 5086,
      "difference": 5087,
      "thinking": 5088,
      "optimal": 5089,
      "width": 5090,
      "Like": 5091,
      "Mil": 5092,
      "}\\).": 5093,
      "idation": 5094,
      "white": 5095,
      "Inc": 5096,
      "phr": 5097,
      "cultures": 5098,
      "refine": 5099,
      "greetings": 5100,
      "consumption": 5101,
      "floor": 5102,
      "Sol": 5103,
      "accommod": 5104,
      "amm": 5105,
      "ensors": 5106,
      "authenticity": 5107,
      "sis": 5108,
      "interplay": 5109,
      "physi": 5110,
      "aligning": 5111,
      "rooms": 5112,
      "happens": 5113,
      "sustainability": 5114,
      "Family": 5115,
      "Bul": 5116,
      "Evolution": 5117,
      "ners": 5118,
      "pull": 5119,
      "church": 5120,
      "ulting": 5121,
      "States": 5122,
      "approaches": 5123,
      "Reflection": 5124,
      "bits": 5125,
      "tensor": 5126,
      "else": 5127,
      "premium": 5128,
      "Models": 5129,
      "hybrid": 5130,
      "Communication": 5131,
      "Two": 5132,
      "Transpar": 5133,
      "GO": 5134,
      "wave": 5135,
      "sty": 5136,
      "adver": 5137,
      "irth": 5138,
      "otor": 5139,
      "liqu": 5140,
      "ava": 5141,
      "previ": 5142,
      "curricul": 5143,
      "promote": 5144,
      "injury": 5145,
      "pa": 5146,
      "texture": 5147,
      "allowed": 5148,
      "zation": 5149,
      "etc": 5150,
      "2015": 5151,
      "Loss": 5152,
      "gentle": 5153,
      "HT": 5154,
      "five": 5155,
      "voc": 5156,
      "Them": 5157,
      "amed": 5158,
      "exhib": 5159,
      "Where": 5160,
      "peer": 5161,
      "structural": 5162,
      "analog": 5163,
      "partner": 5164,
      "educational": 5165,
      "domain": 5166,
      "Tools": 5167,
      "carry": 5168,
      "PI": 5169,
      "cm": 5170,
      "fasc": 5171,
      "greg": 5172,
      "nodes": 5173,
      "atin": 5174,
      "itness": 5175,
      "ula": 5176,
      "Invest": 5177,
      "display": 5178,
      "height": 5179,
      "exploration": 5180,
      "balanced": 5181,
      "preserving": 5182,
      "Industr": 5183,
      "Benefits": 5184,
      "adventure": 5185,
      "perceived": 5186,
      "ES": 5187,
      "Event": 5188,
      "Gree": 5189,
      "Park": 5190,
      "nel": 5191,
      "ries": 5192,
      "erate": 5193,
      "university": 5194,
      "spark": 5195,
      "numer": 5196,
      "glass": 5197,
      "governance": 5198,
      "institutional": 5199,
      "Pass": 5200,
      "Sil": 5201,
      "atmo": 5202,
      "prepar": 5203,
      "baseline": 5204,
      "Hol": 5205,
      "Next": 5206,
      "kit": 5207,
      "rid": 5208,
      "stick": 5209,
      "workers": 5210,
      "End": 5211,
      "simpl": 5212,
      "monthly": 5213,
      "bank": 5214,
      "purchase": 5215,
      "65": 5216,
      "Net": 5217,
      "lation": 5218,
      "pal": 5219,
      "publish": 5220,
      "random": 5221,
      "uge": 5222,
      "There": 5223,
      "Information": 5224,
      "Compliance": 5225,
      "constit": 5226,
      "arian": 5227,
      "lift": 5228,
      "remote": 5229,
      "Fund": 5230,
      "tips": 5231,
      "amb": 5232,
      "comfor": 5233,
      "upon": 5234,
      "creation": 5235,
      "nings": 5236,
      "markets": 5237,
      "Short": 5238,
      "targets": 5239,
      "fostering": 5240,
      "perspective": 5241,
      "catch": 5242,
      "inner": 5243,
      "useful": 5244,
      "agency": 5245,
      "audiences": 5246,
      "below": 5247,
      "Grad": 5248,
      "momentum": 5249,
      "Team": 5250,
      "India": 5251,
      "stable": 5252,
      "lege": 5253,
      "ocity": 5254,
      "flash": 5255,
      "marked": 5256,
      "hypo": 5257,
      "Brand": 5258,
      "channel": 5259,
      "Potential": 5260,
      "EU": 5261,
      "Ren": 5262,
      "coffee": 5263,
      "tif": 5264,
      "plies": 5265,
      "interests": 5266,
      "eward": 5267,
      "heard": 5268,
      "Customer": 5269,
      "Install": 5270,
      "Importance": 5271,
      "anxiety": 5272,
      "City": 5273,
      "Search": 5274,
      "Wind": 5275,
      "moun": 5276,
      "utili": 5277,
      "partial": 5278,
      "locate": 5279,
      "poses": 5280,
      "added": 5281,
      "Professor": 5282,
      "magnetic": 5283,
      "Evidence": 5284,
      "Significance": 5285,
      "Fil": 5286,
      "Mag": 5287,
      "School": 5288,
      "instruction": 5289,
      "compass": 5290,
      "Medical": 5291,
      "Profession": 5292,
      "claims": 5293,
      "Focus": 5294,
      "remind": 5295,
      "Concept": 5296,
      "desired": 5297,
      "choices": 5298,
      "tility": 5299,
      "Break": 5300,
      "nur": 5301,
      "utive": 5302,
      "ison": 5303,
      "abstr": 5304,
      "trend": 5305,
      "democ": 5306,
      "talent": 5307,
      "harmon": 5308,
      "applying": 5309,
      "quisition": 5310,
      "Get": 5311,
      "Tur": 5312,
      "third": 5313,
      "entry": 5314,
      "lists": 5315,
      "differenti": 5316,
      "legacy": 5317,
      "detailed": 5318,
      "Services": 5319,
      "parents": 5320,
      "matrix": 5321,
      "adds": 5322,
      "Planning": 5323,
      "vascular": 5324,
      "FA": 5325,
      "Layer": 5326,
      "manual": 5327,
      "update": 5328,
      "scientific": 5329,
      "pirical": 5330,
      "MP": 5331,
      "Mix": 5332,
      "ault": 5333,
      "scrip": 5334,
      "ana": 5335,
      "cannot": 5336,
      "fees": 5337,
      "annual": 5338,
      "optimizer": 5339,
      "Environmental": 5340,
      "Sat": 5341,
      "gate": 5342,
      "conc": 5343,
      "197": 5344,
      "generate": 5345,
      "Metrics": 5346,
      "SEO": 5347,
      "sweet": 5348,
      "satisfaction": 5349,
      "Russ": 5350,
      "Talk": 5351,
      "lux": 5352,
      "orient": 5353,
      "stack": 5354,
      "neural": 5355,
      "compat": 5356,
      "classic": 5357,
      "silver": 5358,
      "UI": 5359,
      "mist": 5360,
      "theoretical": 5361,
      "aring": 5362,
      "ette": 5363,
      "amless": 5364,
      "extr": 5365,
      "shot": 5366,
      "assign": 5367,
      "mode": 5368,
      "Travel": 5369,
      "Goal": 5370,
      "element": 5371,
      "messages": 5372,
      "figure": 5373,
      "giant": 5374,
      "hospital": 5375,
      "(“": 5376,
      "hub": 5377,
      "erts": 5378,
      "tile": 5379,
      "icks": 5380,
      "apped": 5381,
      "reported": 5382,
      "algorithm": 5383,
      "acknowled": 5384,
      "iform": 5385,
      "dram": 5386,
      "dose": 5387,
      "reality": 5388,
      "focusing": 5389,
      "Fri": 5390,
      "channels": 5391,
      "objectives": 5392,
      "sleep": 5393,
      "Type": 5394,
      "bond": 5395,
      "bench": 5396,
      "mg": 5397,
      "na": 5398,
      "trip": 5399,
      "prise": 5400,
      "beta": 5401,
      "reads": 5402,
      "makers": 5403,
      "Geography": 5404,
      "CL": 5405,
      "hur": 5406,
      "represents": 5407,
      "truly": 5408,
      "Innov": 5409,
      "disrup": 5410,
      "discovery": 5411,
      "tracking": 5412,
      "Space": 5413,
      "Face": 5414,
      "fans": 5415,
      "isation": 5416,
      "asking": 5417,
      "forts": 5418,
      "abric": 5419,
      "dition": 5420,
      "developed": 5421,
      "football": 5422,
      "manufactur": 5423,
      "Scale": 5424,
      "reminder": 5425,
      "120": 5426,
      "RE": 5427,
      "Rob": 5428,
      "gence": 5429,
      "conduc": 5430,
      "Whether": 5431,
      "demonstrate": 5432,
      "recognition": 5433,
      "linked": 5434,
      "latest": 5435,
      "consistency": 5436,
      "tissues": 5437,
      "Engineering": 5438,
      "planetary": 5439,
      "Below": 5440,
      "Growth": 5441,
      "Don": 5442,
      "Vide": 5443,
      "farm": 5444,
      "km": 5445,
      "lease": 5446,
      "uncertain": 5447,
      "mately": 5448,
      "ownership": 5449,
      "subject": 5450,
      "eneur": 5451,
      "sensors": 5452,
      "================================================": 5453,
      "links": 5454,
      "separate": 5455,
      "(\"": 5456,
      "Master": 5457,
      "citiz": 5458,
      "fel": 5459,
      "node": 5460,
      "zero": 5461,
      "uting": 5462,
      "began": 5463,
      "ongo": 5464,
      "growing": 5465,
      "facts": 5466,
      "emotions": 5467,
      "recognize": 5468,
      "shapes": 5469,
      "animal": 5470,
      "suggest": 5471,
      "QL": 5472,
      "len": 5473,
      "arrow": 5474,
      "string": 5475,
      "pricing": 5476,
      "pha": 5477,
      "compound": 5478,
      "2017": 5479,
      "doing": 5480,
      "Princ": 5481,
      "defined": 5482,
      "preced": 5483,
      "findings": 5484,
      "Spir": 5485,
      "Mini": 5486,
      "Blue": 5487,
      "pm": 5488,
      "aspects": 5489,
      "aches": 5490,
      "fluid": 5491,
      "carbon": 5492,
      "Differ": 5493,
      "negative": 5494,
      "AL": 5495,
      "Bio": 5496,
      "IR": 5497,
      "parallel": 5498,
      "frag": 5499,
      "angle": 5500,
      "loads": 5501,
      "limitations": 5502,
      "half": 5503,
      "Position": 5504,
      "Hard": 5505,
      "PT": 5506,
      "fear": 5507,
      "wise": 5508,
      "forecast": 5509,
      "exceed": 5510,
      "imate": 5511,
      "immediate": 5512,
      "Employ": 5513,
      "steel": 5514,
      "computers": 5515,
      "Landscape": 5516,
      "recommend": 5517,
      "Ide": 5518,
      "insp": 5519,
      "Proble": 5520,
      "death": 5521,
      "medium": 5522,
      "careful": 5523,
      "nuances": 5524,
      "Architecture": 5525,
      "hit": 5526,
      "wood": 5527,
      "accept": 5528,
      "according": 5529,
      "plain": 5530,
      "umps": 5531,
      "|----------------|": 5532,
      "listening": 5533,
      "gluc": 5534,
      "contribute": 5535,
      "uff": 5536,
      "seas": 5537,
      "preneur": 5538,
      "earli": 5539,
      "assets": 5540,
      "markdown": 5541,
      "refers": 5542,
      "appreciate": 5543,
      "surrounding": 5544,
      "Greek": 5545,
      "SO": 5546,
      "ibe": 5547,
      "ensing": 5548,
      "title": 5549,
      "defense": 5550,
      "anticip": 5551,
      "employees": 5552,
      "Full": 5553,
      "MB": 5554,
      "kitchen": 5555,
      "rating": 5556,
      "sugar": 5557,
      "motional": 5558,
      "prev": 5559,
      "throughout": 5560,
      "accessible": 5561,
      "measurable": 5562,
      "transformation": 5563,
      "missions": 5564,
      "Definition": 5565,
      "Closing": 5566,
      "niche": 5567,
      "Tok": 5568,
      "jection": 5569,
      "zone": 5570,
      "sports": 5571,
      "parad": 5572,
      "corner": 5573,
      "patch": 5574,
      "incident": 5575,
      "general": 5576,
      "Political": 5577,
      "videos": 5578,
      "started": 5579,
      "regulations": 5580,
      "mitigate": 5581,
      "scenarios": 5582,
      "PDF": 5583,
      "pig": 5584,
      "ophis": 5585,
      "drives": 5586,
      "integrate": 5587,
      "Insight": 5588,
      "latency": 5589,
      "immune": 5590,
      "Predic": 5591,
      "400": 5592,
      "ran": 5593,
      "omatic": 5594,
      "empathy": 5595,
      "exactly": 5596,
      "neutr": 5597,
      "150": 5598,
      "Implementation": 5599,
      "embly": 5600,
      "ophistic": 5601,
      "Max": 5602,
      "ae": 5603,
      "mail": 5604,
      "acid": 5605,
      "utely": 5606,
      "quir": 5607,
      "spaces": 5608,
      "ipal": 5609,
      "signaling": 5610,
      "counsel": 5611,
      "Second": 5612,
      "starting": 5613,
      "Purpose": 5614,
      "pac": 5615,
      "refin": 5616,
      "tok": 5617,
      "chance": 5618,
      "plas": 5619,
      "exercise": 5620,
      "umin": 5621,
      "izon": 5622,
      "encry": 5623,
      "manip": 5624,
      "certific": 5625,
      "diffic": 5626,
      "promp": 5627,
      "responsibility": 5628,
      "seconds": 5629,
      "ROI": 5630,
      "tight": 5631,
      "Hz": 5632,
      "hope": 5633,
      "pite": 5634,
      "rare": 5635,
      "send": 5636,
      "thick": 5637,
      "concent": 5638,
      "entiment": 5639,
      "ideal": 5640,
      "philos": 5641,
      "Proper": 5642,
      "solutely": 5643,
      "Interpre": 5644,
      "sequent": 5645,
      "Best": 5646,
      "More": 5647,
      "Vision": 5648,
      "thin": 5649,
      "plo": 5650,
      "lost": 5651,
      "spher": 5652,
      "clude": 5653,
      "regions": 5654,
      "willing": 5655,
      "adients": 5656,
      "court": 5657,
      "Guid": 5658,
      "errors": 5659,
      "Current": 5660,
      "North": 5661,
      "Directions": 5662,
      "ongoing": 5663,
      "Bot": 5664,
      "Hear": 5665,
      "Mor": 5666,
      "Match": 5667,
      "SQL": 5668,
      "bad": 5669,
      "phase": 5670,
      "intell": 5671,
      "lesson": 5672,
      "follows": 5673,
      "thereby": 5674,
      "emerging": 5675,
      "moments": 5676,
      "answer": 5677,
      "estern": 5678,
      "reactions": 5679,
      "regression": 5680,
      "agencies": 5681,
      "interface": 5682,
      "Behav": 5683,
      "gradu": 5684,
      "behavi": 5685,
      "computational": 5686,
      "official": 5687,
      "Down": 5688,
      "kin": 5689,
      "pu": 5690,
      "sophistic": 5691,
      "uth": 5692,
      "enforcement": 5693,
      "ulty": 5694,
      "explicit": 5695,
      "quiet": 5696,
      "geography": 5697,
      "itim": 5698,
      "portfolio": 5699,
      "firms": 5700,
      "198": 5701,
      "relative": 5702,
      "ships": 5703,
      "reflection": 5704,
      "collective": 5705,
      "leveraging": 5706,
      "Free": 5707,
      "Pit": 5708,
      "sample": 5709,
      "restric": 5710,
      "testament": 5711,
      "()`": 5712,
      "Monitor": 5713,
      "molecules": 5714,
      "Response": 5715,
      "Jap": 5716,
      "dest": 5717,
      "gins": 5718,
      "command": 5719,
      "goes": 5720,
      "backward": 5721,
      "Result": 5722,
      "learned": 5723,
      "mention": 5724,
      "validation": 5725,
      "Pharmacokinetics": 5726,
      "suggests": 5727,
      "battery": 5728,
      "Japan": 5729,
      "23": 5730,
      "IV": 5731,
      "aight": 5732,
      "cel": 5733,
      "forcing": 5734,
      "acters": 5735,
      "portal": 5736,
      "persist": 5737,
      "really": 5738,
      "Leverage": 5739,
      "responses": 5740,
      "currency": 5741,
      "MR": 5742,
      "TV": 5743,
      "Tax": 5744,
      "hing": 5745,
      "toler": 5746,
      "plot": 5747,
      "playground": 5748,
      "herence": 5749,
      "ercises": 5750,
      "Analytics": 5751,
      "...": 5752,
      "\")": 5753,
      "Java": 5754,
      "Protocol": 5755,
      "matches": 5756,
      "hero": 5757,
      "presentation": 5758,
      "easier": 5759,
      "photograph": 5760,
      "adoption": 5761,
      "partners": 5762,
      "exemplifies": 5763,
      "alternative": 5764,
      "Graph": 5765,
      "House": 5766,
      "PE": 5767,
      "etary": 5768,
      "endar": 5769,
      "interventions": 5770,
      "object": 5771,
      "architect": 5772,
      "ptoms": 5773,
      "threshold": 5774,
      "phenomen": 5775,
      "comfortable": 5776,
      "Est": 5777,
      "fly": 5778,
      "itter": 5779,
      "dissect": 5780,
      "Acc": 5781,
      "ponent": 5782,
      "lands": 5783,
      "datasets": 5784,
      "milestones": 5785,
      "AS": 5786,
      "Spat": 5787,
      "nuc": 5788,
      "nership": 5789,
      "dead": 5790,
      "medication": 5791,
      "Works": 5792,
      "Driven": 5793,
      "internet": 5794,
      "Biom": 5795,
      "Move": 5796,
      "reporting": 5797,
      "fixed": 5798,
      "tors": 5799,
      "loops": 5800,
      "ounce": 5801,
      "getting": 5802,
      "specif": 5803,
      "became": 5804,
      "volunte": 5805,
      "flexible": 5806,
      "enzyme": 5807,
      "BCE": 5808,
      "Language": 5809,
      "NT": 5810,
      "dt": 5811,
      "init": 5812,
      "argu": 5813,
      "tox": 5814,
      "young": 5815,
      "astering": 5816,
      "highly": 5817,
      "button": 5818,
      "balances": 5819,
      "Road": 5820,
      "opening": 5821,
      "Protein": 5822,
      "six": 5823,
      "tack": 5824,
      "yes": 5825,
      "incorporate": 5826,
      "composition": 5827,
      "Exercise": 5828,
      "carefully": 5829,
      "Techniques": 5830,
      "Secure": 5831,
      "pictures": 5832,
      "principle": 5833,
      "weekly": 5834,
      "preventing": 5835,
      "joint": 5836,
      "fan": 5837,
      "haps": 5838,
      "asy": 5839,
      "trial": 5840,
      "efforts": 5841,
      "black": 5842,
      "spection": 5843,
      "advoc": 5844,
      "Recogn": 5845,
      "ultane": 5846,
      "tificial": 5847,
      "sector": 5848,
      "favorite": 5849,
      "\":": 5850,
      "CH": 5851,
      "Just": 5852,
      "Ow": 5853,
      "mort": 5854,
      "overs": 5855,
      "schem": 5856,
      "stays": 5857,
      "comment": 5858,
      "neuro": 5859,
      "2010": 5860,
      "bias": 5861,
      "Place": 5862,
      "Phase": 5863,
      "mechanism": 5864,
      "stret": 5865,
      "feeding": 5866,
      "|---------|": 5867,
      "emphasis": 5868,
      "Hybrid": 5869,
      "fascinating": 5870,
      "attr": 5871,
      "remo": 5872,
      "iling": 5873,
      "plug": 5874,
      "encoun": 5875,
      "China": 5876,
      "deployment": 5877,
      "decide": 5878,
      "Steps": 5879,
      "artist": 5880,
      "VM": 5881,
      "fo": 5882,
      "sq": 5883,
      "tap": 5884,
      "trace": 5885,
      "police": 5886,
      "breast": 5887,
      "showing": 5888,
      "topics": 5889,
      "meaningful": 5890,
      "Sing": 5891,
      "diversity": 5892,
      "eat": 5893,
      "elcome": 5894,
      "module": 5895,
      "osen": 5896,
      "sensor": 5897,
      "investors": 5898,
      ")\\)": 5899,
      "42": 5900,
      "Lay": 5901,
      "Name": 5902,
      "ago": 5903,
      "sea": 5904,
      "epoch": 5905,
      "notice": 5906,
      "regard": 5907,
      "actionable": 5908,
      "pressive": 5909,
      "feeling": 5910,
      "molecular": 5911,
      "Fac": 5912,
      "Gl": 5913,
      "HD": 5914,
      "vac": 5915,
      "attem": 5916,
      "forced": 5917,
      "ellow": 5918,
      "scene": 5919,
      "deed": 5920,
      "diction": 5921,
      "returns": 5922,
      "Financial": 5923,
      "hall": 5924,
      "ingu": 5925,
      "istant": 5926,
      "afford": 5927,
      "aken": 5928,
      "astro": 5929,
      "dipl": 5930,
      "20th": 5931,
      "countries": 5932,
      "inclusive": 5933,
      "missing": 5934,
      "Resources": 5935,
      "targeting": 5936,
      "attach": 5937,
      "distributed": 5938,
      "Spatial": 5939,
      "],": 5940,
      "verification": 5941,
      "suit": 5942,
      "ibl": 5943,
      "Production": 5944,
      "guess": 5945,
      "ieties": 5946,
      "challeng": 5947,
      "discussion": 5948,
      "triggers": 5949,
      "enzymes": 5950,
      "Material": 5951,
      "Base": 5952,
      "Sep": 5953,
      "names": 5954,
      "conservation": 5955,
      "gress": 5956,
      "explo": 5957,
      "incenti": 5958,
      "Draft": 5959,
      "Meas": 5960,
      "machines": 5961,
      "happy": 5962,
      "America": 5963,
      "Field": 5964,
      "Mob": 5965,
      "OR": 5966,
      "OT": 5967,
      "cards": 5968,
      "haz": 5969,
      "vit": 5970,
      "erce": 5971,
      "plus": 5972,
      "outcome": 5973,
      "timing": 5974,
      "signs": 5975,
      "accountability": 5976,
      "ietal": 5977,
      "revolutionized": 5978,
      "thusi": 5979,
      "Video": 5980,
      "Establish": 5981,
      "27": 5982,
      "dance": 5983,
      "lap": 5984,
      "pend": 5985,
      "sen": 5986,
      "”)": 5987,
      "alone": 5988,
      "tier": 5989,
      "till": 5990,
      "oles": 5991,
      "propor": 5992,
      "ticip": 5993,
      "utter": 5994,
      "transaction": 5995,
      "technique": 5996,
      "running": 5997,
      "Direct": 5998,
      "scholars": 5999,
      "Framework": 6000,
      "Bullet": 6001,
      "Foot": 6002,
      "leave": 6003,
      "Stor": 6004,
      "ibration": 6005,
      "recipe": 6006,
      "scope": 6007,
      "prefer": 6008,
      "ifications": 6009,
      "apps": 6010,
      "operating": 6011,
      "lessons": 6012,
      "characters": 6013,
      "transforms": 6014,
      "Professional": 6015,
      "33": 6016,
      "QR": 6017,
      "West": 6018,
      "”).": 6019,
      "Influ": 6020,
      "resol": 6021,
      "asset": 6022,
      "flat": 6023,
      "ultimately": 6024,
      "Month": 6025,
      "schools": 6026,
      "Mission": 6027,
      "Basic": 6028,
      "Group": 6029,
      "Pan": 6030,
      "dark": 6031,
      "sau": 6032,
      "reaction": 6033,
      "designs": 6034,
      "readers": 6035,
      "hydr": 6036,
      "Beyond": 6037,
      "execution": 6038,
      "campaigns": 6039,
      "velocity": 6040,
      "clinic": 6041,
      "Cli": 6042,
      "Pick": 6043,
      "South": 6044,
      "binary": 6045,
      "lens": 6046,
      "slight": 6047,
      "prayer": 6048,
      "derived": 6049,
      "creativity": 6050,
      "1990": 6051,
      "relig": 6052,
      "consent": 6053,
      "worldwide": 6054,
      "memor": 6055,
      "informs": 6056,
      "charge": 6057,
      "domin": 6058,
      "Regular": 6059,
      "tailored": 6060,
      "Linear": 6061,
      "glucose": 6062,
      "Total": 6063,
      "federal": 6064,
      "edges": 6065,
      "Traditional": 6066,
      "secret": 6067,
      "subst": 6068,
      "dict": 6069,
      "analyzing": 6070,
      "adaptive": 6071,
      "characteristics": 6072,
      "installation": 6073,
      "equipped": 6074,
      "outside": 6075,
      "exciting": 6076,
      "VID": 6077,
      "pages": 6078,
      "pitch": 6079,
      "sand": 6080,
      "reason": 6081,
      "tip": 6082,
      "uris": 6083,
      "truc": 6084,
      "compromis": 6085,
      "seamless": 6086,
      "opt": 6087,
      "decre": 6088,
      "doesn": 6089,
      "Prep": 6090,
      "Absolutely": 6091,
      "measured": 6092,
      "`)": 6093,
      "tree": 6094,
      "tables": 6095,
      "intr": 6096,
      "allocation": 6097,
      "item": 6098,
      "accounts": 6099,
      "agram": 6100,
      "ophy": 6101,
      "straight": 6102,
      "Stay": 6103,
      "Contemporary": 6104,
      "guided": 6105,
      "____": 6106,
      "AB": 6107,
      "DB": 6108,
      "Dive": 6109,
      "harm": 6110,
      "itional": 6111,
      "save": 6112,
      "icts": 6113,
      "unpack": 6114,
      "uda": 6115,
      "perception": 6116,
      "Excellent": 6117,
      "Activ": 6118,
      "combined": 6119,
      "attend": 6120,
      "cleaning": 6121,
      "evaluation": 6122,
      "direction": 6123,
      "perspectives": 6124,
      "criteria": 6125,
      "felt": 6126,
      "Cat": 6127,
      "Er": 6128,
      "kern": 6129,
      "nia": 6130,
      "vation": 6131,
      "atile": 6132,
      "tified": 6133,
      "aser": 6134,
      "Confirm": 6135,
      "cultiv": 6136,
      "objects": 6137,
      "equity": 6138,
      "authentication": 6139,
      "Greetings": 6140,
      "competition": 6141,
      "AU": 6142,
      "Our": 6143,
      "itary": 6144,
      "meets": 6145,
      "insulin": 6146,
      "subsequent": 6147,
      "maximum": 6148,
      "Materials": 6149,
      "John": 6150,
      ",\"": 6151,
      "Bay": 6152,
      "fication": 6153,
      "calm": 6154,
      "seek": 6155,
      "smaller": 6156,
      "industrial": 6157,
      "Smart": 6158,
      "Features": 6159,
      "Compare": 6160,
      "atively": 6161,
      "advantages": 6162,
      "independent": 6163,
      "95": 6164,
      "UK": 6165,
      "routes": 6166,
      "emis": 6167,
      "apers": 6168,
      "agers": 6169,
      "seems": 6170,
      "actual": 6171,
      "contexts": 6172,
      "Product": 6173,
      "Prim": 6174,
      "simultane": 6175,
      "nesses": 6176,
      "potentially": 6177,
      "authority": 6178,
      "Music": 6179,
      "Questions": 6180,
      "dashboards": 6181,
      "Body": 6182,
      "Deter": 6183,
      "HA": 6184,
      "cash": 6185,
      "suffic": 6186,
      "gradients": 6187,
      "systematic": 6188,
      "trained": 6189,
      "Authentic": 6190,
      "appears": 6191,
      "arriers": 6192,
      "Behavior": 6193,
      "Hor": 6194,
      "Mess": 6195,
      "proto": 6196,
      "approv": 6197,
      "afting": 6198,
      "timeline": 6199,
      "hyper": 6200,
      "embedded": 6201,
      "achieved": 6202,
      "incorporating": 6203,
      "trajectory": 6204,
      "Problem": 6205,
      "ha": 6206,
      "sentiment": 6207,
      "icity": 6208,
      "coin": 6209,
      "Prior": 6210,
      "Account": 6211,
      "invites": 6212,
      "Practices": 6213,
      "movements": 6214,
      "calls": 6215,
      "Reflec": 6216,
      "trying": 6217,
      "minimize": 6218,
      "periods": 6219,
      "Point": 6220,
      "Present": 6221,
      "inventory": 6222,
      "ND": 6223,
      "UR": 6224,
      "gap": 6225,
      "alpha": 6226,
      "retail": 6227,
      "Store": 6228,
      "compute": 6229,
      "auti": 6230,
      "progression": 6231,
      "ISO": 6232,
      "controller": 6233,
      "cataly": 6234,
      "www": 6235,
      "Effective": 6236,
      "Speed": 6237,
      "====================================================": 6238,
      "Fun": 6239,
      "Rap": 6240,
      "dden": 6241,
      "hom": 6242,
      "motor": 6243,
      "entre": 6244,
      "plastic": 6245,
      "ulated": 6246,
      "imagine": 6247,
      "umn": 6248,
      "park": 6249,
      "scaling": 6250,
      "equations": 6251,
      "generated": 6252,
      "posts": 6253,
      "Precision": 6254,
      "Mechanisms": 6255,
      "achieving": 6256,
      "Thought": 6257,
      "atomy": 6258,
      "Urban": 6259,
      "iblical": 6260,
      "*\"": 6261,
      "Bar": 6262,
      "Scrip": 6263,
      "bid": 6264,
      "egg": 6265,
      "tify": 6266,
      "theme": 6267,
      "arise": 6268,
      "igue": 6269,
      "ipher": 6270,
      "ibly": 6271,
      "motif": 6272,
      "commerce": 6273,
      "Anecdote": 6274,
      "culinary": 6275,
      "cellence": 6276,
      "optimization": 6277,
      "norms": 6278,
      "injuries": 6279,
      "neighbor": 6280,
      "Level": 6281,
      "bin": 6282,
      "orship": 6283,
      "omm": 6284,
      "urability": 6285,
      "sudden": 6286,
      "Concepts": 6287,
      "politics": 6288,
      "arrang": 6289,
      "miss": 6290,
      "reliability": 6291,
      "enabled": 6292,
      "strengths": 6293,
      "Launch": 6294,
      "Question": 6295,
      "oming": 6296,
      "Indeed": 6297,
      "resulting": 6298,
      "avors": 6299,
      "parent": 6300,
      "ponents": 6301,
      "solve": 6302,
      "statements": 6303,
      "effectiveness": 6304,
      "faced": 6305,
      "template": 6306,
      "relevance": 6307,
      "friction": 6308,
      "interpret": 6309,
      "dependent": 6310,
      "aesthetic": 6311,
      "Comparative": 6312,
      "Milest": 6313,
      "ewardship": 6314,
      "Era": 6315,
      "Revolution": 6316,
      "_t": 6317,
      "gard": 6318,
      "waves": 6319,
      "imp": 6320,
      "clarity": 6321,
      "Conduct": 6322,
      "moist": 6323,
      "Scienti": 6324,
      "belong": 6325,
      "preserve": 6326,
      "split": 6327,
      "appeal": 6328,
      "rhythm": 6329,
      "entrepreneur": 6330,
      "EM": 6331,
      "Great": 6332,
      "Tiny": 6333,
      "gender": 6334,
      "tage": 6335,
      "enthusi": 6336,
      "ouch": 6337,
      "iment": 6338,
      "grid": 6339,
      "extension": 6340,
      "Climate": 6341,
      "|--------------|": 6342,
      "Deploy": 6343,
      "programming": 6344,
      "adjustments": 6345,
      "procedures": 6346,
      "Fix": 6347,
      "Mass": 6348,
      "])": 6349,
      "atically": 6350,
      "illi": 6351,
      "Stake": 6352,
      "geomet": 6353,
      "recycl": 6354,
      "Encourage": 6355,
      "App": 6356,
      "variables": 6357,
      "streams": 6358,
      "Manufact": 6359,
      "significantly": 6360,
      "Developments": 6361,
      "Author": 6362,
      "addressing": 6363,
      "Correct": 6364,
      "Lar": 6365,
      "Tutorial": 6366,
      "gical": 6367,
      "pump": 6368,
      "sour": 6369,
      "Trade": 6370,
      "releases": 6371,
      "pipelines": 6372,
      "Physics": 6373,
      "Software": 6374,
      "55": 6375,
      "PM": 6376,
      "cuts": 6377,
      "zed": 6378,
      "ulates": 6379,
      "Stage": 6380,
      "deriv": 6381,
      "compelling": 6382,
      "appropr": 6383,
      "legitim": 6384,
      "Newton": 6385,
      "Helps": 6386,
      "Therap": 6387,
      "cutting": 6388,
      "embracing": 6389,
      "recovery": 6390,
      "curriculum": 6391,
      "Cop": 6392,
      "Dom": 6393,
      "itic": 6394,
      "ml": 6395,
      "rang": 6396,
      "rank": 6397,
      "env": 6398,
      "reas": 6399,
      "immers": 6400,
      "occup": 6401,
      "recur": 6402,
      "cretion": 6403,
      "array": 6404,
      "communic": 6405,
      "aligned": 6406,
      "finding": 6407,
      "reaching": 6408,
      "funding": 6409,
      "starts": 6410,
      "Vo": 6411,
      "cin": 6412,
      "macro": 6413,
      "zones": 6414,
      "agon": 6415,
      "spend": 6416,
      "actually": 6417,
      "solving": 6418,
      "differences": 6419,
      "providers": 6420,
      "stored": 6421,
      "adaptation": 6422,
      "Culture": 6423,
      "nuanced": 6424,
      "blockchain": 6425,
      "Center": 6426,
      "Respons": 6427,
      "Intel": 6428,
      "pload": 6429,
      "intelligence": 6430,
      "NS": 6431,
      "iac": 6432,
      "ls": 6433,
      "tire": 6434,
      "assum": 6435,
      "ivic": 6436,
      "colon": 6437,
      "otherapy": 6438,
      "finance": 6439,
      "classes": 6440,
      "approxim": 6441,
      "Lessons": 6442,
      "Fire": 6443,
      "Hi": 6444,
      "NF": 6445,
      "NN": 6446,
      "got": 6447,
      "vary": 6448,
      "aching": 6449,
      "estyle": 6450,
      "mini": 6451,
      "breed": 6452,
      "feelings": 6453,
      "grades": 6454,
      "expansion": 6455,
      "placed": 6456,
      "Transfer": 6457,
      "calculus": 6458,
      "reveals": 6459,
      "transparent": 6460,
      "employee": 6461,
      "Middle": 6462,
      "05": 6463,
      "ahead": 6464,
      "agents": 6465,
      "planets": 6466,
      "attack": 6467,
      "holistic": 6468,
      "participation": 6469,
      "encourages": 6470,
      "Timing": 6471,
      "cooking": 6472,
      "since": 6473,
      "Schedule": 6474,
      "reputation": 6475,
      "renewable": 6476,
      "mathematical": 6477,
      "(~": 6478,
      "Ele": 6479,
      "Turn": 6480,
      "Watch": 6481,
      "_grad": 6482,
      "almost": 6483,
      "retention": 6484,
      "emic": 6485,
      "apart": 6486,
      "trav": 6487,
      "thermal": 6488,
      "designing": 6489,
      "fection": 6490,
      "symptoms": 6491,
      "funds": 6492,
      "established": 6493,
      "coupl": 6494,
      "Credit": 6495,
      "tumor": 6496,
      "Dat": 6497,
      "cache": 6498,
      "ention": 6499,
      "replic": 6500,
      "itations": 6501,
      "older": 6502,
      "une": 6503,
      "systemic": 6504,
      "Improve": 6505,
      "posal": 6506,
      "download": 6507,
      "Loop": 6508,
      "particular": 6509,
      "courses": 6510,
      "discuss": 6511,
      "teaching": 6512,
      "Evaluation": 6513,
      "cu": 6514,
      "codes": 6515,
      "ilot": 6516,
      "agent": 6517,
      "immedi": 6518,
      "Anti": 6519,
      "profiles": 6520,
      "builds": 6521,
      "Color": 6522,
      "familiar": 6523,
      "Perspec": 6524,
      "translates": 6525,
      "ikes": 6526,
      "prepared": 6527,
      "Cam": 6528,
      "obl": 6529,
      "Conver": 6530,
      "2012": 6531,
      "timate": 6532,
      "visibility": 6533,
      "variable": 6534,
      "optimize": 6535,
      "President": 6536,
      "Maintenance": 6537,
      "Delta": 6538,
      "Efficiency": 6539,
      "ingredients": 6540,
      "Friend": 6541,
      "Flex": 6542,
      "IC": 6543,
      "Pop": 6544,
      "Source": 6545,
      "sac": 6546,
      "wild": 6547,
      "alike": 6548,
      "loan": 6549,
      "restor": 6550,
      "guards": 6551,
      "ashion": 6552,
      "followed": 6553,
      "evolved": 6554,
      "Prepar": 6555,
      "literature": 6556,
      "luxury": 6557,
      "600": 6558,
      "Cognitive": 6559,
      "Fast": 6560,
      "Spl": 6561,
      "vacc": 6562,
      "arily": 6563,
      "abet": 6564,
      "Commit": 6565,
      "technological": 6566,
      "delay": 6567,
      "logical": 6568,
      "predictive": 6569,
      "contextual": 6570,
      "hook": 6571,
      "thoughts": 6572,
      "dimensions": 6573,
      "intersection": 6574,
      "hierarchy": 6575,
      "encounter": 6576,
      "IA": 6577,
      "Mom": 6578,
      "Size": 6579,
      "bird": 6580,
      "tags": 6581,
      "”.": 6582,
      "tee": 6583,
      "asts": 6584,
      "scen": 6585,
      "owners": 6586,
      "plants": 6587,
      "novel": 6588,
      "lectual": 6589,
      "metabolic": 6590,
      "survey": 6591,
      "specifically": 6592,
      "Rout": 6593,
      "dre": 6594,
      "taken": 6595,
      "retain": 6596,
      "verify": 6597,
      "resid": 6598,
      "workshops": 6599,
      "served": 6600,
      "sensitivity": 6601,
      "margin": 6602,
      "estimate": 6603,
      "implementation": 6604,
      "Audience": 6605,
      "broken": 6606,
      "absorption": 6607,
      "Knowledge": 6608,
      "Medicine": 6609,
      "concise": 6610,
      "pill": 6611,
      "thous": 6612,
      "route": 6613,
      "scious": 6614,
      "iovascular": 6615,
      "statistics": 6616,
      "capabilities": 6617,
      "package": 6618,
      "panels": 6619,
      "LED": 6620,
      "documentation": 6621,
      "Leadership": 6622,
      "loyalty": 6623,
      "Linked": 6624,
      "artistic": 6625,
      "cuda": 6626,
      "rend": 6627,
      "clusive": 6628,
      "disorders": 6629,
      "colors": 6630,
      "visible": 6631,
      "populations": 6632,
      "divine": 6633,
      "Protection": 6634,
      "styles": 6635,
      "uncertainty": 6636,
      "ecological": 6637,
      "actor": 6638,
      "interactive": 6639,
      "framing": 6640,
      "compare": 6641,
      "Change": 6642,
      "provider": 6643,
      "define": 6644,
      "Embed": 6645,
      "considerations": 6646,
      "Monitoring": 6647,
      "Networks": 6648,
      "convert": 6649,
      "drawing": 6650,
      "ticket": 6651,
      "tune": 6652,
      "previous": 6653,
      "challenging": 6654,
      "99": 6655,
      "IF": 6656,
      "ginal": 6657,
      "leak": 6658,
      "elastic": 6659,
      "chart": 6660,
      "illance": 6661,
      "deploy": 6662,
      "helped": 6663,
      "integral": 6664,
      "Emphas": 6665,
      "muscle": 6666,
      "switch": 6667,
      "computing": 6668,
      "acceleration": 6669,
      "binding": 6670,
      "Daily": 6671,
      "asp": 6672,
      "outreach": 6673,
      "interdisciplinary": 6674,
      "brings": 6675,
      "Chem": 6676,
      "correc": 6677,
      "auge": 6678,
      "societies": 6679,
      "employment": 6680,
      "Contextual": 6681,
      "described": 6682,
      "Storage": 6683,
      "=\"": 6684,
      "rs": 6685,
      "onics": 6686,
      "igma": 6687,
      "ulative": 6688,
      "agen": 6689,
      "shown": 6690,
      "ipple": 6691,
      "contam": 6692,
      "contains": 6693,
      "emerged": 6694,
      "Black": 6695,
      "humans": 6696,
      "Journey": 6697,
      "chronic": 6698,
      "situation": 6699,
      "fatigue": 6700,
      "Pip": 6701,
      "Teach": 6702,
      "gree": 6703,
      "hun": 6704,
      "ole": 6705,
      "esh": 6706,
      "references": 6707,
      "itory": 6708,
      "terr": 6709,
      "ither": 6710,
      "ivity": 6711,
      "uma": 6712,
      "coast": 6713,
      "Compe": 6714,
      "Trust": 6715,
      "Photo": 6716,
      "Orig": 6717,
      "economy": 6718,
      "Region": 6719,
      "Transition": 6720,
      "journal": 6721,
      "messaging": 6722,
      "secondary": 6723,
      "discipline": 6724,
      "artists": 6725,
      "tradition": 6726,
      "Transport": 6727,
      "Collaboration": 6728,
      "GDPR": 6729,
      "Distribution": 6730,
      "250": 6731,
      "800": 6732,
      "Lens": 6733,
      "Mitig": 6734,
      "Tour": 6735,
      "birth": 6736,
      "gRNA": 6737,
      "ny": 6738,
      "nan": 6739,
      "rt": 6740,
      "witness": 6741,
      "zon": 6742,
      "alse": 6743,
      "iday": 6744,
      "quantum": 6745,
      "Ang": 6746,
      "centers": 6747,
      "vised": 6748,
      "layout": 6749,
      "Issu": 6750,
      "cars": 6751,
      "Consist": 6752,
      "happen": 6753,
      "affold": 6754,
      "behavioral": 6755,
      "Optimization": 6756,
      "camera": 6757,
      "Virtual": 6758,
      "Facebook": 6759,
      "sophisticated": 6760,
      "Hot": 6761,
      "snow": 6762,
      "tag": 6763,
      "vess": 6764,
      "iner": 6765,
      "arc": 6766,
      "lots": 6767,
      "ighter": 6768,
      "percent": 6769,
      "workflow": 6770,
      "Ann": 6771,
      "Recomm": 6772,
      "turned": 6773,
      "Email": 6774,
      "conversations": 6775,
      "responsibilities": 6776,
      "milk": 6777,
      "Objec": 6778,
      "Legacy": 6779,
      "appreciation": 6780,
      "pep": 6781,
      "wants": 6782,
      "inher": 6783,
      "wheel": 6784,
      "quantitative": 6785,
      "prices": 6786,
      "curve": 6787,
      "relax": 6788,
      "changed": 6789,
      "roads": 6790,
      "password": 6791,
      "Parallel": 6792,
      "causing": 6793,
      "pharmacodynamics": 6794,
      "intentional": 6795,
      "Emotional": 6796,
      "pand": 6797,
      "taste": 6798,
      "ester": 6799,
      "stewardship": 6800,
      "------------": 6801,
      "grant": 6802,
      "tele": 6803,
      "Unit": 6804,
      "decline": 6805,
      "facilities": 6806,
      "prompt": 6807,
      "influences": 6808,
      "accum": 6809,
      "payments": 6810,
      "believ": 6811,
      "characterized": 6812,
      "foster": 6813,
      "Sustainability": 6814,
      "agreements": 6815,
      "Privacy": 6816,
      "(≈": 6817,
      "Rise": 6818,
      "Ve": 6819,
      "theta": 6820,
      "stock": 6821,
      "edom": 6822,
      "unlock": 6823,
      "sume": 6824,
      "neys": 6825,
      "former": 6826,
      "owner": 6827,
      "socio": 6828,
      "supporting": 6829,
      "Score": 6830,
      "consumers": 6831,
      "puzz": 6832,
      "3D": 6833,
      "Put": 6834,
      "Rest": 6835,
      "fits": 6836,
      "van": 6837,
      "chosen": 6838,
      "convey": 6839,
      "truth": 6840,
      "spin": 6841,
      "intervention": 6842,
      "intended": 6843,
      "classical": 6844,
      "Coord": 6845,
      "shares": 6846,
      "magic": 6847,
      "circum": 6848,
      "coding": 6849,
      "Limited": 6850,
      "Term": 6851,
      "Heart": 6852,
      "Rapid": 6853,
      ")`": 6854,
      "Bit": 6855,
      "barriers": 6856,
      "cities": 6857,
      "done": 6858,
      "ritual": 6859,
      "orches": 6860,
      "agog": 6861,
      "seal": 6862,
      "ured": 6863,
      "covers": 6864,
      "preferences": 6865,
      "Player": 6866,
      "labels": 6867,
      "laun": 6868,
      "recognizing": 6869,
      "Central": 6870,
      "electrical": 6871,
      "surveys": 6872,
      "Indian": 6873,
      "Maybe": 6874,
      "Reduced": 6875,
      "justice": 6876,
      "Transparency": 6877,
      "earlier": 6878,
      "Therapies": 6879,
      "Spot": 6880,
      "chains": 6881,
      "intent": 6882,
      "spectr": 6883,
      "Quanti": 6884,
      "Modeling": 6885,
      "panel": 6886,
      "dimensional": 6887,
      "dataset": 6888,
      "Cir": 6889,
      "Making": 6890,
      "Spr": 6891,
      "blog": 6892,
      "nab": 6893,
      "replace": 6894,
      "theological": 6895,
      "stal": 6896,
      "itative": 6897,
      "tooth": 6898,
      "Convers": 6899,
      "phones": 6900,
      "engthen": 6901,
      "genome": 6902,
      "defensive": 6903,
      "layered": 6904,
      "greater": 6905,
      "classification": 6906,
      "schedules": 6907,
      "mirror": 6908,
      "Bottom": 6909,
      "Navig": 6910,
      "Oc": 6911,
      "vibr": 6912,
      "inputs": 6913,
      "1970": 6914,
      "anyone": 6915,
      "passion": 6916,
      "combining": 6917,
      "chemistry": 6918,
      "emphasizes": 6919,
      "Select": 6920,
      "Happy": 6921,
      "Primary": 6922,
      "Scre": 6923,
      "})": 6924,
      "ulating": 6925,
      "Insur": 6926,
      "Star": 6927,
      "stands": 6928,
      "ished": 6929,
      "adequ": 6930,
      "societal": 6931,
      "visitors": 6932,
      "deliber": 6933,
      "Particip": 6934,
      "Therapy": 6935,
      "Eco": 6936,
      "Western": 6937,
      "fem": 6938,
      "oke": 6939,
      "conscious": 6940,
      "clar": 6941,
      "disclo": 6942,
      "breaks": 6943,
      "General": 6944,
      "contributions": 6945,
      "Green": 6946,
      "Points": 6947,
      "mirrors": 6948,
      "Partnership": 6949,
      "Governance": 6950,
      "advancements": 6951,
      "AA": 6952,
      "EC": 6953,
      "VC": 6954,
      "vend": 6955,
      "emble": 6956,
      "uncover": 6957,
      "izz": 6958,
      "Relev": 6959,
      "minor": 6960,
      "studying": 6961,
      "specialized": 6962,
      "ethics": 6963,
      "harness": 6964,
      "moral": 6965,
      "physiological": 6966,
      "Dim": 6967,
      "Date": 6968,
      "Gather": 6969,
      "Lit": 6970,
      "Pal": 6971,
      "uation": 6972,
      "recep": 6973,
      "arg": 6974,
      "tration": 6975,
      "modal": 6976,
      "Price": 6977,
      "maybe": 6978,
      "Brain": 6979,
      "staying": 6980,
      "travelers": 6981,
      "converted": 6982,
      "reflecting": 6983,
      "Reading": 6984,
      "Compute": 6985,
      "repeat": 6986,
      "Evaluate": 6987,
      "ED": 6988,
      "Ps": 6989,
      "bag": 6990,
      "iat": 6991,
      "pit": 6992,
      "wine": 6993,
      "yog": 6994,
      "eries": 6995,
      "ilient": 6996,
      "liver": 6997,
      "ught": 6998,
      "buffer": 6999,
      "offs": 7000,
      "Resource": 7001,
      "ynamo": 7002,
      "letter": 7003,
      "equation": 7004,
      "legis": 7005,
      "Learn": 7006,
      "oxy": 7007,
      "introduces": 7008,
      "configuration": 7009,
      "neutral": 7010,
      "26": 7011,
      "Brow": 7012,
      "Mapping": 7013,
      "Tog": 7014,
      "cdot": 7015,
      "fabric": 7016,
      "vector": 7017,
      "aspir": 7018,
      "quad": 7019,
      "Intell": 7020,
      "sho": 7021,
      "cohes": 7022,
      "correl": 7023,
      "throughput": 7024,
      "metaph": 7025,
      "sky": 7026,
      "|---------------": 7027,
      "Understand": 7028,
      "Integrating": 7029,
      "receives": 7030,
      "Index": 7031,
      "Types": 7032,
      "walls": 7033,
      "bott": 7034,
      "Connect": 7035,
      "atmosphere": 7036,
      "38": 7037,
      "Frequ": 7038,
      "Mind": 7039,
      "TLS": 7040,
      "UN": 7041,
      "Vers": 7042,
      "cue": 7043,
      "ru": 7044,
      "stages": 7045,
      "lete": 7046,
      "beat": 7047,
      "influenced": 7048,
      "examining": 7049,
      "anguages": 7050,
      "Metabol": 7051,
      "evolutionary": 7052,
      "Statistical": 7053,
      "compatibility": 7054,
      "LinkedIn": 7055,
      "Ped": 7056,
      "Page": 7057,
      "Reven": 7058,
      "juris": 7059,
      "stall": 7060,
      "manif": 7061,
      "cold": 7062,
      "requiring": 7063,
      "experts": 7064,
      "profound": 7065,
      "Algorith": 7066,
      "contracts": 7067,
      "Love": 7068,
      "Identity": 7069,
      "minimizing": 7070,
      "observation": 7071,
      "teachers": 7072,
      "Editing": 7073,
      "Function": 7074,
      "accordingly": 7075,
      "Manufacturing": 7076,
      "Pic": 7077,
      "bund": 7078,
      "dol": 7079,
      "lined": 7080,
      "np": 7081,
      "rought": 7082,
      "regist": 7083,
      "serving": 7084,
      "surge": 7085,
      "wrong": 7086,
      "salt": 7087,
      "prioritiz": 7088,
      "magn": 7089,
      "Choosing": 7090,
      "amentals": 7091,
      "Functional": 7092,
      "intricate": 7093,
      "cluding": 7094,
      "Revenue": 7095,
      "Ms": 7096,
      "Sound": 7097,
      "iology": 7098,
      "ruit": 7099,
      "said": 7100,
      "atics": 7101,
      "attract": 7102,
      "tied": 7103,
      "thetics": 7104,
      "exercises": 7105,
      "Improved": 7106,
      "designers": 7107,
      "sections": 7108,
      "ordinary": 7109,
      "produced": 7110,
      "controls": 7111,
      "causes": 7112,
      "Analyze": 7113,
      "auty": 7114,
      "habit": 7115,
      "Complex": 7116,
      ".)": 7117,
      "Hub": 7118,
      "Iter": 7119,
      "Live": 7120,
      "Sequ": 7121,
      "bacter": 7122,
      "gains": 7123,
      "ker": 7124,
      "enn": 7125,
      "exact": 7126,
      "izational": 7127,
      "balancing": 7128,
      "surfaces": 7129,
      "equal": 7130,
      "identified": 7131,
      "Interaction": 7132,
      "positioning": 7133,
      "ieval": 7134,
      "azing": 7135,
      "COVID": 7136,
      "lamb": 7137,
      "habits": 7138,
      "administration": 7139,
      "Emerging": 7140,
      "DC": 7141,
      "DR": 7142,
      "Did": 7143,
      "fiber": 7144,
      "”,": 7145,
      "roots": 7146,
      "adata": 7147,
      "appoint": 7148,
      "Church": 7149,
      "engines": 7150,
      "arrier": 7151,
      "Server": 7152,
      "marginal": 7153,
      "medicines": 7154,
      "indicating": 7155,
      "menu": 7156,
      "trees": 7157,
      "determine": 7158,
      "iosity": 7159,
      "vehicles": 7160,
      "article": 7161,
      "spring": 7162,
      "precedent": 7163,
      "graduate": 7164,
      "religious": 7165,
      "Mer": 7166,
      "Other": 7167,
      "Pain": 7168,
      "auc": 7169,
      "lace": 7170,
      "}{\\": 7171,
      "ino": 7172,
      "inquir": 7173,
      "tri": 7174,
      "kelet": 7175,
      "scaffold": 7176,
      "marking": 7177,
      "Weight": 7178,
      "street": 7179,
      "clos": 7180,
      "Gener": 7181,
      "calculate": 7182,
      "identifying": 7183,
      "mixed": 7184,
      "housing": 7185,
      "tokens": 7186,
      "01": 7187,
      "SR": 7188,
      "gage": 7189,
      "esis": 7190,
      "alog": 7191,
      "iden": 7192,
      "intertw": 7193,
      "powered": 7194,
      "diffusion": 7195,
      "foreign": 7196,
      "differential": 7197,
      "advances": 7198,
      "volatility": 7199,
      "ampion": 7200,
      "Quantum": 7201,
      "aims": 7202,
      "closed": 7203,
      "stronger": 7204,
      "easily": 7205,
      "Report": 7206,
      "Signal": 7207,
      "titioners": 7208,
      "Computers": 7209,
      "encouraging": 7210,
      "coordination": 7211,
      "filled": 7212,
      "correctly": 7213,
      "Roman": 7214,
      "simultaneously": 7215,
      "([": 7216,
      "Tensor": 7217,
      "Yet": 7218,
      "gments": 7219,
      "pod": 7220,
      "ena": 7221,
      "leverage": 7222,
      "conduct": 7223,
      "outputs": 7224,
      "cellular": 7225,
      "operate": 7226,
      "Engage": 7227,
      "Integrated": 7228,
      "tracks": 7229,
      "enhancing": 7230,
      "reinforce": 7231,
      "Operational": 7232,
      "Electr": 7233,
      "Approach": 7234,
      "immediately": 7235,
      "abetes": 7236,
      "*)": 7237,
      "Gal": 7238,
      "Old": 7239,
      "bat": 7240,
      "rings": 7241,
      "sex": 7242,
      "ying": 7243,
      "tising": 7244,
      "stro": 7245,
      "prox": 7246,
      "imals": 7247,
      "opol": 7248,
      "sport": 7249,
      "ugs": 7250,
      "modular": 7251,
      "2014": 7252,
      "Trends": 7253,
      "Academic": 7254,
      "consult": 7255,
      "metry": 7256,
      "sharp": 7257,
      "administrative": 7258,
      "container": 7259,
      "Client": 7260,
      "oblig": 7261,
      "Fi": 7262,
      "Rights": 7263,
      "Sar": 7264,
      "gauge": 7265,
      "ube": 7266,
      "rosion": 7267,
      "acquisition": 7268,
      "plates": 7269,
      "excep": 7270,
      "poor": 7271,
      "induc": 7272,
      "compil": 7273,
      "calendar": 7274,
      "Lever": 7275,
      "performing": 7276,
      "logistics": 7277,
      "Opportun": 7278,
      "stores": 7279,
      "gradient": 7280,
      "See": 7281,
      "illustrating": 7282,
      "updated": 7283,
      "saving": 7284,
      "treating": 7285,
      "jobs": 7286,
      "anchor": 7287,
      "empowerment": 7288,
      "categories": 7289,
      "meticul": 7290,
      "1990s": 7291,
      "sufficient": 7292,
      "Insurance": 7293,
      "%,": 7294,
      "Sch": 7295,
      "ju": 7296,
      "vec": 7297,
      "inations": 7298,
      "leaves": 7299,
      "registr": 7300,
      "backs": 7301,
      "centuries": 7302,
      "accessibility": 7303,
      "predictions": 7304,
      "Internet": 7305,
      "didn": 7306,
      "Safe": 7307,
      "spheric": 7308,
      "neighborhood": 7309,
      "='": 7310,
      "Remo": 7311,
      "Tit": 7312,
      "bash": 7313,
      "gaming": 7314,
      "ln": 7315,
      "mys": 7316,
      "esc": 7317,
      "remove": 7318,
      "arts": 7319,
      "excess": 7320,
      "opin": 7321,
      "Instead": 7322,
      "posing": 7323,
      "brush": 7324,
      "degree": 7325,
      "transactions": 7326,
      "19th": 7327,
      "considering": 7328,
      "regulate": 7329,
      "satell": 7330,
      "borrow": 7331,
      "transportation": 7332,
      "wonder": 7333,
      "quarterly": 7334,
      "Prepare": 7335,
      "Dual": 7336,
      "Food": 7337,
      "Mc": 7338,
      "ray": 7339,
      "sits": 7340,
      "inference": 7341,
      "stones": 7342,
      "aggreg": 7343,
      "aby": 7344,
      "crew": 7345,
      "cream": 7346,
      "eller": 7347,
      "scapes": 7348,
      "feat": 7349,
      "Commer": 7350,
      "useum": 7351,
      "ecosystems": 7352,
      "Patient": 7353,
      "automation": 7354,
      "sauce": 7355,
      "OD": 7356,
      "_1": 7357,
      "fib": 7358,
      "fashion": 7359,
      "ride": 7360,
      "idates": 7361,
      "imper": 7362,
      "prints": 7363,
      "earth": 7364,
      "Which": 7365,
      "disput": 7366,
      "intensity": 7367,
      "played": 7368,
      "posite": 7369,
      "titude": 7370,
      "Click": 7371,
      "flux": 7372,
      "Cali": 7373,
      "Computer": 7374,
      "navigation": 7375,
      "measurement": 7376,
      "Hello": 7377,
      "reinforcing": 7378,
      "tactics": 7379,
      "African": 7380,
      "instrument": 7381,
      "Platforms": 7382,
      "Innovation": 7383,
      "paradig": 7384,
      "approval": 7385,
      "Together": 7386,
      "Both": 7387,
      "Cover": 7388,
      "Sto": 7389,
      "fid": 7390,
      "hat": 7391,
      "mim": 7392,
      "agues": 7393,
      "inetic": 7394,
      "Connec": 7395,
      "asting": 7396,
      "frames": 7397,
      "cord": 7398,
      "complement": 7399,
      "torque": 7400,
      "incidents": 7401,
      "soil": 7402,
      "Collect": 7403,
      "influencing": 7404,
      "analytical": 7405,
      "Council": 7406,
      "Califor": 7407,
      "Dog": 7408,
      "LL": 7409,
      "Tal": 7410,
      "bold": 7411,
      "ee": 7412,
      "hair": 7413,
      "reser": 7414,
      "assembly": 7415,
      "Exchange": 7416,
      "engaged": 7417,
      "producing": 7418,
      "|------------------": 7419,
      "Shared": 7420,
      "2025": 7421,
      "paths": 7422,
      "Deb": 7423,
      "expenses": 7424,
      "Profile": 7425,
      "Mechanics": 7426,
      "Testing": 7427,
      "thresholds": 7428,
      "survival": 7429,
      "sqrt": 7430,
      "appropriate": 7431,
      "34": 7432,
      "CU": 7433,
      "Radi": 7434,
      "TC": 7435,
      "View": 7436,
      "fing": 7437,
      "kid": 7438,
      "paid": 7439,
      "illing": 7440,
      "Expect": 7441,
      "fron": 7442,
      "preh": 7443,
      "pread": 7444,
      "poll": 7445,
      "curious": 7446,
      "English": 7447,
      "campus": 7448,
      "USD": 7449,
      "situations": 7450,
      "Selection": 7451,
      "Office": 7452,
      "dogs": 7453,
      "Africa": 7454,
      "Civil": 7455,
      "Mental": 7456,
      "Sn": 7457,
      "Sem": 7458,
      "lining": 7459,
      "y_": 7460,
      "alian": 7461,
      "applic": 7462,
      "optional": 7463,
      "Anc": 7464,
      "collect": 7465,
      "icket": 7466,
      "Administr": 7467,
      "relations": 7468,
      "helping": 7469,
      "facet": 7470,
      "engineers": 7471,
      "protective": 7472,
      "windows": 7473,
      "Corpor": 7474,
      "About": 7475,
      "Specific": 7476,
      "pivot": 7477,
      "slightly": 7478,
      "36": 7479,
      "GPS": 7480,
      "gam": 7481,
      "pure": 7482,
      "thread": 7483,
      "addition": 7484,
      "beauti": 7485,
      "residents": 7486,
      "affec": 7487,
      "boat": 7488,
      "managers": 7489,
      "underpin": 7490,
      "bles": 7491,
      "genu": 7492,
      "classroom": 7493,
      "educators": 7494,
      "calculation": 7495,
      "military": 7496,
      "lasting": 7497,
      "Edge": 7498,
      "selves": 7499,
      "aiss": 7500,
      "California": 7501,
      "(),": 7502,
      "Pair": 7503,
      "either": 7504,
      "gy": 7505,
      "gut": 7506,
      "testim": 7507,
      "yer": 7508,
      "rotation": 7509,
      "abs": 7510,
      "thern": 7511,
      "credenti": 7512,
      "heating": 7513,
      "flour": 7514,
      "2016": 7515,
      "Immun": 7516,
      "Hey": 7517,
      "autograd": 7518,
      "emphasize": 7519,
      "fewer": 7520,
      "observed": 7521,
      "adopt": 7522,
      "Processing": 7523,
      "Audit": 7524,
      "Pharmacodynamics": 7525,
      "repeated": 7526,
      "aissance": 7527,
      "credentials": 7528,
      "85": 7529,
      "Further": 7530,
      "RN": 7531,
      "Sl": 7532,
      "bath": 7533,
      "stakes": 7534,
      "ares": 7535,
      "forget": 7536,
      "pros": 7537,
      "trials": 7538,
      "shad": 7539,
      "crash": 7540,
      "cooperation": 7541,
      "interconnected": 7542,
      "aware": 7543,
      "desk": 7544,
      "blends": 7545,
      "195": 7546,
      "certification": 7547,
      "letters": 7548,
      "train_": 7549,
      "gery": 7550,
      "passes": 7551,
      "Assoc": 7552,
      "Relation": 7553,
      "continuity": 7554,
      "pivotal": 7555,
      "scheduling": 7556,
      "stretch": 7557,
      "Most": 7558,
      "X_": 7559,
      "sigma": 7560,
      "uum": 7561,
      "ensation": 7562,
      "Conf": 7563,
      "cosm": 7564,
      "drivers": 7565,
      "managing": 7566,
      "simulation": 7567,
      "metric": 7568,
      "inclusion": 7569,
      "Module": 7570,
      "loader": 7571,
      "minimum": 7572,
      "credibility": 7573,
      "matching": 7574,
      "fosters": 7575,
      "protected": 7576,
      "metabolism": 7577,
      "division": 7578,
      "horizon": 7579,
      "Initial": 7580,
      "radio": 7581,
      "Symbol": 7582,
      "mentioned": 7583,
      "Moment": 7584,
      "DS": 7585,
      "Eg": 7586,
      "FI": 7587,
      "Lin": 7588,
      "bing": 7589,
      "biblical": 7590,
      "mild": 7591,
      "nation": 7592,
      "}^": 7593,
      "Thus": 7594,
      "uniform": 7595,
      "oding": 7596,
      "Consumer": 7597,
      "illum": 7598,
      "fruit": 7599,
      "Resilience": 7600,
      "Heat": 7601,
      "Behind": 7602,
      "belief": 7603,
      "emails": 7604,
      "electronic": 7605,
      "mutations": 7606,
      "crafted": 7607,
      "Provides": 7608,
      "Campaign": 7609,
      "Host": 7610,
      "durability": 7611,
      "estiv": 7612,
      "ione": 7613,
      "chip": 7614,
      "interview": 7615,
      "Immediate": 7616,
      "Address": 7617,
      "196": 7618,
      "demographic": 7619,
      "defic": 7620,
      "traits": 7621,
      "synthesis": 7622,
      "thorough": 7623,
      "improves": 7624,
      "SSD": 7625,
      "bottle": 7626,
      "conventional": 7627,
      "imagery": 7628,
      "Aug": 7629,
      "EX": 7630,
      "P_": 7631,
      "SA": 7632,
      "Utili": 7633,
      "cum": 7634,
      "east": 7635,
      "ky": 7636,
      "uits": 7637,
      "anks": 7638,
      "ork": 7639,
      "cean": 7640,
      "conv": 7641,
      "suitable": 7642,
      "cry": 7643,
      "mood": 7644,
      "dish": 7645,
      "2013": 7646,
      "Any": 7647,
      "servative": 7648,
      "Contact": 7649,
      "storm": 7650,
      "Mean": 7651,
      "passage": 7652,
      "breaking": 7653,
      "Integrate": 7654,
      "Exploration": 7655,
      "figures": 7656,
      "occurs": 7657,
      "prevents": 7658,
      "behaviors": 7659,
      "contamination": 7660,
      "Intelligence": 7661,
      "Cry": 7662,
      "EE": 7663,
      "PIs": 7664,
      "retr": 7665,
      "icial": 7666,
      "acqu": 7667,
      "ece": 7668,
      "empirical": 7669,
      "adults": 7670,
      "uten": 7671,
      "strict": 7672,
      "meetings": 7673,
      "sert": 7674,
      "Islam": 7675,
      "musical": 7676,
      "bigger": 7677,
      "Peer": 7678,
      "walking": 7679,
      "violence": 7680,
      "billion": 7681,
      "breathing": 7682,
      "guarantee": 7683,
      "experienced": 7684,
      "democratic": 7685,
      "thousands": 7686,
      "Random": 7687,
      "['": 7688,
      "`).": 7689,
      "fu": 7690,
      "mere": 7691,
      "acies": 7692,
      "Inters": 7693,
      "Include": 7694,
      "parties": 7695,
      "According": 7696,
      "realistic": 7697,
      "depending": 7698,
      "recorded": 7699,
      "highlighted": 7700,
      "Timeline": 7701,
      "Maya": 7702,
      "propag": 7703,
      "concentration": 7704,
      "Voice": 7705,
      "Ancient": 7706,
      "PK": 7707,
      "border": 7708,
      "gun": 7709,
      "gall": 7710,
      "mastering": 7711,
      "station": 7712,
      "eles": 7713,
      "idge": 7714,
      "resilient": 7715,
      "formed": 7716,
      "formula": 7717,
      "aker": 7718,
      "phic": 7719,
      "intel": 7720,
      "|--------|": 7721,
      "transc": 7722,
      "showc": 7723,
      "annually": 7724,
      "drops": 7725,
      "streaming": 7726,
      "snap": 7727,
      "casual": 7728,
      "AW": 7729,
      "bread": 7730,
      "ees": 7731,
      "pets": 7732,
      "acle": 7733,
      "seat": 7734,
      "discount": 7735,
      "Enter": 7736,
      "Accur": 7737,
      "secre": 7738,
      "otherwise": 7739,
      "productive": 7740,
      "writes": 7741,
      "aditions": 7742,
      "onomic": 7743,
      "Order": 7744,
      "genetics": 7745,
      "responsive": 7746,
      "Compan": 7747,
      "observations": 7748,
      "seasoned": 7749,
      "Illustrative": 7750,
      "mountain": 7751,
      "Ben": 7752,
      "FR": 7753,
      "Women": 7754,
      "languages": 7755,
      "vast": 7756,
      "inch": 7757,
      "erge": 7758,
      "edding": 7759,
      "unexpected": 7760,
      "verbal": 7761,
      "Conversion": 7762,
      "overhead": 7763,
      "peace": 7764,
      "manager": 7765,
      "Another": 7766,
      "Head": 7767,
      "actively": 7768,
      "Regulation": 7769,
      "mindful": 7770,
      "synchron": 7771,
      "spirit": 7772,
      "collaborative": 7773,
      "buying": 7774,
      "libraries": 7775,
      "articles": 7776,
      "quantify": 7777,
      "sentence": 7778,
      "Interpretation": 7779,
      "(*": 7780,
      "Dates": 7781,
      "File": 7782,
      "iers": 7783,
      "sam": 7784,
      "welcome": 7785,
      "asive": 7786,
      "elity": 7787,
      "beauty": 7788,
      "award": 7789,
      "depression": 7790,
      "butter": 7791,
      "held": 7792,
      "covered": 7793,
      "ooting": 7794,
      "foundational": 7795,
      "Geographic": 7796,
      "Advant": 7797,
      "efficiently": 7798,
      "scales": 7799,
      "objective": 7800,
      "Department": 7801,
      "powder": 7802,
      "citizens": 7803,
      "moisture": 7804,
      "receptor": 7805,
      "lambda": 7806,
      "LO": 7807,
      "Mal": 7808,
      "hi": 7809,
      "mul": 7810,
      "ato": 7811,
      "enrich": 7812,
      "igen": 7813,
      "Indic": 7814,
      "weigh": 7815,
      "crime": 7816,
      "mother": 7817,
      "ationale": 7818,
      "transit": 7819,
      "studio": 7820,
      "depos": 7821,
      "Technological": 7822,
      "Higher": 7823,
      "addresses": 7824,
      "demonstrating": 7825,
      "Mechanical": 7826,
      "Calculus": 7827,
      "crafts": 7828,
      "isolation": 7829,
      "Alignment": 7830,
      "organs": 7831,
      "preparation": 7832,
      "kernel": 7833,
      "Annual": 7834,
      "Ama": 7835,
      "BC": 7836,
      "Dise": 7837,
      "Fig": 7838,
      "Thank": 7839,
      "excellence": 7840,
      "ifts": 7841,
      "assist": 7842,
      "disk": 7843,
      "expert": 7844,
      "ashing": 7845,
      "wanted": 7846,
      "calculations": 7847,
      "taur": 7848,
      "gained": 7849,
      "experiments": 7850,
      "surveillance": 7851,
      "interpretation": 7852,
      "mandates": 7853,
      "facilitate": 7854,
      "Documentation": 7855,
      "instruments": 7856,
      "Russia": 7857,
      "URL": 7858,
      "Large": 7859,
      "Sens": 7860,
      "](": 7861,
      "vill": 7862,
      "Those": 7863,
      "proactive": 7864,
      "agricul": 7865,
      "iron": 7866,
      "loves": 7867,
      "iff": 7868,
      "spons": 7869,
      "cos": 7870,
      "coating": 7871,
      "extends": 7872,
      "venture": 7873,
      "mindset": 7874,
      "graphic": 7875,
      "demonstrated": 7876,
      "Notice": 7877,
      "Neural": 7878,
      "snip": 7879,
      "thrive": 7880,
      "liquid": 7881,
      "Budget": 7882,
      "Estim": 7883,
      "GC": 7884,
      "Natural": 7885,
      "Sou": 7886,
      "Session": 7887,
      "ammat": 7888,
      "exit": 7889,
      "mented": 7890,
      "geographic": 7891,
      "desire": 7892,
      "obst": 7893,
      "settle": 7894,
      "1980": 7895,
      "lightweight": 7896,
      "facing": 7897,
      "breakthrough": 7898,
      "released": 7899,
      "Neuro": 7900,
      "Greeting": 7901,
      "rapidly": 7902,
      "wait": 7903,
      "Thoughts": 7904,
      "Increased": 7905,
      "diamond": 7906,
      "numerous": 7907,
      "philosophy": 7908,
      "Dimension": 7909,
      "Broad": 7910,
      "Wi": 7911,
      "ror": 7912,
      "stances": 7913,
      "epis": 7914,
      "proven": 7915,
      "college": 7916,
      "Print": 7917,
      "curiosity": 7918,
      "voltage": 7919,
      "enetic": 7920,
      "organic": 7921,
      "Quantitative": 7922,
      "Output": 7923,
      "Att": 7924,
      "paint": 7925,
      "Insights": 7926,
      "photos": 7927,
      "automated": 7928,
      "Mobile": 7929,
      "garden": 7930,
      "Bank": 7931,
      "Tem": 7932,
      "uity": 7933,
      "yr": 7934,
      "anes": 7935,
      "alties": 7936,
      "ingly": 7937,
      "isdom": 7938,
      "eless": 7939,
      "olate": 7940,
      "recip": 7941,
      "scoring": 7942,
      "extended": 7943,
      "Animals": 7944,
      "Tra": 7945,
      "visits": 7946,
      "|-----------------": 7947,
      "ographics": 7948,
      "protects": 7949,
      "combine": 7950,
      "heavily": 7951,
      "join": 7952,
      "Detail": 7953,
      "────────": 7954,
      "vulnerability": 7955,
      "plasma": 7956,
      "removal": 7957,
      "senior": 7958,
      "Stakeholder": 7959,
      "Mitigation": 7960,
      "Cele": 7961,
      "PV": 7962,
      "Paul": 7963,
      "unless": 7964,
      "termin": 7965,
      "aven": 7966,
      "flavors": 7967,
      "description": 7968,
      "register": 7969,
      "requests": 7970,
      "lingu": 7971,
      "showcase": 7972,
      "sequencing": 7973,
      "considered": 7974,
      "caused": 7975,
      "Pattern": 7976,
      "Explain": 7977,
      "Skill": 7978,
      "Enhanced": 7979,
      "electricity": 7980,
      "abstract": 7981,
      "tolerance": 7982,
      "emissions": 7983,
      "adequate": 7984,
      "exceptional": 7985,
      "df": 7986,
      "neck": 7987,
      "escal": 7988,
      "leaving": 7989,
      "Three": 7990,
      "uty": 7991,
      "ogene": 7992,
      "forming": 7993,
      "Conservation": 7994,
      "Compreh": 7995,
      "located": 7996,
      "leader": 7997,
      "CRM": 7998,
      "Molec": 7999,
      "introduce": 8000,
      "Update": 8001,
      "pharmacokinetics": 8002,
      "resonate": 8003,
      "Structured": 8004,
      "Schedul": 8005,
      "universal": 8006,
      "Additionally": 8007,
      "Principles": 8008,
      "nuclear": 8009,
      "attemp": 8010,
      "Picture": 8011,
      "Celebr": 8012,
      "->": 8013,
      "Bow": 8014,
      "Fail": 8015,
      "IG": 8016,
      "Lower": 8017,
      "VP": 8018,
      "gem": 8019,
      "mu": 8020,
      "ov": 8021,
      "orting": 8022,
      "itational": 8023,
      "olf": 8024,
      "traditions": 8025,
      "mentation": 8026,
      "White": 8027,
      "affil": 8028,
      "akers": 8029,
      "doors": 8030,
      "Answ": 8031,
      "ishes": 8032,
      "productivity": 8033,
      "summer": 8034,
      "loading": 8035,
      "printing": 8036,
      "guides": 8037,
      "Matter": 8038,
      "millions": 8039,
      "autonomy": 8040,
      "trading": 8041,
      "paced": 8042,
      "*(": 8043,
      "-\\": 8044,
      "Have": 8045,
      "LP": 8046,
      "Save": 8047,
      "divid": 8048,
      "tutorial": 8049,
      "toys": 8050,
      "ested": 8051,
      "scill": 8052,
      "2011": 8053,
      "Reality": 8054,
      "electro": 8055,
      "economics": 8056,
      "synergy": 8057,
      "APIs": 8058,
      "ademy": 8059,
      "Remote": 8060,
      "Observ": 8061,
      "Foundation": 8062,
      "stakeholder": 8063,
      "steady": 8064,
      "Monthly": 8065,
      "Perspective": 8066,
      "Partnerships": 8067,
      "Egyp": 8068,
      "samples": 8069,
      "Ess": 8070,
      "Sa": 8071,
      "named": 8072,
      "rho": 8073,
      "ticed": 8074,
      "otyp": 8075,
      "shake": 8076,
      "meal": 8077,
      "coal": 8078,
      "owned": 8079,
      "Union": 8080,
      "lifestyle": 8081,
      "|---------------|": 8082,
      "medications": 8083,
      "ictory": 8084,
      "256": 8085,
      "introduction": 8086,
      "received": 8087,
      "symbolic": 8088,
      "coordinates": 8089,
      "Genetic": 8090,
      "Equip": 8091,
      "ciliation": 8092,
      "Benefit": 8093,
      "Court": 8094,
      "Psychological": 8095,
      "willingness": 8096,
      "featuring": 8097,
      "Average": 8098,
      "HC": 8099,
      "SM": 8100,
      "barrier": 8101,
      "slip": 8102,
      "utility": 8103,
      "igibility": 8104,
      "shots": 8105,
      "scar": 8106,
      "Chann": 8107,
      "1960": 8108,
      "counting": 8109,
      "|-----------------|": 8110,
      "default": 8111,
      "engineered": 8112,
      "Room": 8113,
      "Assign": 8114,
      "Param": 8115,
      "Smith": 8116,
      "implementing": 8117,
      "describe": 8118,
      "guarantees": 8119,
      "seasonal": 8120,
      "fidelity": 8121,
      "intellectual": 8122,
      ",}": 8123,
      "Past": 8124,
      "Tell": 8125,
      "dil": 8126,
      "gal": 8127,
      "ham": 8128,
      "homes": 8129,
      "native": 8130,
      "{,}": 8131,
      "conference": 8132,
      "ourselves": 8133,
      "enda": 8134,
      "Prob": 8135,
      "backup": 8136,
      "Weather": 8137,
      "Shift": 8138,
      "depends": 8139,
      "Always": 8140,
      "knows": 8141,
      "aimed": 8142,
      "industries": 8143,
      "Moon": 8144,
      "projected": 8145,
      "basics": 8146,
      "treasure": 8147,
      "discussions": 8148,
      "Storytelling": 8149,
      "diagnosis": 8150,
      "rooted": 8151,
      "phrase": 8152,
      "paired": 8153,
      "Industrial": 8154,
      "oriented": 8155,
      "manufacturers": 8156,
      "Single": 8157,
      "derivative": 8158,
      "beautiful": 8159,
      "affects": 8160,
      "Ca": 8161,
      "KPIs": 8162,
      "Ster": 8163,
      "Section": 8164,
      "dust": 8165,
      "jump": 8166,
      "sanc": 8167,
      "–$": 8168,
      "anom": 8169,
      "opens": 8170,
      "umes": 8171,
      "resistant": 8172,
      "Active": 8173,
      "textbook": 8174,
      "centr": 8175,
      "filters": 8176,
      "Scot": 8177,
      "automatic": 8178,
      "dedication": 8179,
      "hosting": 8180,
      "speech": 8181,
      "Surface": 8182,
      "onym": 8183,
      "Accessibility": 8184,
      "freedom": 8185,
      "Treatment": 8186,
      "HTT": 8187,
      "=====================================================": 8188,
      "Recommend": 8189,
      "1970s": 8190,
      "1000": 8191,
      "43": 8192,
      "Dav": 8193,
      "RT": 8194,
      "San": 8195,
      "Wow": 8196,
      "cure": 8197,
      "laser": 8198,
      "pace": 8199,
      "texts": 8200,
      "chor": 8201,
      "admin": 8202,
      "select": 8203,
      "Incorporate": 8204,
      "ocolate": 8205,
      "grain": 8206,
      "Confl": 8207,
      "Concluding": 8208,
      "tically": 8209,
      "guests": 8210,
      "smile": 8211,
      "Cook": 8212,
      "Bring": 8213,
      "Period": 8214,
      "Help": 8215,
      "Labor": 8216,
      "mistakes": 8217,
      "Sarah": 8218,
      "L_": 8219,
      "Tac": 8220,
      "pH": 8221,
      "eras": 8222,
      "itud": 8223,
      "veget": 8224,
      "sug": 8225,
      "shell": 8226,
      "tea": 8227,
      "Anatomy": 8228,
      "developer": 8229,
      "Format": 8230,
      "titles": 8231,
      "downtime": 8232,
      "Highlight": 8233,
      "innovations": 8234,
      "Minim": 8235,
      "affecting": 8236,
      "debt": 8237,
      "hotel": 8238,
      "scrut": 8239,
      "Soft": 8240,
      "inspired": 8241,
      "counseling": 8242,
      "encryption": 8243,
      "scenes": 8244,
      "Bitcoin": 8245,
      "02": 8246,
      "Fre": 8247,
      "pumps": 8248,
      "pilot": 8249,
      "vet": 8250,
      "wing": 8251,
      "isible": 8252,
      "itarian": 8253,
      "ada": 8254,
      "enders": 8255,
      "Contract": 8256,
      "draft": 8257,
      "yses": 8258,
      "locations": 8259,
      "obtain": 8260,
      "decades": 8261,
      "bike": 8262,
      "looked": 8263,
      "trauma": 8264,
      "packages": 8265,
      "Finally": 8266,
      "saying": 8267,
      "debate": 8268,
      "Background": 8269,
      "conflicts": 8270,
      "coaching": 8271,
      "oulder": 8272,
      "anticipate": 8273,
      "reasons": 8274,
      "</": 8275,
      "King": 8276,
      "Sample": 8277,
      "York": 8278,
      "selling": 8279,
      "league": 8280,
      "aping": 8281,
      "approved": 8282,
      "trail": 8283,
      "perhaps": 8284,
      "motive": 8285,
      "diagno": 8286,
      "flight": 8287,
      "highest": 8288,
      "Pricing": 8289,
      "Description": 8290,
      "Collec": 8291,
      "Only": 8292,
      "predictable": 8293,
      "goods": 8294,
      "affected": 8295,
      "Capture": 8296,
      "spreadsheet": 8297,
      "Retr": 8298,
      "Return": 8299,
      "parameter": 8300,
      "bandwidth": 8301,
      "Balance": 8302,
      "arriage": 8303,
      "Mathemat": 8304,
      "temporary": 8305,
      "compassion": 8306,
      "coupled": 8307,
      "dollar": 8308,
      "Ku": 8309,
      "Nutr": 8310,
      "Offic": 8311,
      "PH": 8312,
      "Sen": 8313,
      "Sit": 8314,
      "Solution": 8315,
      "Tech": 8316,
      "hop": 8317,
      "huge": 8318,
      "sends": 8319,
      "wo": 8320,
      "Inspect": 8321,
      "worship": 8322,
      "Contrib": 8323,
      "Child": 8324,
      "viral": 8325,
      "viewers": 8326,
      "pressing": 8327,
      "pursu": 8328,
      "Guard": 8329,
      "middle": 8330,
      "establishing": 8331,
      "license": 8332,
      "walks": 8333,
      "Users": 8334,
      "victim": 8335,
      "Windows": 8336,
      "difficult": 8337,
      "approximately": 8338,
      "Leveraging": 8339,
      "Comprehensive": 8340,
      "Ground": 8341,
      "Tier": 8342,
      "cs": 8343,
      "icipal": 8344,
      "eli": 8345,
      "adder": 8346,
      "lived": 8347,
      "Ste": 8348,
      "acting": 8349,
      "recall": 8350,
      "ugging": 8351,
      "intu": 8352,
      "mediated": 8353,
      "equips": 8354,
      "Controll": 8355,
      "organized": 8356,
      "omestic": 8357,
      "possess": 8358,
      "indicate": 8359,
      "convergence": 8360,
      "Mechanism": 8361,
      "Pitfalls": 8362,
      "Acceler": 8363,
      "motifs": 8364,
      "geometry": 8365,
      "Domestic": 8366,
      "Job": 8367,
      "Stop": 8368,
      "Task": 8369,
      "clock": 8370,
      "kick": 8371,
      "mits": 8372,
      "remark": 8373,
      "arms": 8374,
      "edit": 8375,
      "entral": 8376,
      "usivity": 8377,
      "shock": 8378,
      "liability": 8379,
      "begins": 8380,
      "weet": 8381,
      "spikes": 8382,
      "ears": 8383,
      "oustic": 8384,
      "Animal": 8385,
      "practitioners": 8386,
      "submit": 8387,
      "ought": 8388,
      "pathway": 8389,
      "domains": 8390,
      "muscles": 8391,
      "Without": 8392,
      "oxid": 8393,
      "origin": 8394,
      "winning": 8395,
      "partnerships": 8396,
      "historically": 8397,
      "Behavioral": 8398,
      "faceted": 8399,
      "Austr": 8400,
      "Categ": 8401,
      "March": 8402,
      "js": 8403,
      "**;": 8404,
      "forest": 8405,
      "plt": 8406,
      "Style": 8407,
      "Contr": 8408,
      "fract": 8409,
      "bots": 8410,
      "overe": 8411,
      "overl": 8412,
      "Release": 8413,
      "guest": 8414,
      "reader": 8415,
      "ublesh": 8416,
      "networking": 8417,
      "generations": 8418,
      "oids": 8419,
      "|-------------|": 8420,
      "losses": 8421,
      "initiative": 8422,
      "Calculate": 8423,
      "diagnostic": 8424,
      "Promo": 8425,
      "Investment": 8426,
      "Industry": 8427,
      "hinges": 8428,
      "genuine": 8429,
      "Wrap": 8430,
      "tapes": 8431,
      "uk": 8432,
      "anth": 8433,
      "stance": 8434,
      "etric": 8435,
      "ama": 8436,
      "adherence": 8437,
      "agmatic": 8438,
      "segments": 8439,
      "prime": 8440,
      "Chat": 8441,
      "manship": 8442,
      "blank": 8443,
      "coring": 8444,
      "Univers": 8445,
      "communicate": 8446,
      "Arab": 8447,
      "presented": 8448,
      "emphasizing": 8449,
      "budgets": 8450,
      "finished": 8451,
      "procedural": 8452,
      "Numbers": 8453,
      "vocal": 8454,
      "sacr": 8455,
      "Amazon": 8456,
      "37": 8457,
      "Bible": 8458,
      "Cache": 8459,
      "Fed": 8460,
      "NO": 8461,
      "Wal": 8462,
      "brought": 8463,
      "iel": 8464,
      "mouth": 8465,
      "rub": 8466,
      "warr": 8467,
      "inn": 8468,
      "stars": 8469,
      "ulf": 8470,
      "restaur": 8471,
      "assistance": 8472,
      "pred": 8473,
      "Component": 8474,
      "Ens": 8475,
      "blending": 8476,
      "becoming": 8477,
      "factory": 8478,
      "operative": 8479,
      "variance": 8480,
      "variations": 8481,
      "Despite": 8482,
      "doctr": 8483,
      "licensing": 8484,
      "mobility": 8485,
      "encourage": 8486,
      "Basics": 8487,
      "delivering": 8488,
      "tourism": 8489,
      "Events": 8490,
      "recommended": 8491,
      "Enhance": 8492,
      "Character": 8493,
      "instantly": 8494,
      "Little": 8495,
      "meticulous": 8496,
      "Sam": 8497,
      "Ul": 8498,
      "Vit": 8499,
      "burn": 8500,
      "mL": 8501,
      "pension": 8502,
      "stops": 8503,
      "acles": 8504,
      "chick": 8505,
      "lie": 8506,
      "entials": 8507,
      "diabetes": 8508,
      "angles": 8509,
      "roughly": 8510,
      "whereas": 8511,
      "sheets": 8512,
      "aneous": 8513,
      "USB": 8514,
      "Location": 8515,
      "Writing": 8516,
      "cooling": 8517,
      "seeds": 8518,
      "pulse": 8519,
      "Renaissance": 8520,
      "oversight": 8521,
      "diplomatic": 8522,
      "compromising": 8523,
      "satellite": 8524,
      "Association": 8525,
      "overeign": 8526,
      "47": 8527,
      "MI": 8528,
      "berg": 8529,
      "came": 8530,
      "duration": 8531,
      "ease": 8532,
      "rh": 8533,
      "inspection": 8534,
      "eros": 8535,
      "ided": 8536,
      "ifting": 8537,
      "spent": 8538,
      "ocks": 8539,
      "avy": 8540,
      "upgrades": 8541,
      "deal": 8542,
      "noon": 8543,
      "transmit": 8544,
      "hash": 8545,
      "ceptions": 8546,
      "completion": 8547,
      "Empower": 8548,
      "Altern": 8549,
      "College": 8550,
      "measuring": 8551,
      "raise": 8552,
      "Board": 8553,
      "linking": 8554,
      "Effect": 8555,
      "casting": 8556,
      "embedding": 8557,
      "weaknesses": 8558,
      "criterion": 8559,
      "hurt": 8560,
      "98": 8561,
      "HER": 8562,
      "Makes": 8563,
      "Rule": 8564,
      "Vi": 8565,
      "gly": 8566,
      "pun": 8567,
      "sizes": 8568,
      "veter": 8569,
      "}^{": 8570,
      "thers": 8571,
      "impressive": 8572,
      "worked": 8573,
      "Enzy": 8574,
      "backbone": 8575,
      "invisible": 8576,
      "tainment": 8577,
      "incremental": 8578,
      "|------------------|": 8579,
      "Strong": 8580,
      "definition": 8581,
      "Emp": 8582,
      "improvements": 8583,
      "swing": 8584,
      "Validation": 8585,
      "Workflow": 8586,
      "sustained": 8587,
      "frequently": 8588,
      "eyes": 8589,
      "writers": 8590,
      "convenience": 8591,
      "Require": 8592,
      "exhibit": 8593,
      "published": 8594,
      "oxygen": 8595,
      "Islamic": 8596,
      "Li": 8597,
      "fle": 8598,
      "stabil": 8599,
      "iss": 8600,
      "oters": 8601,
      "Config": 8602,
      "moderate": 8603,
      "Try": 8604,
      "surgical": 8605,
      "axis": 8606,
      "Arti": 8607,
      "safely": 8608,
      "offered": 8609,
      "Feel": 8610,
      "disciplined": 8611,
      "circul": 8612,
      "Capital": 8613,
      "Ethics": 8614,
      "Reduce": 8615,
      "Twitter": 8616,
      "Demonstr": 8617,
      "waiting": 8618,
      "revealed": 8619,
      "Combine": 8620,
      "Connection": 8621,
      "Fit": 8622,
      "hort": 8623,
      "lative": 8624,
      "oric": 8625,
      "iteness": 8626,
      "spots": 8627,
      "Chain": 8628,
      "Replace": 8629,
      "spects": 8630,
      "genre": 8631,
      "signature": 8632,
      "observe": 8633,
      "oster": 8634,
      "missed": 8635,
      "merch": 8636,
      "choosing": 8637,
      "summar": 8638,
      "showcases": 8639,
      "covering": 8640,
      "heads": 8641,
      "clip": 8642,
      "safeguard": 8643,
      "protecting": 8644,
      "molecule": 8645,
      "PCI": 8646,
      "mutual": 8647,
      "discovered": 8648,
      "honest": 8649,
      "isolated": 8650,
      "candidate": 8651,
      "Institutional": 8652,
      "attributes": 8653,
      "advertising": 8654,
      "Predictive": 8655,
      "volunteer": 8656,
      "puzzle": 8657,
      "circumstances": 8658,
      "spectrum": 8659,
      "iatric": 8660,
      "Pi": 8661,
      "TO": 8662,
      "Will": 8663,
      "_k": 8664,
      "papers": 8665,
      "vous": 8666,
      "alerts": 8667,
      "recon": 8668,
      "iture": 8669,
      "amazing": 8670,
      "Chron": 8671,
      "sole": 8672,
      "adian": 8673,
      "generative": 8674,
      "iveness": 8675,
      "Similar": 8676,
      "mentions": 8677,
      "mathcal": 8678,
      "Personalized": 8679,
      "screening": 8680,
      "executive": 8681,
      "Structural": 8682,
      "Instagram": 8683,
      "gravity": 8684,
      "phenomenon": 8685,
      "pandemic": 8686,
      "%**": 8687,
      "CF": 8688,
      "Cs": 8689,
      "MT": 8690,
      "Pac": 8691,
      "Rules": 8692,
      "fight": 8693,
      "vig": 8694,
      "**$": 8695,
      "excer": 8696,
      "Input": 8697,
      "peripher": 8698,
      "estate": 8699,
      "diet": 8700,
      "provision": 8701,
      "Prayer": 8702,
      "auth": 8703,
      "decade": 8704,
      "ographical": 8705,
      "|-----": 8706,
      "properly": 8707,
      "Outcomes": 8708,
      "enhances": 8709,
      "temperatures": 8710,
      "LEGO": 8711,
      "Educational": 8712,
      "folding": 8713,
      "investigation": 8714,
      "inhibitors": 8715,
      "Differenti": 8716,
      "incentives": 8717,
      "dominant": 8718,
      "Relevance": 8719,
      "MO": 8720,
      "T_": 8721,
      "aur": 8722,
      "upload": 8723,
      "enforce": 8724,
      "apse": 8725,
      "kept": 8726,
      "Inves": 8727,
      "Inside": 8728,
      "worry": 8729,
      "Ext": 8730,
      "modest": 8731,
      "interviews": 8732,
      "Proced": 8733,
      "servers": 8734,
      "Artificial": 8735,
      "Strength": 8736,
      "Recon": 8737,
      "discour": 8738,
      "identification": 8739,
      "holding": 8740,
      "|------------|": 8741,
      "rolling": 8742,
      "typing": 8743,
      "Poly": 8744,
      "Grav": 8745,
      "employed": 8746,
      "azz": 8747,
      "Negoti": 8748,
      "fitting": 8749,
      "catalog": 8750,
      "Count": 8751,
      "tigation": 8752,
      "psychology": 8753,
      "shifting": 8754,
      "Career": 8755,
      "prepare": 8756,
      "crowd": 8757,
      "songs": 8758,
      "powers": 8759,
      "German": 8760,
      "diameter": 8761,
      "toxicity": 8762,
      "ruitment": 8763,
      "Dynamo": 8764,
      "Lat": 8765,
      "Of": 8766,
      "Rot": 8767,
      "Willi": 8768,
      "dental": 8769,
      "mask": 8770,
      "rm": 8771,
      "wet": 8772,
      "reme": 8773,
      "leaf": 8774,
      "whel": 8775,
      "shiny": 8776,
      "cannab": 8777,
      "serious": 8778,
      "Forward": 8779,
      "airs": 8780,
      "turnover": 8781,
      "Quarter": 8782,
      "confident": 8783,
      "Goals": 8784,
      "itorial": 8785,
      "Century": 8786,
      "Players": 8787,
      "Microsoft": 8788,
      "acknowledging": 8789,
      "Japanese": 8790,
      "advocacy": 8791,
      "vibrant": 8792,
      "Answer": 8793,
      "tapestry": 8794,
      "Bench": 8795,
      "Dou": 8796,
      "Mes": 8797,
      "PL": 8798,
      "River": 8799,
      "Uk": 8800,
      "Walk": 8801,
      "ait": 8802,
      "festiv": 8803,
      "ptions": 8804,
      "sale": 8805,
      "ince": 8806,
      "chrom": 8807,
      "export": 8808,
      "terrain": 8809,
      "criti": 8810,
      "peers": 8811,
      "corrosion": 8812,
      "criptions": 8813,
      "jections": 8814,
      "Drug": 8815,
      "focuses": 8816,
      "Scene": 8817,
      "navigating": 8818,
      "Identifying": 8819,
      "footprint": 8820,
      "GPUs": 8821,
      "migr": 8822,
      "Pressure": 8823,
      "milestone": 8824,
      "compounds": 8825,
      "architectural": 8826,
      "31": 8827,
      "Lu": 8828,
      "TK": 8829,
      "fetch": 8830,
      "inks": 8831,
      "plied": 8832,
      "imity": 8833,
      "strengthen": 8834,
      "compile": 8835,
      "branch": 8836,
      "Train": 8837,
      "wrap": 8838,
      "Coast": 8839,
      "Within": 8840,
      "watching": 8841,
      "functionality": 8842,
      "Reference": 8843,
      "scopic": 8844,
      "manipulation": 8845,
      "pendant": 8846,
      "Copy": 8847,
      "colonial": 8848,
      "Friendly": 8849,
      "Flexibility": 8850,
      "Corporate": 8851,
      "1960s": 8852,
      "Cut": 8853,
      "Fa": 8854,
      "Mel": 8855,
      "Nan": 8856,
      "kinetic": 8857,
      "tensors": 8858,
      "urg": 8859,
      "ami": 8860,
      "amic": 8861,
      "whis": 8862,
      "shr": 8863,
      "izers": 8864,
      "clause": 8865,
      "drills": 8866,
      "ologists": 8867,
      "interior": 8868,
      "Commission": 8869,
      "regim": 8870,
      "organizational": 8871,
      "laboratory": 8872,
      "treated": 8873,
      "connectivity": 8874,
      "Explore": 8875,
      "selecting": 8876,
      "construct": 8877,
      "square": 8878,
      "CBT": 8879,
      "Agency": 8880,
      "2000s": 8881,
      "temporal": 8882,
      "manufacturer": 8883,
      "SON": 8884,
      "dissecting": 8885,
      "Scripture": 8886,
      "impacts": 8887,
      "Preparation": 8888,
      "Competitive": 8889,
      "Ukrain": 8890,
      "78": 8891,
      "Bud": 8892,
      "Fer": 8893,
      "Fair": 8894,
      "Hierarch": 8895,
      "Publish": 8896,
      "Rol": 8897,
      "Zero": 8898,
      "casc": 8899,
      "eleg": 8900,
      "false": 8901,
      "lung": 8902,
      "vine": 8903,
      "ycle": 8904,
      "},": 8905,
      "olic": 8906,
      "essence": 8907,
      "Theoretical": 8908,
      "vertical": 8909,
      "uctu": 8910,
      "prises": 8911,
      "notable": 8912,
      "analyses": 8913,
      "letes": 8914,
      "memories": 8915,
      "Collection": 8916,
      "Deployment": 8917,
      "involving": 8918,
      "economies": 8919,
      "recognized": 8920,
      "severe": 8921,
      "cardiovascular": 8922,
      "validate": 8923,
      "Request": 8924,
      "Emergency": 8925,
      "Institute": 8926,
      "bowl": 8927,
      "Milestones": 8928,
      "communications": 8929,
      "launched": 8930,
      "Crypto": 8931,
      "Temper": 8932,
      "%)": 8933,
      ".).": 8934,
      "Blood": 8935,
      "Hum": 8936,
      "Libr": 8937,
      "MD": 8938,
      "Rationale": 8939,
      "Scr": 8940,
      "mates": 8941,
      "nod": 8942,
      "recept": 8943,
      "conservative": 8944,
      "ithmetic": 8945,
      "diver": 8946,
      "overwhel": 8947,
      "markers": 8948,
      "plicity": 8949,
      "relate": 8950,
      "meta": 8951,
      "elfare": 8952,
      "|-------------------": 8953,
      "landing": 8954,
      "landscapes": 8955,
      "audits": 8956,
      "activated": 8957,
      "booking": 8958,
      "Roof": 8959,
      "French": 8960,
      "relies": 8961,
      "representing": 8962,
      "__init": 8963,
      "enhanced": 8964,
      "morph": 8965,
      "necessity": 8966,
      "dependence": 8967,
      "Portfolio": 8968,
      "Gradient": 8969,
      "ALU": 8970,
      "belonging": 8971,
      "1980s": 8972,
      "remarkable": 8973,
      "BA": 8974,
      "Cris": 8975,
      "EV": 8976,
      "JSON": 8977,
      "db": 8978,
      "yard": 8979,
      "inspir": 8980,
      "ican": 8981,
      "prolif": 8982,
      "exposed": 8983,
      "loved": 8984,
      "ota": 8985,
      "weights": 8986,
      "ensic": 8987,
      "transist": 8988,
      "Image": 8989,
      "aterials": 8990,
      "Asia": 8991,
      "incred": 8992,
      "operates": 8993,
      "2008": 8994,
      "policymakers": 8995,
      "feeds": 8996,
      "reliance": 8997,
      "computation": 8998,
      "Healthcare": 8999,
      "resonance": 9000,
      "Knowing": 9001,
      "echoes": 9002,
      "Sales": 9003,
      "historic": 9004,
      "HTML": 9005,
      "extraction": 9006,
      "Pipeline": 9007,
      "Consistency": 9008,
      "Frequency": 9009,
      "ammatory": 9010,
      "receptors": 9011,
      "__init__": 9012,
      "Div": 9013,
      "Ec": 9014,
      "Elev": 9015,
      "IL": 9016,
      "Jus": 9017,
      "Kore": 9018,
      "PG": 9019,
      "PO": 9020,
      "astr": 9021,
      "gates": 9022,
      "lor": 9023,
      "}(": 9024,
      "orn": 9025,
      "tie": 9026,
      "rome": 9027,
      "tough": 9028,
      "advis": 9029,
      "afts": 9030,
      "phy": 9031,
      "dispar": 9032,
      "boot": 9033,
      "1950": 9034,
      "venant": 9035,
      "included": 9036,
      "talking": 9037,
      "opened": 9038,
      "expensive": 9039,
      "guiding": 9040,
      "firmware": 9041,
      "represented": 9042,
      "conceptual": 9043,
      "preserves": 9044,
      "estimated": 9045,
      "pushes": 9046,
      "documented": 9047,
      "Sustainable": 9048,
      "houses": 9049,
      "Spiritual": 9050,
      "Bayes": 9051,
      "percentage": 9052,
      "deliberate": 9053,
      "precedented": 9054,
      "inquiry": 9055,
      "29": 9056,
      "=>": 9057,
      "Men": 9058,
      "Nature": 9059,
      "Tempor": 9060,
      "aver": 9061,
      "pp": 9062,
      "rural": 9063,
      "inject": 9064,
      "stations": 9065,
      "adult": 9066,
      "unprecedented": 9067,
      "trick": 9068,
      "comments": 9069,
      "youth": 9070,
      "Inv": 9071,
      "formats": 9072,
      "outline": 9073,
      "portive": 9074,
      "Construction": 9075,
      "Produc": 9076,
      "Chang": 9077,
      "Imaging": 9078,
      "communal": 9079,
      "explains": 9080,
      "biases": 9081,
      "whose": 9082,
      "ubes": 9083,
      "organisms": 9084,
      "Device": 9085,
      "Repe": 9086,
      "institution": 9087,
      "Counter": 9088,
      "Logic": 9089,
      "ylation": 9090,
      "thoughtful": 9091,
      "Challenge": 9092,
      "databases": 9093,
      "struggle": 9094,
      "Adaptive": 9095,
      "Germany": 9096,
      "Silver": 9097,
      "Reflections": 9098,
      "Momentum": 9099,
      "Hold": 9100,
      "Hands": 9101,
      "UX": 9102,
      "sold": 9103,
      "chocolate": 9104,
      "amel": 9105,
      "apters": 9106,
      "strike": 9107,
      "ipping": 9108,
      "grand": 9109,
      "illed": 9110,
      "moved": 9111,
      "overview": 9112,
      "overcome": 9113,
      "Academy": 9114,
      "readiness": 9115,
      "council": 9116,
      "explan": 9117,
      "centered": 9118,
      "Pharmaceutical": 9119,
      "grown": 9120,
      "variants": 9121,
      "sum_": 9122,
      "Begin": 9123,
      "Manager": 9124,
      "sensory": 9125,
      "printed": 9126,
      "graphs": 9127,
      "graphy": 9128,
      "happened": 9129,
      "priorities": 9130,
      "mitigation": 9131,
      "applies": 9132,
      "suspect": 9133,
      "dashboard": 9134,
      "Distributed": 9135,
      "Turning": 9136,
      "Spirit": 9137,
      "thickness": 9138,
      "hazard": 9139,
      ")=": 9140,
      "_size": 9141,
      "ct": 9142,
      "narrow": 9143,
      "pause": 9144,
      "sou": 9145,
      "util": 9146,
      "anecdote": 9147,
      "Ingre": 9148,
      "ively": 9149,
      "ours": 9150,
      "extensive": 9151,
      "brace": 9152,
      "brands": 9153,
      "healing": 9154,
      "setup": 9155,
      "Force": 9156,
      "titution": 9157,
      "Empirical": 9158,
      "Scope": 9159,
      "banks": 9160,
      "raises": 9161,
      "copies": 9162,
      "bulk": 9163,
      "Illustration": 9164,
      "accommodate": 9165,
      "constitutional": 9166,
      "differentiation": 9167,
      "recommendations": 9168,
      "Regional": 9169,
      "Conflict": 9170,
      "Ingredi": 9171,
      "().": 9172,
      "AG": 9173,
      "Ven": 9174,
      "Zo": 9175,
      "aug": 9176,
      "bes": 9177,
      "pted": 9178,
      "pix": 9179,
      "ona": 9180,
      "theories": 9181,
      "agraph": 9182,
      "expose": 9183,
      "shield": 9184,
      "spike": 9185,
      "ensus": 9186,
      "Chin": 9187,
      "summary": 9188,
      "Island": 9189,
      "2009": 9190,
      "Interactive": 9191,
      "startup": 9192,
      "combines": 9193,
      "safeguards": 9194,
      "relief": 9195,
      "Allow": 9196,
      "cardiac": 9197,
      "fails": 9198,
      "boxes": 9199,
      "massive": 9200,
      "humor": 9201,
      "Delivery": 9202,
      "Classical": 9203,
      "filling": 9204,
      "Requires": 9205,
      "Medicare": 9206,
      "clubs": 9207,
      "Automation": 9208,
      "expressed": 9209,
      "gressive": 9210,
      "Committee": 9211,
      "elasticity": 9212,
      "igenous": 9213,
      ")^": 9214,
      "KPI": 9215,
      "Lic": 9216,
      "Ment": 9217,
      "Night": 9218,
      "Scholar": 9219,
      "Warm": 9220,
      "_2": 9221,
      "bum": 9222,
      "cater": 9223,
      "furn": 9224,
      "pione": 9225,
      "racy": 9226,
      "thumb": 9227,
      "rose": 9228,
      "idental": 9229,
      "compromise": 9230,
      "pra": 9231,
      "bear": 9232,
      "evity": 9233,
      "managed": 9234,
      "insur": 9235,
      "transmission": 9236,
      "ponential": 9237,
      "Formal": 9238,
      "beros": 9239,
      "berries": 9240,
      "supplement": 9241,
      "careg": 9242,
      "buildings": 9243,
      "downstream": 9244,
      "filing": 9245,
      "pliers": 9246,
      "();": 9247,
      "packaging": 9248,
      "indicators": 9249,
      "Internal": 9250,
      "buyers": 9251,
      "III": 9252,
      "mirroring": 9253,
      "accelerate": 9254,
      "Listen": 9255,
      "radius": 9256,
      "speaker": 9257,
      "blueprint": 9258,
      "Number": 9259,
      "Between": 9260,
      "browser": 9261,
      "Biomedical": 9262,
      "clinicians": 9263,
      "orchestr": 9264,
      "cumulative": 9265,
      "fuels": 9266,
      "Bro": 9267,
      "Could": 9268,
      "DO": 9269,
      "L1": 9270,
      "Mars": 9271,
      "fies": 9272,
      "iary": 9273,
      "mi": 9274,
      "sick": 9275,
      "chef": 9276,
      "query": 9277,
      "meth": 9278,
      "encaps": 9279,
      "captures": 9280,
      "Segment": 9281,
      "Supply": 9282,
      "boarding": 9283,
      "Diagnos": 9284,
      "fitness": 9285,
      "Researchers": 9286,
      "algorithmic": 9287,
      "connects": 9288,
      "satisfy": 9289,
      "mandatory": 9290,
      "Formation": 9291,
      "Course": 9292,
      "Street": 9293,
      "scheduled": 9294,
      "tackle": 9295,
      "registration": 9296,
      "disputes": 9297,
      "Table": 9298,
      "Win": 9299,
      "cab": 9300,
      "ripple": 9301,
      "ye": 9302,
      "throw": 9303,
      "annot": 9304,
      "alli": 9305,
      "alloy": 9306,
      "repos": 9307,
      "omacy": 9308,
      "etry": 9309,
      "ado": 9310,
      "tray": 9311,
      "utch": 9312,
      "keys": 9313,
      "Infrastructure": 9314,
      "plements": 9315,
      "teeth": 9316,
      "extend": 9317,
      "|-----------|": 9318,
      "timely": 9319,
      "angular": 9320,
      "signed": 9321,
      "curves": 9322,
      "Artic": 9323,
      "capturing": 9324,
      "performed": 9325,
      "pressures": 9326,
      "costly": 9327,
      "Draw": 9328,
      "multifaceted": 9329,
      "Options": 9330,
      "pliant": 9331,
      "tricks": 9332,
      "gestion": 9333,
      "norm": 9334,
      "Box": 9335,
      "saved": 9336,
      "execute": 9337,
      "Audio": 9338,
      "scalable": 9339,
      "appearance": 9340,
      "carries": 9341,
      "Equity": 9342,
      "maximize": 9343,
      "Important": 9344,
      "Execution": 9345,
      "Cycle": 9346,
      "Golden": 9347,
      "mortgage": 9348,
      "attractive": 9349,
      "vacuum": 9350,
      "registers": 9351,
      "Disease": 9352,
      "excerpt": 9353,
      "Chinese": 9354,
      "Dist": 9355,
      "Paper": 9356,
      "RF": 9357,
      "Washing": 9358,
      "damp": 9359,
      "alleg": 9360,
      "oma": 9361,
      "pler": 9362,
      "compress": 9363,
      "verified": 9364,
      "otechn": 9365,
      "Steel": 9366,
      "timest": 9367,
      "Regression": 9368,
      "insulation": 9369,
      "Adoption": 9370,
      "explaining": 9371,
      "supplies": 9372,
      "Sharing": 9373,
      "Optional": 9374,
      "passive": 9375,
      "synthetic": 9376,
      "Observe": 9377,
      "donation": 9378,
      "Status": 9379,
      "debates": 9380,
      "burden": 9381,
      "|----------------------------": 9382,
      "intersect": 9383,
      "answers": 9384,
      "Automated": 9385,
      "scopy": 9386,
      "seemingly": 9387,
      "intricacies": 9388,
      "Token": 9389,
      "explicitly": 9390,
      "Element": 9391,
      "Splunk": 9392,
      "itudinal": 9393,
      "*).": 9394,
      "39": 9395,
      "Der": 9396,
      "EN": 9397,
      "E_": 9398,
[...]
