{
  "version": "1.0",
  "truncation": null,
  "padding": null,
  "added_tokens": [
    {
      "id": 0,
      "content": "[PAD]",
      "single_word": false,
      "lstrip": false,
      "rstrip": false,
      "normalized": false,
      "special": true
    },
    {
      "id": 1,
      "content": "[UNK]",
      "single_word": false,
      "lstrip": false,
      "rstrip": false,
      "normalized": false,
      "special": true
    },
    {
      "id": 2,
      "content": "[CLS]",
      "single_word": false,
      "lstrip": false,
      "rstrip": false,
      "normalized": false,
      "special": true
    },
    {
      "id": 3,
      "content": "[SEP]",
      "single_word": false,
      "lstrip": false,
      "rstrip": false,
      "normalized": false,
      "special": true
    },
    {
      "id": 4,
      "content": "[MASK]",
      "single_word": false,
      "lstrip": false,
      "rstrip": false,
      "normalized": false,
      "special": true
    }
  ],
  "normalizer": null,
  "pre_tokenizer": {
    "type": "Whitespace"
  },
  "post_processor": null,
  "decoder": null,
  "model": {
    "type": "BPE",
    "dropout": null,
    "unk_token": "[UNK]",
    "continuing_subword_prefix": null,
    "end_of_word_suffix": null,
    "fuse_unk": false,
    "byte_fallback": false,
    "ignore_merges": false,
    "vocab": {
      "[PAD]": 0,
      "[UNK]": 1,
      "[CLS]": 2,
      "[SEP]": 3,
      "[MASK]": 4,
      "\u0013": 5,
      "!": 6,
      "\"": 7,
      "#": 8,
      "$": 9,
      "%": 10,
      "&": 11,
      "'": 12,
      "(": 13,
      ")": 14,
      "*": 15,
      "+": 16,
      ",": 17,
      "-": 18,
      ".": 19,
      "/": 20,
      "0": 21,
      "1": 22,
      "2": 23,
      "3": 24,
      "4": 25,
      "5": 26,
      "6": 27,
      "7": 28,
      "8": 29,
      "9": 30,
      ":": 31,
      ";": 32,
      "<": 33,
      "=": 34,
      ">": 35,
      "?": 36,
      "@": 37,
      "A": 38,
      "B": 39,
      "C": 40,
      "D": 41,
      "E": 42,
      "F": 43,
      "G": 44,
      "H": 45,
      "I": 46,
      "J": 47,
      "K": 48,
      "L": 49,
      "M": 50,
      "N": 51,
      "O": 52,
      "P": 53,
      "Q": 54,
      "R": 55,
      "S": 56,
      "T": 57,
      "U": 58,
      "V": 59,
      "W": 60,
      "X": 61,
      "Y": 62,
      "Z": 63,
      "[": 64,
      "\\": 65,
      "]": 66,
      "^": 67,
      "_": 68,
      "`": 69,
      "a": 70,
      "b": 71,
      "c": 72,
      "d": 73,
      "e": 74,
      "f": 75,
      "g": 76,
      "h": 77,
      "i": 78,
      "j": 79,
      "k": 80,
      "l": 81,
      "m": 82,
      "n": 83,
      "o": 84,
      "p": 85,
      "q": 86,
      "r": 87,
      "s": 88,
      "t": 89,
      "u": 90,
      "v": 91,
      "w": 92,
      "x": 93,
      "y": 94,
      "z": 95,
      "{": 96,
      "|": 97,
      "}": 98,
      "~": 99,
      "¡": 100,
      "¢": 101,
      "£": 102,
      "¥": 103,
      "§": 104,
      "©": 105,
      "«": 106,
      "¬": 107,
      "­": 108,
      "®": 109,
      "°": 110,
      "±": 111,
      "²": 112,
      "³": 113,
      "´": 114,
      "µ": 115,
      "·": 116,
      "¹": 117,
      "»": 118,
      "¼": 119,
      "½": 120,
      "¾": 121,
      "¿": 122,
      "Á": 123,
      "Ä": 124,
      "Å": 125,
      "Æ": 126,
      "Ç": 127,
      "É": 128,
      "Ó": 129,
      "Õ": 130,
      "Ö": 131,
      "×": 132,
      "Ø": 133,
      "Ü": 134,
      "ß": 135,
      "à": 136,
      "á": 137,
      "â": 138,
      "ã": 139,
      "ä": 140,
      "å": 141,
      "æ": 142,
      "ç": 143,
      "è": 144,
      "é": 145,
      "ê": 146,
      "ë": 147,
      "ì": 148,
      "í": 149,
      "î": 150,
      "ï": 151,
      "ð": 152,
      "ñ": 153,
      "ò": 154,
      "ó": 155,
      "ô": 156,
      "ö": 157,
      "÷": 158,
      "ø": 159,
      "ú": 160,
      "û": 161,
      "ü": 162,
      "ÿ": 163,
      "ā": 164,
      "ą": 165,
      "ć": 166,
      "Č": 167,
      "ē": 168,
      "ę": 169,
      "ğ": 170,
      "Ĥ": 171,
      "ħ": 172,
      "ī": 173,
      "ı": 174,
      "ľ": 175,
      "Ł": 176,
      "ł": 177,
      "ń": 178,
      "ŋ": 179,
      "ō": 180,
      "ő": 181,
      "œ": 182,
      "ř": 183,
      "ŝ": 184,
      "ş": 185,
      "Š": 186,
      "š": 187,
      "ţ": 188,
      "ū": 189,
      "Ż": 190,
      "ſ": 191,
      "ǎ": 192,
      "ǐ": 193,
      "ǚ": 194,
      "ɑ": 195,
      "ɒ": 196,
      "ɔ": 197,
      "ə": 198,
      "ɛ": 199,
      "ɡ": 200,
      "ɪ": 201,
      "ʃ": 202,
      "ʉ": 203,
      "ʊ": 204,
      "ʌ": 205,
      "ʰ": 206,
      "ʻ": 207,
      "ʿ": 208,
      "ˈ": 209,
      "ˌ": 210,
      "ː": 211,
      "˜": 212,
      "ˣ": 213,
      "́": 214,
      "̄": 215,
      "̇": 216,
      "̥": 217,
      "ͣ": 218,
      "Ͷ": 219,
      ";": 220,
      "Γ": 221,
      "Δ": 222,
      "Θ": 223,
      "Π": 224,
      "Σ": 225,
      "Φ": 226,
      "Χ": 227,
      "Ω": 228,
      "ά": 229,
      "έ": 230,
      "ί": 231,
      "α": 232,
      "β": 233,
      "γ": 234,
      "δ": 235,
      "ε": 236,
      "ζ": 237,
      "η": 238,
      "θ": 239,
      "ι": 240,
      "κ": 241,
      "λ": 242,
      "μ": 243,
      "ν": 244,
      "ο": 245,
      "π": 246,
      "ρ": 247,
      "ς": 248,
      "σ": 249,
      "τ": 250,
      "υ": 251,
      "φ": 252,
      "χ": 253,
      "ψ": 254,
      "ω": 255,
      "ό": 256,
      "ϕ": 257,
      "ϵ": 258,
      "П": 259,
      "а": 260,
      "в": 261,
      "и": 262,
      "к": 263,
      "м": 264,
      "о": 265,
      "р": 266,
      "т": 267,
      "ф": 268,
      "я": 269,
      "і": 270,
      "ה": 271,
      "ח": 272,
      "מ": 273,
      "ש": 274,
      "ة": 275,
      "ق": 276,
      "و": 277,
      "ं": 278,
      "ज": 279,
      "भ": 280,
      "र": 281,
      "व": 282,
      "श": 283,
      "ा": 284,
      "े": 285,
      "ै": 286,
      "ബ": 287,
      "ง": 288,
      "ส": 289,
      "ู": 290,
      "Ꭰ": 291,
      "Ꭲ": 292,
      "Ꭹ": 293,
      "Ꮕ": 294,
      "Ꮧ": 295,
      "Ꮹ": 296,
      "ᵀ": 297,
      "ᵇ": 298,
      "ᵍ": 299,
      "ᵗ": 300,
      "ᵢ": 301,
      "ᵣ": 302,
      "ᵧ": 303,
      "ᶠ": 304,
      "ḍ": 305,
      "ḕ": 306,
      "ḗ": 307,
      "ḥ": 308,
      "ḳ": 309,
      "ḵ": 310,
      "Ṣ": 311,
      "Ṭ": 312,
      "ạ": 313,
      "ἀ": 314,
      "ἅ": 315,
      "ἐ": 316,
      "ἔ": 317,
      "ἰ": 318,
      "ἱ": 319,
      "ὐ": 320,
      "ὕ": 321,
      "ᾱ": 322,
      "ῖ": 323,
      "ῦ": 324,
      "​": 325,
      "‌": 326,
      "‍": 327,
      "‎": 328,
      "‐": 329,
      "‑": 330,
      "–": 331,
      "—": 332,
      "―": 333,
      "‖": 334,
      "‘": 335,
      "’": 336,
      "“": 337,
      "”": 338,
      "„": 339,
      "†": 340,
      "•": 341,
      "…": 342,
      "′": 343,
      "″": 344,
      "›": 345,
      "⁄": 346,
      "⁰": 347,
      "⁴": 348,
      "⁵": 349,
      "⁶": 350,
      "⁷": 351,
      "⁸": 352,
      "⁹": 353,
      "⁺": 354,
      "⁻": 355,
      "ⁿ": 356,
      "₀": 357,
      "₁": 358,
      "₂": 359,
      "₃": 360,
      "₄": 361,
      "₅": 362,
      "₆": 363,
      "₇": 364,
      "₈": 365,
      "₋": 366,
      "ₐ": 367,
      "ₑ": 368,
      "ₓ": 369,
      "ₖ": 370,
      "ₘ": 371,
      "ₙ": 372,
      "ₚ": 373,
      "ₛ": 374,
      "ₜ": 375,
      "₦": 376,
      "₩": 377,
      "€": 378,
      "₱": 379,
      "₹": 380,
      "⃣": 381,
      "ℏ": 382,
      "ℓ": 383,
      "ℝ": 384,
      "™": 385,
      "ℤ": 386,
      "Ω": 387,
      "ℹ": 388,
      "⅓": 389,
      "⅔": 390,
      "⅛": 391,
      "⅜": 392,
      "⅝": 393,
      "⅞": 394,
      "←": 395,
      "↑": 396,
      "→": 397,
      "↓": 398,
      "↔": 399,
      "↘": 400,
      "↦": 401,
      "↳": 402,
      "⇄": 403,
      "⇒": 404,
      "∀": 405,
      "∂": 406,
      "∃": 407,
      "∆": 408,
      "∇": 409,
      "∈": 410,
      "∉": 411,
      "∎": 412,
      "∑": 413,
      "−": 414,
      "∗": 415,
      "∙": 416,
      "√": 417,
      "∝": 418,
      "∞": 419,
      "∧": 420,
      "∨": 421,
      "∫": 422,
      "∼": 423,
      "≈": 424,
      "≠": 425,
      "≡": 426,
      "≤": 427,
      "≥": 428,
      "≳": 429,
      "⊕": 430,
      "⊙": 431,
      "⋅": 432,
      "⋮": 433,
      "⋯": 434,
      "⌘": 435,
      "〈": 436,
      "⏩": 437,
      "⏰": 438,
      "⏳": 439,
      "①": 440,
      "②": 441,
      "③": 442,
      "─": 443,
      "│": 444,
      "┌": 445,
      "┐": 446,
      "└": 447,
      "┘": 448,
      "├": 449,
      "┤": 450,
      "┬": 451,
      "┴": 452,
      "┼": 453,
      "▲": 454,
      "►": 455,
      "▼": 456,
      "◼": 457,
      "★": 458,
      "☆": 459,
      "☉": 460,
      "☐": 461,
      "☑": 462,
      "☒": 463,
      "☰": 464,
      "☺": 465,
      "♀": 466,
      "♂": 467,
      "♪": 468,
      "♭": 469,
      "♯": 470,
      "⚔": 471,
      "⚕": 472,
      "⚖": 473,
      "⚙": 474,
      "⚛": 475,
      "⚠": 476,
      "⚡": 477,
      "⚽": 478,
      "✅": 479,
      "✈": 480,
      "✉": 481,
      "✍": 482,
      "✏": 483,
      "✓": 484,
      "✔": 485,
      "✖": 486,
      "✘": 487,
      "✚": 488,
      "✨": 489,
      "❄": 490,
      "❌": 491,
      "❓": 492,
      "❤": 493,
      "➔": 494,
      "➜": 495,
      "➡": 496,
      "⟩": 497,
      "⬜": 498,
      "⭐": 499,
      "」": 500,
      "い": 501,
      "う": 502,
      "お": 503,
      "こ": 504,
      "ご": 505,
      "さ": 506,
      "ざ": 507,
      "す": 508,
      "ち": 509,
      "で": 510,
      "に": 511,
      "は": 512,
      "ま": 513,
      "よ": 514,
      "れ": 515,
      "ん": 516,
      "ㅋ": 517,
      "你": 518,
      "先": 519,
      "合": 520,
      "圣": 521,
      "士": 522,
      "女": 523,
      "好": 524,
      "心": 525,
      "敬": 526,
      "核": 527,
      "猪": 528,
      "生": 529,
      "疲": 530,
      "碑": 531,
      "礼": 532,
      "结": 533,
      "舒": 534,
      "贵": 535,
      "适": 536,
      "ꞏ": 537,
      "녕": 538,
      "말": 539,
      "사": 540,
      "세": 541,
      "안": 542,
      "요": 543,
      "인": 544,
      "하": 545,
      "ﬁ": 546,
      "ﬂ": 547,
      "ﷺ": 548,
      "︎": 549,
      "️": 550,
      "﻿": 551,
      "（": 552,
      "）": 553,
      "𝐈": 554,
      "𝐞": 555,
      "𝐮": 556,
      "𝐴": 557,
      "𝐵": 558,
      "𝐶": 559,
      "𝐸": 560,
      "𝐹": 561,
      "𝐻": 562,
      "𝐼": 563,
      "𝐽": 564,
      "𝐿": 565,
      "𝑀": 566,
      "𝑂": 567,
      "𝑎": 568,
      "𝑑": 569,
      "𝑒": 570,
      "𝑔": 571,
      "𝑛": 572,
      "𝑠": 573,
      "🌄": 574,
      "🌈": 575,
      "🌊": 576,
      "🌌": 577,
      "🌍": 578,
      "🌎": 579,
      "🌐": 580,
      "🌕": 581,
      "🌙": 582,
      "🌞": 583,
      "🌟": 584,
      "🌠": 585,
      "🌡": 586,
      "🌧": 587,
      "🌪": 588,
      "🌬": 589,
      "🌱": 590,
      "🌲": 591,
      "🌳": 592,
      "🌴": 593,
      "🌸": 594,
      "🌾": 595,
      "🌿": 596,
      "🍑": 597,
      "🍓": 598,
      "🍔": 599,
      "🍽": 600,
      "🎁": 601,
      "🎈": 602,
      "🎉": 603,
      "🎒": 604,
      "🎓": 605,
      "🎡": 606,
      "🎢": 607,
      "🎥": 608,
      "🎧": 609,
      "🎨": 610,
      "🎫": 611,
      "🎭": 612,
      "🎮": 613,
      "🎯": 614,
      "🎽": 615,
      "🏀": 616,
      "🏃": 617,
      "🏆": 618,
      "🏗": 619,
      "🏙": 620,
      "🏛": 621,
      "🏞": 622,
      "🏟": 623,
      "🏠": 624,
      "🏡": 625,
      "🏫": 626,
      "🏰": 627,
      "🏺": 628,
      "🐍": 629,
      "🐔": 630,
      "🐜": 631,
      "🐮": 632,
      "🐰": 633,
      "🐱": 634,
      "🐲": 635,
      "🐶": 636,
      "🐾": 637,
      "👀": 638,
      "👂": 639,
      "👇": 640,
      "👉": 641,
      "👋": 642,
      "👍": 643,
      "👎": 644,
      "👟": 645,
      "👣": 646,
      "👤": 647,
      "👩": 648,
      "👶": 649,
      "👸": 650,
      "💀": 651,
      "💖": 652,
      "💙": 653,
      "💡": 654,
      "💤": 655,
      "💪": 656,
      "💫": 657,
      "💬": 658,
      "💰": 659,
      "💳": 660,
      "📀": 661,
      "📅": 662,
      "📈": 663,
      "📊": 664,
      "📌": 665,
      "📍": 666,
      "📏": 667,
      "📐": 668,
      "📑": 669,
      "📖": 670,
      "📗": 671,
      "📘": 672,
      "📚": 673,
      "📜": 674,
      "📡": 675,
      "📢": 676,
      "📣": 677,
      "📥": 678,
      "📦": 679,
      "📧": 680,
      "📬": 681,
      "📱": 682,
      "📲": 683,
      "📺": 684,
      "📻": 685,
      "🔁": 686,
      "🔄": 687,
      "🔊": 688,
      "🔌": 689,
      "🔍": 690,
      "🔑": 691,
      "🔒": 692,
      "🔔": 693,
      "🔗": 694,
      "🔚": 695,
      "🔟": 696,
      "🔠": 697,
      "🔥": 698,
      "🔧": 699,
      "🔨": 700,
      "🔩": 701,
      "🔬": 702,
      "🔭": 703,
      "🔮": 704,
      "🔹": 705,
      "🕊": 706,
      "🕖": 707,
      "🕗": 708,
      "🕰": 709,
      "🕸": 710,
      "🖐": 711,
      "🖼": 712,
      "🗂": 713,
      "🗣": 714,
      "🗺": 715,
      "🗻": 716,
      "🗿": 717,
      "😁": 718,
      "😃": 719,
      "😊": 720,
      "😎": 721,
      "😜": 722,
      "🙂": 723,
      "🙋": 724,
      "🚀": 725,
      "🚂": 726,
      "🚗": 727,
      "🚙": 728,
      "🚢": 729,
      "🚦": 730,
      "🚨": 731,
      "🚪": 732,
      "🚫": 733,
      "🚴": 734,
      "🚶": 735,
      "🛠": 736,
      "🛡": 737,
      "🛤": 738,
      "🛰": 739,
      "🟢": 740,
      "🤔": 741,
      "🤖": 742,
      "🤝": 743,
      "🤩": 744,
      "🤸": 745,
      "🥳": 746,
      "🦴": 747,
      "🦾": 748,
      "🧠": 749,
      "🧩": 750,
      "🧪": 751,
      "🧬": 752,
      "🧭": 753,
      "🧮": 754,
      "🪁": 755,
      "🪑": 756,
      "🪙": 757,
      "🪛": 758,
      "🪨": 759,
      "in": 760,
      "er": 761,
      "th": 762,
      "on": 763,
      "an": 764,
      "at": 765,
      "es": 766,
      "en": 767,
      "or": 768,
      "**": 769,
      "al": 770,
      "re": 771,
      "ing": 772,
      "ti": 773,
      "the": 774,
      "--": 775,
      "st": 776,
      "ar": 777,
      "and": 778,
      "ed": 779,
      "ic": 780,
      "ro": 781,
      "is": 782,
      "to": 783,
      "it": 784,
      "ac": 785,
      "le": 786,
      "ou": 787,
      "ion": 788,
      "ent": 789,
      "of": 790,
      "##": 791,
      "as": 792,
      "el": 793,
      "ec": 794,
      "ation": 795,
      "om": 796,
      "for": 797,
      "et": 798,
      "ol": 799,
      "----": 800,
      "ch": 801,
      "ig": 802,
      "tion": 803,
      "il": 804,
      "Th": 805,
      "ce": 806,
      "ve": 807,
      "ur": 808,
      "ow": 809,
      "id": 810,
      "ers": 811,
      "am": 812,
      "em": 813,
      "ad": 814,
      "pl": 815,
      "pro": 816,
      "un": 817,
      "us": 818,
      "ap": 819,
      "ess": 820,
      "ul": 821,
      "con": 822,
      "ab": 823,
      "ex": 824,
      "ag": 825,
      "tr": 826,
      "im": 827,
      "ter": 828,
      "The": 829,
      "ate": 830,
      "com": 831,
      "ay": 832,
      "ity": 833,
      "ith": 834,
      "that": 835,
      "**:": 836,
      "ly": 837,
      "se": 838,
      "od": 839,
      "ir": 840,
      "ts": 841,
      "ment": 842,
      "op": 843,
      "ver": 844,
      "you": 845,
      "with": 846,
      "tic": 847,
      "lo": 848,
      "if": 849,
      "###": 850,
      "ach": 851,
      "su": 852,
      "ut": 853,
      "wh": 854,
      "==": 855,
      "are": 856,
      "qu": 857,
      "igh": 858,
      "ain": 859,
      "ud": 860,
      "ke": 861,
      "In": 862,
      "uc": 863,
      "ot": 864,
      "str": 865,
      "can": 866,
      "pr": 867,
      "sh": 868,
      "li": 869,
      "per": 870,
      ":**": 871,
      "all": 872,
      "--------": 873,
      "be": 874,
      "ev": 875,
      "we": 876,
      "ine": 877,
      "ure": 878,
      "St": 879,
      "sp": 880,
      "ep": 881,
      "og": 882,
      "ical": 883,
      "iv": 884,
      "um": 885,
      "wor": 886,
      "res": 887,
      "ance": 888,
      "iz": 889,
      "ial": 890,
      "ies": 891,
      "our": 892,
      "cl": 893,
      "ip": 894,
      "ne": 895,
      "ive": 896,
      "me": 897,
      "ign": 898,
      "oc": 899,
      "ef": 900,
      "each": 901,
      "form": 902,
      "ear": 903,
      "out": 904,
      "ple": 905,
      "gr": 906,
      "ence": 907,
      "ist": 908,
      "der": 909,
      "por": 910,
      "ther": 911,
      "Wh": 912,
      "po": 913,
      "ations": 914,
      "est": 915,
      "rom": 916,
      "ust": 917,
      "age": 918,
      "av": 919,
      "end": 920,
      "ect": 921,
      "oun": 922,
      "enti": 923,
      "ib": 924,
      "act": 925,
      "ind": 926,
      "ens": 927,
      "Con": 928,
      "ge": 929,
      "tions": 930,
      "cre": 931,
      "iti": 932,
      "ight": 933,
      "by": 934,
      "enc": 935,
      "ard": 936,
      "up": 937,
      "ill": 938,
      "rec": 939,
      "ant": 940,
      "====": 941,
      "ans": 942,
      "ore": 943,
      "ack": 944,
      "ell": 945,
      "from": 946,
      "cr": 947,
      "---": 948,
      "able": 949,
      "work": 950,
      "te": 951,
      "its": 952,
      "ory": 953,
      "ak": 954,
      "af": 955,
      "cont": 956,
      "ide": 957,
      "co": 958,
      "your": 959,
      "ug": 960,
      "par": 961,
      "mo": 962,
      "duc": 963,
      "dr": 964,
      "00": 965,
      ").": 966,
      "ual": 967,
      "ld": 968,
      "ass": 969,
      "ast": 970,
      "sy": 971,
      "eacher": 972,
      "one": 973,
      "port": 974,
      "ents": 975,
      "Teacher": 976,
      "ph": 977,
      "olog": 978,
      "into": 979,
      "cess": 980,
      "ech": 981,
      "Ex": 982,
      "inter": 983,
      "comp": 984,
      "dat": 985,
      "ility": 986,
      "mod": 987,
      "sc": 988,
      "dis": 989,
      "this": 990,
      "ary": 991,
      "fer": 992,
      "ors": 993,
      "Stud": 994,
      "di": 995,
      "als": 996,
      "he": 997,
      "fr": 998,
      "ase": 999,
      "br": 1000,
      "ext": 1001,
      "lec": 1002,
      "ated": 1003,
      "ere": 1004,
      "ss": 1005,
      "stem": 1006,
      "ser": 1007,
      "fl": 1008,
      "ue": 1009,
      "int": 1010,
      "stand": 1011,
      "bo": 1012,
      "ates": 1013,
      "anc": 1014,
      "ating": 1015,
      "tur": 1016,
      "Pro": 1017,
      "fe": 1018,
      "like": 1019,
      "over": 1020,
      "comm": 1021,
      "ome": 1022,
      "tive": 1023,
      "ous": 1024,
      "pe": 1025,
      "tical": 1026,
      "Ch": 1027,
      "ark": 1028,
      "ative": 1029,
      "their": 1030,
      "ail": 1031,
      "20": 1032,
      "eng": 1033,
      "``": 1034,
      "man": 1035,
      "ok": 1036,
      "ys": 1037,
      "pre": 1038,
      "This": 1039,
      "ese": 1040,
      "ty": 1041,
      "ace": 1042,
      "under": 1043,
      "not": 1044,
      "ting": 1045,
      "ics": 1046,
      "aw": 1047,
      "ile": 1048,
      "ave": 1049,
      "how": 1050,
      "ning": 1051,
      "ific": 1052,
      "ew": 1053,
      "ake": 1054,
      "prov": 1055,
      "ll": 1056,
      "Student": 1057,
      "tim": 1058,
      "|--------": 1059,
      "ame": 1060,
      "Com": 1061,
      "do": 1062,
      "ice": 1063,
      "loc": 1064,
      "dev": 1065,
      "data": 1066,
      "get": 1067,
      "ong": 1068,
      "mat": 1069,
      "de": 1070,
      "des": 1071,
      "system": 1072,
      "An": 1073,
      "ments": 1074,
      "tional": 1075,
      "ound": 1076,
      "high": 1077,
      "own": 1078,
      "ang": 1079,
      "ower": 1080,
      "use": 1081,
      "ia": 1082,
      "elop": 1083,
      "lear": 1084,
      "fic": 1085,
      "Re": 1086,
      "ential": 1087,
      "gro": 1088,
      "min": 1089,
      "Tr": 1090,
      "En": 1091,
      "cul": 1092,
      "ugh": 1093,
      "no": 1094,
      "time": 1095,
      "bl": 1096,
      "ten": 1097,
      "tiv": 1098,
      "ins": 1099,
      "med": 1100,
      "art": 1101,
      "By": 1102,
      "about": 1103,
      "col": 1104,
      "ability": 1105,
      "ience": 1106,
      "ture": 1107,
      "but": 1108,
      "ely": 1109,
      "========": 1110,
      "gen": 1111,
      "play": 1112,
      "ities": 1113,
      "ks": 1114,
      "have": 1115,
      "spec": 1116,
      "ding": 1117,
      "ational": 1118,
      "has": 1119,
      "ful": 1120,
      "rough": 1121,
      "more": 1122,
      "echn": 1123,
      "ology": 1124,
      "ement": 1125,
      "What": 1126,
      "ds": 1127,
      "io": 1128,
      "ould": 1129,
      "cor": 1130,
      "ever": 1131,
      "mark": 1132,
      "val": 1133,
      "sign": 1134,
      "trans": 1135,
      "serv": 1136,
      "plic": 1137,
      "uring": 1138,
      "reg": 1139,
      "Pr": 1140,
      "go": 1141,
      "ite": 1142,
      "erg": 1143,
      "new": 1144,
      "Im": 1145,
      "els": 1146,
      "ample": 1147,
      "ath": 1148,
      "ings": 1149,
      "ise": 1150,
      "struc": 1151,
      "ms": 1152,
      "ish": 1153,
      "uil": 1154,
      "inv": 1155,
      "these": 1156,
      "stud": 1157,
      "red": 1158,
      "ink": 1159,
      "ures": 1160,
      ".,": 1161,
      "exper": 1162,
      "they": 1163,
      "ich": 1164,
      "low": 1165,
      "pol": 1166,
      "It": 1167,
      "ession": 1168,
      "develop": 1169,
      "app": 1170,
      "standing": 1171,
      "Un": 1172,
      "bet": 1173,
      "ution": 1174,
      "arr": 1175,
      "requ": 1176,
      "ateg": 1177,
      "hel": 1178,
      "ency": 1179,
      "####": 1180,
      "\\(": 1181,
      "back": 1182,
      "line": 1183,
      "ays": 1184,
      "pon": 1185,
      "How": 1186,
      "au": 1187,
      "pers": 1188,
      "vi": 1189,
      "Ac": 1190,
      "cur": 1191,
      "ob": 1192,
      "pres": 1193,
      "just": 1194,
      "through": 1195,
      "ision": 1196,
      "pat": 1197,
      "ick": 1198,
      "ize": 1199,
      "mon": 1200,
      "now": 1201,
      "expl": 1202,
      "ition": 1203,
      "Ad": 1204,
      "ient": 1205,
      "cep": 1206,
      "fir": 1207,
      "rel": 1208,
      "les": 1209,
      "ital": 1210,
      "design": 1211,
      "set": 1212,
      "ost": 1213,
      "need": 1214,
      "As": 1215,
      "ased": 1216,
      "ater": 1217,
      "pos": 1218,
      "dec": 1219,
      "vers": 1220,
      "where": 1221,
      "10": 1222,
      "commun": 1223,
      "will": 1224,
      "what": 1225,
      "aph": 1226,
      "For": 1227,
      "old": 1228,
      "und": 1229,
      "process": 1230,
      "text": 1231,
      "gu": 1232,
      "sec": 1233,
      "read": 1234,
      "19": 1235,
      "coun": 1236,
      "any": 1237,
      "cer": 1238,
      "main": 1239,
      "alth": 1240,
      "os": 1241,
      "usion": 1242,
      "tegr": 1243,
      "tics": 1244,
      "other": 1245,
      "ber": 1246,
      "tain": 1247,
      "techn": 1248,
      "cons": 1249,
      "help": 1250,
      "when": 1251,
      "fi": 1252,
      "bal": 1253,
      "tern": 1254,
      "sup": 1255,
      "sim": 1256,
      "ences": 1257,
      "```": 1258,
      "anal": 1259,
      "yn": 1260,
      "incl": 1261,
      "ines": 1262,
      "power": 1263,
      "bi": 1264,
      "world": 1265,
      "Step": 1266,
      "who": 1267,
      "ized": 1268,
      "mak": 1269,
      "sm": 1270,
      "),": 1271,
      "fec": 1272,
      "produc": 1273,
      "ular": 1274,
      "sur": 1275,
      "such": 1276,
      "reat": 1277,
      "ort": 1278,
      "ves": 1279,
      "lev": 1280,
      "earch": 1281,
      "comple": 1282,
      "ari": 1283,
      "*:": 1284,
      "off": 1285,
      "some": 1286,
      "ices": 1287,
      "sing": 1288,
      "vir": 1289,
      "Ke": 1290,
      "onal": 1291,
      "ness": 1292,
      "agement": 1293,
      "arm": 1294,
      "put": 1295,
      "ven": 1296,
      "met": 1297,
      "bec": 1298,
      "etwork": 1299,
      "ship": 1300,
      "buil": 1301,
      "ization": 1302,
      "ross": 1303,
      "sol": 1304,
      "oy": 1305,
      ".”": 1306,
      "ree": 1307,
      "Res": 1308,
      "ustr": 1309,
      "elf": 1310,
      "ange": 1311,
      "cent": 1312,
      "soc": 1313,
      "mis": 1314,
      "ween": 1315,
      "action": 1316,
      "fun": 1317,
      "ior": 1318,
      "Use": 1319,
      "ade": 1320,
      "dem": 1321,
      "led": 1322,
      "dif": 1323,
      "lif": 1324,
      "cell": 1325,
      "ris": 1326,
      "tw": 1327,
      "iqu": 1328,
      "air": 1329,
      "was": 1330,
      "arget": 1331,
      "them": 1332,
      "includ": 1333,
      "care": 1334,
      "tural": 1335,
      "real": 1336,
      "tor": 1337,
      "ider": 1338,
      "day": 1339,
      "Pl": 1340,
      "ted": 1341,
      "between": 1342,
      "ages": 1343,
      "Why": 1344,
      "light": 1345,
      "del": 1346,
      "prac": 1347,
      "using": 1348,
      "fin": 1349,
      "ible": 1350,
      "sure": 1351,
      "When": 1352,
      "market": 1353,
      "gan": 1354,
      "every": 1355,
      "rol": 1356,
      "vis": 1357,
      "her": 1358,
      "which": 1359,
      "understanding": 1360,
      "inc": 1361,
      "allow": 1362,
      "view": 1363,
      "sub": 1364,
      "fol": 1365,
      "ape": 1366,
      "acy": 1367,
      "tit": 1368,
      "lead": 1369,
      "ological": 1370,
      "may": 1371,
      "ose": 1372,
      "ord": 1373,
      "respon": 1374,
      "let": 1375,
      "clusion": 1376,
      "ward": 1377,
      "plan": 1378,
      "pu": 1379,
      "ights": 1380,
      "ern": 1381,
      "\\)": 1382,
      "cal": 1383,
      "fact": 1384,
      "mem": 1385,
      "model": 1386,
      "step": 1387,
      "ynam": 1388,
      "strateg": 1389,
      "health": 1390,
      "ax": 1391,
      "incre": 1392,
      "uman": 1393,
      "mer": 1394,
      "appro": 1395,
      "ivers": 1396,
      "det": 1397,
      "ues": 1398,
      "prof": 1399,
      "ature": 1400,
      "ety": 1401,
      "key": 1402,
      "keep": 1403,
      "pec": 1404,
      "often": 1405,
      "cho": 1406,
      "show": 1407,
      "import": 1408,
      "itical": 1409,
      "used": 1410,
      "inform": 1411,
      "than": 1412,
      "iness": 1413,
      "see": 1414,
      "ustom": 1415,
      "adv": 1416,
      "apter": 1417,
      "gh": 1418,
      "arch": 1419,
      "progr": 1420,
      "perform": 1421,
      "provid": 1422,
      "Ar": 1423,
      "ople": 1424,
      "ysis": 1425,
      "bre": 1426,
      "ergy": 1427,
      "pect": 1428,
      "also": 1429,
      "We": 1430,
      "viron": 1431,
      "sion": 1432,
      "ood": 1433,
      "lab": 1434,
      "sk": 1435,
      "Ph": 1436,
      "cap": 1437,
      "ref": 1438,
      "differ": 1439,
      "ply": 1440,
      "ject": 1441,
      "nec": 1442,
      "complex": 1443,
      "oring": 1444,
      "ets": 1445,
      "reduc": 1446,
      "aging": 1447,
      "hist": 1448,
      "effec": 1449,
      "def": 1450,
      "stat": 1451,
      "12": 1452,
      "press": 1453,
      "That": 1454,
      "systems": 1455,
      "ulti": 1456,
      "year": 1457,
      "Str": 1458,
      "small": 1459,
      "ving": 1460,
      "integr": 1461,
      "ry": 1462,
      "Mod": 1463,
      "pact": 1464,
      "echan": 1465,
      "king": 1466,
      "ives": 1467,
      "ire": 1468,
      "so": 1469,
      "essential": 1470,
      "Example": 1471,
      "flu": 1472,
      "while": 1473,
      "ub": 1474,
      "list": 1475,
      "ism": 1476,
      "grow": 1477,
      "fore": 1478,
      "pot": 1479,
      "Cl": 1480,
      "saf": 1481,
      "vari": 1482,
      "If": 1483,
      "ases": 1484,
      "plications": 1485,
      "tice": 1486,
      "down": 1487,
      "equ": 1488,
      "then": 1489,
      "based": 1490,
      "first": 1491,
      "oper": 1492,
      "iting": 1493,
      "|----------------": 1494,
      "Sh": 1495,
      "igital": 1496,
      "ond": 1497,
      "fy": 1498,
      "raph": 1499,
      "ps": 1500,
      "Ap": 1501,
      "target": 1502,
      "000": 1503,
      "ces": 1504,
      "bod": 1505,
      "cost": 1506,
      "ality": 1507,
      "tool": 1508,
      "ples": 1509,
      "vol": 1510,
      "cle": 1511,
      "land": 1512,
      "learning": 1513,
      "network": 1514,
      "signific": 1515,
      "people": 1516,
      "ivid": 1517,
      "Wor": 1518,
      "ash": 1519,
      "research": 1520,
      "less": 1521,
      "leg": 1522,
      "adi": 1523,
      "log": 1524,
      "ically": 1525,
      "tal": 1526,
      "Rec": 1527,
      "jec": 1528,
      "ble": 1529,
      "Prac": 1530,
      "wr": 1531,
      "ode": 1532,
      "inst": 1533,
      "icy": 1534,
      "ather": 1535,
      "hand": 1536,
      "fac": 1537,
      "Conclusion": 1538,
      "eck": 1539,
      "look": 1540,
      "ends": 1541,
      "Cont": 1542,
      "long": 1543,
      "ough": 1544,
      "ering": 1545,
      "vironment": 1546,
      "ural": 1547,
      "even": 1548,
      "team": 1549,
      "ploy": 1550,
      "way": 1551,
      "row": 1552,
      "He": 1553,
      "hy": 1554,
      "ute": 1555,
      "atch": 1556,
      "only": 1557,
      "usiness": 1558,
      "ters": 1559,
      "Key": 1560,
      "blic": 1561,
      "train": 1562,
      "rect": 1563,
      "specific": 1564,
      "inal": 1565,
      "aud": 1566,
      "cover": 1567,
      "func": 1568,
      "create": 1569,
      "chapter": 1570,
      "identi": 1571,
      "15": 1572,
      "disc": 1573,
      "ense": 1574,
      "crip": 1575,
      "lay": 1576,
      "ix": 1577,
      "ibility": 1578,
      "ances": 1579,
      "self": 1580,
      "part": 1581,
      "Sy": 1582,
      "ric": 1583,
      "dic": 1584,
      "================": 1585,
      "drug": 1586,
      "turn": 1587,
      "ause": 1588,
      "present": 1589,
      "local": 1590,
      "uce": 1591,
      "dep": 1592,
      "must": 1593,
      "uture": 1594,
      "Le": 1595,
      "does": 1596,
      "phys": 1597,
      "ividual": 1598,
      "ling": 1599,
      "enef": 1600,
      "life": 1601,
      "ied": 1602,
      "atform": 1603,
      "Em": 1604,
      "amil": 1605,
      "support": 1606,
      "contin": 1607,
      "control": 1608,
      "organ": 1609,
      "onom": 1610,
      "ner": 1611,
      "both": 1612,
      "ie": 1613,
      ")**": 1614,
      "make": 1615,
      "These": 1616,
      "personal": 1617,
      "ata": 1618,
      "might": 1619,
      "chang": 1620,
      "know": 1621,
      "eld": 1622,
      "oth": 1623,
      "char": 1624,
      "custom": 1625,
      "contr": 1626,
      "Al": 1627,
      "Let": 1628,
      "individual": 1629,
      "ian": 1630,
      "To": 1631,
      "ograph": 1632,
      "human": 1633,
      "test": 1634,
      "gre": 1635,
      "follow": 1636,
      "well": 1637,
      "making": 1638,
      "gener": 1639,
      "come": 1640,
      "ene": 1641,
      "ulation": 1642,
      "fil": 1643,
      "tem": 1644,
      "social": 1645,
      "amp": 1646,
      "many": 1647,
      "approach": 1648,
      "iver": 1649,
      "foc": 1650,
      "potential": 1651,
      "You": 1652,
      "multi": 1653,
      "community": 1654,
      "tro": 1655,
      "ult": 1656,
      "development": 1657,
      "hav": 1658,
      "ma": 1659,
      "his": 1660,
      "class": 1661,
      "anced": 1662,
      "30": 1663,
      "top": 1664,
      "ique": 1665,
      "educ": 1666,
      "program": 1667,
      "Dr": 1668,
      "experience": 1669,
      "Op": 1670,
      "elec": 1671,
      "eed": 1672,
      "lim": 1673,
      "ogn": 1674,
      "significant": 1675,
      "structure": 1676,
      "fect": 1677,
      "Be": 1678,
      "face": 1679,
      "Lo": 1680,
      "activ": 1681,
      "share": 1682,
      "stor": 1683,
      "IS": 1684,
      "most": 1685,
      "access": 1686,
      "after": 1687,
      "think": 1688,
      "ify": 1689,
      "risk": 1690,
      "actions": 1691,
      "energy": 1692,
      "ons": 1693,
      "mun": 1694,
      "change": 1695,
      "environment": 1696,
      "story": 1697,
      "role": 1698,
      "book": 1699,
      "idence": 1700,
      "Data": 1701,
      "ier": 1702,
      "tell": 1703,
      "sum": 1704,
      "lock": 1705,
      "iter": 1706,
      "chall": 1707,
      "oid": 1708,
      "within": 1709,
      "ication": 1710,
      "202": 1711,
      "cruc": 1712,
      "ote": 1713,
      "icro": 1714,
      "concep": 1715,
      "feel": 1716,
      "road": 1717,
      "ited": 1718,
      "tle": 1719,
      "ques": 1720,
      "path": 1721,
      "ties": 1722,
      "platform": 1723,
      "could": 1724,
      "Is": 1725,
      "Des": 1726,
      "effic": 1727,
      "ination": 1728,
      "car": 1729,
      "num": 1730,
      "hear": 1731,
      "without": 1732,
      "example": 1733,
      "crucial": 1734,
      "point": 1735,
      "ched": 1736,
      "before": 1737,
      "ways": 1738,
      "load": 1739,
      "evol": 1740,
      "mechan": 1741,
      "hip": 1742,
      "ule": 1743,
      "Under": 1744,
      "business": 1745,
      "ards": 1746,
      "So": 1747,
      "istr": 1748,
      "Anal": 1749,
      "Sc": 1750,
      "iven": 1751,
      "partic": 1752,
      "move": 1753,
      "nov": 1754,
      "there": 1755,
      "----------------": 1756,
      "stre": 1757,
      "itive": 1758,
      "NA": 1759,
      "right": 1760,
      "eas": 1761,
      "ger": 1762,
      "decision": 1763,
      "ources": 1764,
      "atic": 1765,
      "Dev": 1766,
      "izing": 1767,
      "performance": 1768,
      "ze": 1769,
      "cultural": 1770,
      "pass": 1771,
      "across": 1772,
      "labor": 1773,
      "ann": 1774,
      "prom": 1775,
      "System": 1776,
      "ants": 1777,
      "impact": 1778,
      "during": 1779,
      "provide": 1780,
      "align": 1781,
      "analysis": 1782,
      "Man": 1783,
      "On": 1784,
      "atures": 1785,
      "lobal": 1786,
      "flow": 1787,
      "treat": 1788,
      "consider": 1789,
      "dom": 1790,
      "exam": 1791,
      "Inter": 1792,
      "pur": 1793,
      "famil": 1794,
      "grad": 1795,
      "ules": 1796,
      "200": 1797,
      "mus": 1798,
      "thing": 1799,
      "public": 1800,
      "ones": 1801,
      "erial": 1802,
      "benef": 1803,
      "Col": 1804,
      "times": 1805,
      "ension": 1806,
      "body": 1807,
      "active": 1808,
      "simple": 1809,
      "Ro": 1810,
      "hol": 1811,
      "ale": 1812,
      "digital": 1813,
      "sequ": 1814,
      "lar": 1815,
      "count": 1816,
      "early": 1817,
      "ints": 1818,
      "lex": 1819,
      "|------------": 1820,
      "open": 1821,
      "offer": 1822,
      "ership": 1823,
      ".*": 1824,
      "engine": 1825,
      "typ": 1826,
      "intern": 1827,
      "policy": 1828,
      "emo": 1829,
      "ved": 1830,
      "invol": 1831,
      "case": 1832,
      "frame": 1833,
      "two": 1834,
      "suc": 1835,
      "call": 1836,
      "water": 1837,
      "roll": 1838,
      "ansp": 1839,
      "prec": 1840,
      "vent": 1841,
      "post": 1842,
      "ests": 1843,
      "Fr": 1844,
      "narr": 1845,
      "fri": 1846,
      "atory": 1847,
      "learn": 1848,
      "prove": 1849,
      "De": 1850,
      "50": 1851,
      "ires": 1852,
      "Br": 1853,
      "ynamics": 1854,
      "force": 1855,
      "pose": 1856,
      "ills": 1857,
      "law": 1858,
      "influ": 1859,
      "thod": 1860,
      "Co": 1861,
      "dro": 1862,
      "meas": 1863,
      "They": 1864,
      "Pre": 1865,
      "comes": 1866,
      "head": 1867,
      "Soc": 1868,
      "*.": 1869,
      "web": 1870,
      "enges": 1871,
      "take": 1872,
      "Med": 1873,
      "quality": 1874,
      "ium": 1875,
      "optim": 1876,
      "cour": 1877,
      "ators": 1878,
      "big": 1879,
      "With": 1880,
      "vs": 1881,
      "different": 1882,
      "cy": 1883,
      "place": 1884,
      "ensive": 1885,
      "growth": 1886,
      "would": 1887,
      "start": 1888,
      "Pol": 1889,
      "ator": 1890,
      "analy": 1891,
      "ask": 1892,
      "18": 1893,
      "my": 1894,
      "prot": 1895,
      "unique": 1896,
      "Eng": 1897,
      "Cons": 1898,
      "auto": 1899,
      "ek": 1900,
      "rent": 1901,
      "tures": 1902,
      "group": 1903,
      "students": 1904,
      "relation": 1905,
      "reflec": 1906,
      "modern": 1907,
      "ection": 1908,
      "feed": 1909,
      "run": 1910,
      "|----": 1911,
      "aps": 1912,
      "maintain": 1913,
      "*,": 1914,
      "tra": 1915,
      "ift": 1916,
      "Qu": 1917,
      "clear": 1918,
      "Ref": 1919,
      "Per": 1920,
      "oot": 1921,
      ":*": 1922,
      "Or": 1923,
      "issu": 1924,
      "models": 1925,
      "value": 1926,
      "eting": 1927,
      "Practical": 1928,
      "ime": 1929,
      "avel": 1930,
      "orical": 1931,
      "dress": 1932,
      "Ear": 1933,
      "find": 1934,
      "explore": 1935,
      "inary": 1936,
      "future": 1937,
      "aster": 1938,
      "ild": 1939,
      "doc": 1940,
      "vide": 1941,
      "torch": 1942,
      "transform": 1943,
      "angu": 1944,
      "uses": 1945,
      "()": 1946,
      "ource": 1947,
      "history": 1948,
      "changes": 1949,
      "utes": 1950,
      "content": 1951,
      "success": 1952,
      "acc": 1953,
      "pli": 1954,
      "duction": 1955,
      "overn": 1956,
      "game": 1957,
      "ush": 1958,
      "ired": 1959,
      "CR": 1960,
      "clo": 1961,
      "urity": 1962,
      "material": 1963,
      "pattern": 1964,
      "denti": 1965,
      "Your": 1966,
      "PR": 1967,
      "aim": 1968,
      "study": 1969,
      "anti": 1970,
      "yp": 1971,
      "month": 1972,
      "utions": 1973,
      "Hist": 1974,
      "econom": 1975,
      "critical": 1976,
      "Dis": 1977,
      "were": 1978,
      "field": 1979,
      "information": 1980,
      "mal": 1981,
      "plement": 1982,
      "{\\": 1983,
      "should": 1984,
      "table": 1985,
      "ury": 1986,
      "level": 1987,
      "conf": 1988,
      "Reg": 1989,
      "New": 1990,
      "dist": 1991,
      "break": 1992,
      "building": 1993,
      "room": 1994,
      "Develop": 1995,
      "PU": 1996,
      "predic": 1997,
      "proper": 1998,
      "sti": 1999,
      "loss": 2000,
      "tools": 2001,
      "including": 2002,
      "rate": 2003,
      "pi": 2004,
      "actly": 2005,
      "iences": 2006,
      "comb": 2007,
      "ground": 2008,
      "context": 2009,
      "state": 2010,
      "respons": 2011,
      "been": 2012,
      "single": 2013,
      "Ass": 2014,
      "olar": 2015,
      "*“": 2016,
      "bers": 2017,
      "understand": 2018,
      "pay": 2019,
      "mission": 2020,
      "ands": 2021,
      "ledge": 2022,
      "convers": 2023,
      "sens": 2024,
      "online": 2025,
      "ches": 2026,
      "iny": 2027,
      "being": 2028,
      "technology": 2029,
      "frac": 2030,
      "Techn": 2031,
      "iving": 2032,
      "relationship": 2033,
      "site": 2034,
      "found": 2035,
      "Cr": 2036,
      "connec": 2037,
      "gene": 2038,
      "acter": 2039,
      "cli": 2040,
      "High": 2041,
      "Par": 2042,
      "?”": 2043,
      "ious": 2044,
      "expect": 2045,
      "toge": 2046,
      "works": 2047,
      "together": 2048,
      "those": 2049,
      "Understanding": 2050,
      "bel": 2051,
      "exp": 2052,
      "position": 2053,
      "portun": 2054,
      "gl": 2055,
      "pop": 2056,
      "den": 2057,
      "AI": 2058,
      "ensure": 2059,
      "regul": 2060,
      "Py": 2061,
      "media": 2062,
      "adap": 2063,
      "industr": 2064,
      "years": 2065,
      "ban": 2066,
      "ites": 2067,
      "improve": 2068,
      "guid": 2069,
      "makes": 2070,
      "try": 2071,
      "offers": 2072,
      "plac": 2073,
      "special": 2074,
      "ining": 2075,
      "mind": 2076,
      "ded": 2077,
      "therap": 2078,
      "sal": 2079,
      "print": 2080,
      "Go": 2081,
      "importance": 2082,
      "via": 2083,
      "onstr": 2084,
      "att": 2085,
      "Au": 2086,
      "why": 2087,
      "ength": 2088,
      "Can": 2089,
      "ensuring": 2090,
      "around": 2091,
      "profession": 2092,
      "iev": 2093,
      "eline": 2094,
      "Design": 2095,
      "Integr": 2096,
      "Cre": 2097,
      "become": 2098,
      "sof": 2099,
      "asing": 2100,
      "plication": 2101,
      "services": 2102,
      "ification": 2103,
      "Take": 2104,
      "avig": 2105,
      "hold": 2106,
      "rics": 2107,
      "Trans": 2108,
      "corpor": 2109,
      "Lear": 2110,
      "istic": 2111,
      "again": 2112,
      "micro": 2113,
      "nect": 2114,
      "next": 2115,
      "bed": 2116,
      "erc": 2117,
      "behav": 2118,
      "innov": 2119,
      "ouse": 2120,
      "pression": 2121,
      "ental": 2122,
      "Mark": 2123,
      "ument": 2124,
      "Gr": 2125,
      "reach": 2126,
      "user": 2127,
      "training": 2128,
      "ney": 2129,
      "mean": 2130,
      "compon": 2131,
      "same": 2132,
      "anguage": 2133,
      "track": 2134,
      "eter": 2135,
      "tric": 2136,
      "iate": 2137,
      "reduce": 2138,
      "achine": 2139,
      "lection": 2140,
      "valu": 2141,
      "remain": 2142,
      "tis": 2143,
      "thor": 2144,
      "cells": 2145,
      "safety": 2146,
      "ilities": 2147,
      "graph": 2148,
      "ains": 2149,
      "ns": 2150,
      "chool": 2151,
      "stream": 2152,
      "Buil": 2153,
      "distr": 2154,
      "invest": 2155,
      "atural": 2156,
      "lish": 2157,
      "address": 2158,
      "management": 2159,
      "ined": 2160,
      "Commun": 2161,
      "employ": 2162,
      "Pers": 2163,
      "brand": 2164,
      "challenges": 2165,
      "Ser": 2166,
      "needs": 2167,
      "Do": 2168,
      "aling": 2169,
      "firm": 2170,
      "various": 2171,
      "ually": 2172,
      "quick": 2173,
      "py": 2174,
      "tices": 2175,
      "Intro": 2176,
      "core": 2177,
      "global": 2178,
      "minim": 2179,
      "pack": 2180,
      "sense": 2181,
      "Identi": 2182,
      "Gen": 2183,
      "enab": 2184,
      "az": 2185,
      "Sec": 2186,
      "Cul": 2187,
      "ether": 2188,
      "method": 2189,
      "ions": 2190,
      "Sm": 2191,
      "narrative": 2192,
      "effective": 2193,
      "check": 2194,
      "ening": 2195,
      "function": 2196,
      "nu": 2197,
      "practice": 2198,
      "Bi": 2199,
      "Gu": 2200,
      "requires": 2201,
      "product": 2202,
      "space": 2203,
      "Me": 2204,
      "demonstr": 2205,
      "jects": 2206,
      "require": 2207,
      "ancial": 2208,
      "thon": 2209,
      "Strateg": 2210,
      "ele": 2211,
      "isms": 2212,
      "ball": 2213,
      "Mon": 2214,
      "ff": 2215,
      "ra": 2216,
      "jour": 2217,
      "atives": 2218,
      "Sim": 2219,
      "Mo": 2220,
      "opportun": 2221,
      "syn": 2222,
      "omes": 2223,
      "\\).": 2224,
      "bu": 2225,
      "**.": 2226,
      "pliance": 2227,
      "allows": 2228,
      "detail": 2229,
      "ced": 2230,
      "prote": 2231,
      "points": 2232,
      "uro": 2233,
      "build": 2234,
      "itect": 2235,
      "iod": 2236,
      "ats": 2237,
      "Power": 2238,
      "ipl": 2239,
      "adjust": 2240,
      "initi": 2241,
      "term": 2242,
      "aking": 2243,
      "good": 2244,
      "friend": 2245,
      "features": 2246,
      "armac": 2247,
      "At": 2248,
      "transp": 2249,
      "stain": 2250,
      "Set": 2251,
      "stay": 2252,
      "direct": 2253,
      "home": 2254,
      "Sup": 2255,
      "Tor": 2256,
      "}}": 2257,
      "include": 2258,
      "From": 2259,
      "want": 2260,
      "focus": 2261,
      "free": 2262,
      "itor": 2263,
      "physical": 2264,
      "better": 2265,
      "illustr": 2266,
      "ges": 2267,
      "eth": 2268,
      "mar": 2269,
      "side": 2270,
      "akes": 2271,
      "individuals": 2272,
      "emerg": 2273,
      "prior": 2274,
      "Exactly": 2275,
      "type": 2276,
      "strategies": 2277,
      "sym": 2278,
      "patient": 2279,
      "Out": 2280,
      "yle": 2281,
      "ron": 2282,
      "chem": 2283,
      "ict": 2284,
      "benefits": 2285,
      "trust": 2286,
      "higher": 2287,
      "piec": 2288,
      "shap": 2289,
      "ists": 2290,
      "AP": 2291,
      "drugs": 2292,
      "condi": 2293,
      "reli": 2294,
      "recogn": 2295,
      "still": 2296,
      "away": 2297,
      "service": 2298,
      "tific": 2299,
      "event": 2300,
      "board": 2301,
      "bas": 2302,
      "short": 2303,
      "dise": 2304,
      "No": 2305,
      "had": 2306,
      "ames": 2307,
      "steps": 2308,
      "Case": 2309,
      "navig": 2310,
      "size": 2311,
      "code": 2312,
      "sw": 2313,
      "travel": 2314,
      "uch": 2315,
      "brid": 2316,
      "hour": 2317,
      "ified": 2318,
      "rob": 2319,
      "memory": 2320,
      "ately": 2321,
      "project": 2322,
      "phas": 2323,
      "agine": 2324,
      "eper": 2325,
      "review": 2326,
      "medic": 2327,
      "tract": 2328,
      "aditional": 2329,
      "):": 2330,
      "iques": 2331,
      "patterns": 2332,
      "means": 2333,
      "natural": 2334,
      "against": 2335,
      "ufact": 2336,
      "govern": 2337,
      "poss": 2338,
      "knowledge": 2339,
      "wind": 2340,
      "ynamic": 2341,
      "rates": 2342,
      "very": 2343,
      "strong": 2344,
      "pecial": 2345,
      "25": 2346,
      "mess": 2347,
      "sound": 2348,
      "pain": 2349,
      "ally": 2350,
      "Over": 2351,
      "Val": 2352,
      "tual": 2353,
      "communication": 2354,
      "ident": 2355,
      "ars": 2356,
      "connect": 2357,
      "iversity": 2358,
      "nor": 2359,
      "intro": 2360,
      "non": 2361,
      "ste": 2362,
      "provides": 2363,
      "visual": 2364,
      "ging": 2365,
      "represent": 2366,
      "til": 2367,
      "Rem": 2368,
      "common": 2369,
      "engagement": 2370,
      "safe": 2371,
      "14": 2372,
      "God": 2373,
      "happ": 2374,
      "ored": 2375,
      "ories": 2376,
      "Def": 2377,
      "report": 2378,
      "mom": 2379,
      "ending": 2380,
      "pressure": 2381,
      "comput": 2382,
      "oto": 2383,
      "marketing": 2384,
      "providing": 2385,
      "improv": 2386,
      "Check": 2387,
      "Torch": 2388,
      "Fe": 2389,
      "eness": 2390,
      "itch": 2391,
      "shar": 2392,
      "cred": 2393,
      "alk": 2394,
      "ared": 2395,
      "she": 2396,
      "thentic": 2397,
      "helps": 2398,
      "sustain": 2399,
      "gor": 2400,
      "meric": 2401,
      "best": 2402,
      "creating": 2403,
      "tware": 2404,
      "Cal": 2405,
      "gg": 2406,
      "adem": 2407,
      "sever": 2408,
      "Work": 2409,
      "istics": 2410,
      "fit": 2411,
      "la": 2412,
      "contrib": 2413,
      "made": 2414,
      "ids": 2415,
      "ario": 2416,
      "talk": 2417,
      "family": 2418,
      "rele": 2419,
      "ienti": 2420,
      "avoid": 2421,
      "ery": 2422,
      "though": 2423,
      "chain": 2424,
      "Keep": 2425,
      "delve": 2426,
      "\\[": 2427,
      "cancer": 2428,
      "tom": 2429,
      "\\]": 2430,
      "ips": 2431,
      "gain": 2432,
      "ports": 2433,
      "ca": 2434,
      "ank": 2435,
      "aft": 2436,
      "Analysis": 2437,
      "cross": 2438,
      "map": 2439,
      "ablish": 2440,
      "language": 2441,
      "ered": 2442,
      "scape": 2443,
      "skills": 2444,
      "gorith": 2445,
      "Met": 2446,
      "Americ": 2447,
      "iency": 2448,
      "}{": 2449,
      "sts": 2450,
      "ason": 2451,
      "calcul": 2452,
      "priv": 2453,
      "verage": 2454,
      "Di": 2455,
      "applications": 2456,
      "Think": 2457,
      "err": 2458,
      "sych": 2459,
      "range": 2460,
      "add": 2461,
      "Plan": 2462,
      "enh": 2463,
      "toward": 2464,
      "aily": 2465,
      "Introduction": 2466,
      "ped": 2467,
      "princ": 2468,
      "izes": 2469,
      "ock": 2470,
      "cop": 2471,
      "price": 2472,
      "yond": 2473,
      "Sun": 2474,
      "lines": 2475,
      "Sp": 2476,
      "rece": 2477,
      "ops": 2478,
      "ieve": 2479,
      "mental": 2480,
      "ography": 2481,
      "pic": 2482,
      "**,": 2483,
      "others": 2484,
      "Bo": 2485,
      "fort": 2486,
      "deep": 2487,
      "deliver": 2488,
      "har": 2489,
      "period": 2490,
      "oud": 2491,
      "?*": 2492,
      "order": 2493,
      "Network": 2494,
      "shape": 2495,
      "Cas": 2496,
      "identify": 2497,
      "music": 2498,
      "anim": 2499,
      "Learning": 2500,
      "Ne": 2501,
      "aries": 2502,
      "because": 2503,
      "gin": 2504,
      "ration": 2505,
      "World": 2506,
      "ief": 2507,
      "lood": 2508,
      "shows": 2509,
      "ude": 2510,
      "fall": 2511,
      "camp": 2512,
      "users": 2513,
      "biology": 2514,
      "question": 2515,
      "sched": 2516,
      "porary": 2517,
      "response": 2518,
      "strategy": 2519,
      "ton": 2520,
      "events": 2521,
      "ho": 2522,
      "week": 2523,
      "Dec": 2524,
      "character": 2525,
      "16": 2526,
      "mil": 2527,
      "behavior": 2528,
      "ren": 2529,
      "rap": 2530,
      "clean": 2531,
      "omen": 2532,
      "following": 2533,
      "driven": 2534,
      "Adv": 2535,
      "All": 2536,
      "hard": 2537,
      "ference": 2538,
      "deeper": 2539,
      "ients": 2540,
      "ping": 2541,
      "enario": 2542,
      "avor": 2543,
      "__": 2544,
      "legal": 2545,
      "relationships": 2546,
      "account": 2547,
      "aper": 2548,
      "emotional": 2549,
      "mag": 2550,
      "tocol": 2551,
      "CE": 2552,
      "allowing": 2553,
      "return": 2554,
      "spir": 2555,
      "Ef": 2556,
      "lower": 2557,
      "distrib": 2558,
      "multiple": 2559,
      "discipl": 2560,
      "exploring": 2561,
      "setting": 2562,
      "AM": 2563,
      "rich": 2564,
      "sil": 2565,
      "collabor": 2566,
      "uous": 2567,
      "ults": 2568,
      "commit": 2569,
      "ike": 2570,
      "But": 2571,
      "One": 2572,
      "city": 2573,
      "lat": 2574,
      "link": 2575,
      "urn": 2576,
      "speed": 2577,
      "resh": 2578,
      "Se": 2579,
      "Ins": 2580,
      "Ge": 2581,
      "recent": 2582,
      "And": 2583,
      "rather": 2584,
      "eval": 2585,
      "industry": 2586,
      "weight": 2587,
      "insights": 2588,
      "tention": 2589,
      "ta": 2590,
      "financial": 2591,
      "broad": 2592,
      "cir": 2593,
      "experiences": 2594,
      "iation": 2595,
      "ont": 2596,
      "proble": 2597,
      "ended": 2598,
      "elines": 2599,
      "accur": 2600,
      "inical": 2601,
      "dim": 2602,
      "evidence": 2603,
      "processes": 2604,
      "bol": 2605,
      "values": 2606,
      "security": 2607,
      "economic": 2608,
      "100": 2609,
      "Identify": 2610,
      "person": 2611,
      "Each": 2612,
      "interest": 2613,
      "uter": 2614,
      "company": 2615,
      "love": 2616,
      "balance": 2617,
      "dates": 2618,
      "60": 2619,
      "sit": 2620,
      "region": 2621,
      "school": 2622,
      "CRIS": 2623,
      "don": 2624,
      "culture": 2625,
      "due": 2626,
      "sat": 2627,
      "shift": 2628,
      "CRISPR": 2629,
      "designed": 2630,
      "factors": 2631,
      "acts": 2632,
      "tax": 2633,
      "ides": 2634,
      "izations": 2635,
      "struction": 2636,
      "Consider": 2637,
      "mit": 2638,
      "ption": 2639,
      "men": 2640,
      "foot": 2641,
      "resources": 2642,
      "assess": 2643,
      "evalu": 2644,
      "date": 2645,
      "medical": 2646,
      "Study": 2647,
      "heart": 2648,
      "Min": 2649,
      "pan": 2650,
      "surface": 2651,
      "particip": 2652,
      "While": 2653,
      "emphas": 2654,
      "avail": 2655,
      "Af": 2656,
      "Prof": 2657,
      "match": 2658,
      "increase": 2659,
      "iety": 2660,
      "ware": 2661,
      "Intern": 2662,
      "certain": 2663,
      "elds": 2664,
      "practices": 2665,
      "treatment": 2666,
      "ready": 2667,
      "Time": 2668,
      "great": 2669,
      "lights": 2670,
      "ials": 2671,
      "Research": 2672,
      "concept": 2673,
      "Fir": 2674,
      "Cor": 2675,
      "indic": 2676,
      "ensures": 2677,
      "Ab": 2678,
      "ayer": 2679,
      "Cas9": 2680,
      "Ob": 2681,
      "hib": 2682,
      "tives": 2683,
      "necess": 2684,
      "Rep": 2685,
      ")**:": 2686,
      "Gre": 2687,
      "SE": 2688,
      "ember": 2689,
      "unch": 2690,
      "production": 2691,
      "star": 2692,
      "important": 2693,
      "Post": 2694,
      "tiny": 2695,
      "consist": 2696,
      "reducing": 2697,
      "bound": 2698,
      "science": 2699,
      "Model": 2700,
      "shared": 2701,
      "fast": 2702,
      "card": 2703,
      "super": 2704,
      "Leg": 2705,
      "page": 2706,
      "ises": 2707,
      "metrics": 2708,
      "ox": 2709,
      "zy": 2710,
      "ull": 2711,
      "reh": 2712,
      "full": 2713,
      "Sign": 2714,
      "block": 2715,
      "encies": 2716,
      "Mat": 2717,
      "here": 2718,
      "ians": 2719,
      "Digital": 2720,
      "etings": 2721,
      "draw": 2722,
      "efficient": 2723,
      "conver": 2724,
      "adapt": 2725,
      "manufact": 2726,
      "video": 2727,
      "sav": 2728,
      "powerful": 2729,
      "Ver": 2730,
      "Impact": 2731,
      "costs": 2732,
      "Prec": 2733,
      "rig": 2734,
      "traditional": 2735,
      "transl": 2736,
      "ral": 2737,
      "fully": 2738,
      "Cent": 2739,
      "Fun": 2740,
      "scale": 2741,
      "few": 2742,
      "ane": 2743,
      "ah": 2744,
      "sed": 2745,
      "Social": 2746,
      "|---------": 2747,
      "ived": 2748,
      "Imagine": 2749,
      "hind": 2750,
      "Health": 2751,
      "feedback": 2752,
      "istance": 2753,
      "temper": 2754,
      "machine": 2755,
      "watch": 2756,
      "ialog": 2757,
      "location": 2758,
      "tre": 2759,
      "student": 2760,
      "iples": 2761,
      "decisions": 2762,
      "concer": 2763,
      "volution": 2764,
      "evolution": 2765,
      "issues": 2766,
      "CO": 2767,
      "Up": 2768,
      "ope": 2769,
      "device": 2770,
      "clim": 2771,
      "leading": 2772,
      "itig": 2773,
      "Control": 2774,
      "pair": 2775,
      "today": 2776,
      "techniques": 2777,
      "equip": 2778,
      "================================": 2779,
      "forward": 2780,
      "algorith": 2781,
      "ables": 2782,
      "current": 2783,
      "discus": 2784,
      "Here": 2785,
      "collec": 2786,
      "eti": 2787,
      "thes": 2788,
      "Rev": 2789,
      "abol": 2790,
      "itecture": 2791,
      "instit": 2792,
      "compliance": 2793,
      "Ind": 2794,
      "controll": 2795,
      "emporary": 2796,
      "ump": 2797,
      "install": 2798,
      "measure": 2799,
      "tail": 2800,
      "Bl": 2801,
      "food": 2802,
      "concepts": 2803,
      "apply": 2804,
      "que": 2805,
      "influence": 2806,
      "professional": 2807,
      "mor": 2808,
      "secure": 2809,
      "cript": 2810,
      "outcomes": 2811,
      "70": 2812,
      "practical": 2813,
      "audience": 2814,
      "customer": 2815,
      "Role": 2816,
      "math": 2817,
      "demand": 2818,
      "aign": 2819,
      "guide": 2820,
      "platforms": 2821,
      "framework": 2822,
      "lik": 2823,
      "pt": 2824,
      "preser": 2825,
      "networks": 2826,
      "resol": 2827,
      "prevent": 2828,
      "Management": 2829,
      "11": 2830,
      "aged": 2831,
      "Systems": 2832,
      "CPU": 2833,
      "fail": 2834,
      "sl": 2835,
      "Human": 2836,
      "ament": 2837,
      "questions": 2838,
      "claim": 2839,
      "aff": 2840,
      "authentic": 2841,
      "Some": 2842,
      "three": 2843,
      "computer": 2844,
      "child": 2845,
      "daily": 2846,
      "orig": 2847,
      "aste": 2848,
      "email": 2849,
      "author": 2850,
      "cu": 2851,
      "session": 2852,
      "discover": 2853,
      "ID": 2854,
      "box": 2855,
      "highlight": 2856,
      "base": 2857,
      "job": 2858,
      "Real": 2859,
      "telling": 2860,
      "scienti": 2861,
      "player": 2862,
      "strategic": 2863,
      "dynamics": 2864,
      "standard": 2865,
      "tenance": 2866,
      "mill": 2867,
      "itation": 2868,
      "Pu": 2869,
      "──": 2870,
      "itual": 2871,
      "duce": 2872,
      "Cultural": 2873,
      ".**": 2874,
      "mix": 2875,
      "search": 2876,
      "players": 2877,
      "iew": 2878,
      "eco": 2879,
      "education": 2880,
      "ily": 2881,
      "ams": 2882,
      "SD": 2883,
      "did": 2884,
      "exec": 2885,
      "relev": 2886,
      "several": 2887,
      "name": 2888,
      "smo": 2889,
      "uted": 2890,
      "materials": 2891,
      "..": 2892,
      "ancing": 2893,
      "devices": 2894,
      "number": 2895,
      "journey": 2896,
      "cat": 2897,
      "ft": 2898,
      "compreh": 2899,
      "|------": 2900,
      "Create": 2901,
      "apping": 2902,
      "First": 2903,
      "DNA": 2904,
      "udget": 2905,
      "Phys": 2906,
      "mechanisms": 2907,
      "ialogue": 2908,
      "ots": 2909,
      "However": 2910,
      "days": 2911,
      "ently": 2912,
      "bor": 2913,
      "ements": 2914,
      "ster": 2915,
      "ditional": 2916,
      "PyTorch": 2917,
      "24": 2918,
      "pip": 2919,
      "ulate": 2920,
      "effectiv": 2921,
      "Personal": 2922,
      "word": 2923,
      "identity": 2924,
      "serve": 2925,
      "ik": 2926,
      "Loc": 2927,
      "Target": 2928,
      "scre": 2929,
      "itoring": 2930,
      "Remember": 2931,
      "Cho": 2932,
      "ministr": 2933,
      "ems": 2934,
      "Vis": 2935,
      "war": 2936,
      "beyond": 2937,
      "establish": 2938,
      "tig": 2939,
      "eler": 2940,
      "environmental": 2941,
      "integration": 2942,
      "AR": 2943,
      "reduces": 2944,
      "Hel": 2945,
      "bit": 2946,
      "area": 2947,
      "heav": 2948,
      "Po": 2949,
      "prim": 2950,
      "Context": 2951,
      "signals": 2952,
      "tick": 2953,
      "mm": 2954,
      "style": 2955,
      "strain": 2956,
      "goals": 2957,
      "\\(\\": 2958,
      "examples": 2959,
      "Pe": 2960,
      "lit": 2961,
      "increasing": 2962,
      "matic": 2963,
      "fost": 2964,
      "80": 2965,
      "fa": 2966,
      "affect": 2967,
      "depth": 2968,
      "client": 2969,
      "house": 2970,
      "sor": 2971,
      "arti": 2972,
      "formation": 2973,
      "software": 2974,
      "13": 2975,
      "Pres": 2976,
      "interactions": 2977,
      "eral": 2978,
      "duct": 2979,
      "kn": 2980,
      "engineering": 2981,
      "Small": 2982,
      "hum": 2983,
      "say": 2984,
      "itiz": 2985,
      "photo": 2986,
      "reve": 2987,
      "deter": 2988,
      "keeps": 2989,
      "PS": 2990,
      "aming": 2991,
      "//": 2992,
      "17": 2993,
      "something": 2994,
      "Jo": 2995,
      "Solar": 2996,
      "Modern": 2997,
      "frequ": 2998,
      "wide": 2999,
      "matters": 3000,
      "disease": 3001,
      "theory": 3002,
      "?**": 3003,
      "anch": 3004,
      "drop": 3005,
      "cup": 3006,
      "Future": 3007,
      "achieve": 3008,
      "bring": 3009,
      "navigate": 3010,
      "effects": 3011,
      "pecially": 3012,
      "yi": 3013,
      "especially": 3014,
      "layer": 3015,
      "Early": 3016,
      "protein": 3017,
      "Final": 3018,
      "`.": 3019,
      "ffer": 3020,
      "components": 3021,
      "adop": 3022,
      "agno": 3023,
      "90": 3024,
      "mass": 3025,
      "stress": 3026,
      "living": 3027,
      "becomes": 3028,
      "international": 3029,
      "give": 3030,
      "yet": 3031,
      "Now": 3032,
      "omic": 3033,
      "later": 3034,
      "medicine": 3035,
      "blood": 3036,
      "alle": 3037,
      "member": 3038,
      "Serv": 3039,
      "valid": 3040,
      "layers": 3041,
      "exist": 3042,
      "odes": 3043,
      "max": 3044,
      "ilar": 3045,
      "ival": 3046,
      "Mechan": 3047,
      "urther": 3048,
      "large": 3049,
      "Hy": 3050,
      "mid": 3051,
      "working": 3052,
      "partn": 3053,
      "Earth": 3054,
      "piece": 3055,
      "bon": 3056,
      "overall": 3057,
      "color": 3058,
      "conditions": 3059,
      ".\"": 3060,
      "Rel": 3061,
      "Historical": 3062,
      "opportunities": 3063,
      "inj": 3064,
      "astic": 3065,
      "Custom": 3066,
      "iet": 3067,
      "ming": 3068,
      "ume": 3069,
      "aid": 3070,
      "incorpor": 3071,
      "words": 3072,
      "sequences": 3073,
      "Exper": 3074,
      "venue": 3075,
      "Main": 3076,
      "ey": 3077,
      "flex": 3078,
      "Process": 3079,
      "last": 3080,
      "protocol": 3081,
      "rapid": 3082,
      "competi": 3083,
      "Community": 3084,
      "strength": 3085,
      "Wr": 3086,
      "ularly": 3087,
      "rup": 3088,
      "second": 3089,
      "estim": 3090,
      "isely": 3091,
      "aining": 3092,
      "studies": 3093,
      "40": 3094,
      "Saf": 3095,
      "past": 3096,
      "cles": 3097,
      "Coun": 3098,
      "ugg": 3099,
      "moment": 3100,
      "atter": 3101,
      "Expl": 3102,
      "Car": 3103,
      "\\,": 3104,
      "ores": 3105,
      "vision": 3106,
      "observ": 3107,
      "spe": 3108,
      "affic": 3109,
      "historical": 3110,
      "Euro": 3111,
      "jor": 3112,
      "patients": 3113,
      "cept": 3114,
      "products": 3115,
      "therapy": 3116,
      "python": 3117,
      "trig": 3118,
      "compan": 3119,
      "robust": 3120,
      "nn": 3121,
      "rise": 3122,
      "ratic": 3123,
      "fee": 3124,
      "Perform": 3125,
      "Ther": 3126,
      "implement": 3127,
      "Exam": 3128,
      "biological": 3129,
      "protect": 3130,
      "oney": 3131,
      "programs": 3132,
      "asks": 3133,
      "---|": 3134,
      "pret": 3135,
      "push": 3136,
      "urance": 3137,
      "Action": 3138,
      "Analy": 3139,
      "advanced": 3140,
      "dynamic": 3141,
      "ses": 3142,
      "irr": 3143,
      "OS": 3144,
      "trade": 3145,
      "continue": 3146,
      "stories": 3147,
      "friendly": 3148,
      "vo": 3149,
      "ologies": 3150,
      "targeted": 3151,
      "host": 3152,
      "Read": 3153,
      "`,": 3154,
      "Comput": 3155,
      "planning": 3156,
      "instance": 3157,
      "Pat": 3158,
      "divers": 3159,
      "jo": 3160,
      "ographic": 3161,
      "cut": 3162,
      "near": 3163,
      "record": 3164,
      "called": 3165,
      "source": 3166,
      "ademic": 3167,
      "ees": 3168,
      "gar": 3169,
      "far": 3170,
      "status": 3171,
      "looking": 3172,
      "After": 3173,
      "live": 3174,
      "buy": 3175,
      "^{": 3176,
      "utional": 3177,
      "fig": 3178,
      "mob": 3179,
      "ux": 3180,
      "ench": 3181,
      "encour": 3182,
      "psych": 3183,
      "era": 3184,
      "Core": 3185,
      "Struc": 3186,
      "tow": 3187,
      "involves": 3188,
      "hours": 3189,
      "output": 3190,
      "political": 3191,
      ",”": 3192,
      "Sum": 3193,
      "ove": 3194,
      "levels": 3195,
      "comprehensive": 3196,
      "lic": 3197,
      "heat": 3198,
      "sn": 3199,
      "groups": 3200,
      "behind": 3201,
      "500": 3202,
      "Cost": 3203,
      "itions": 3204,
      "rules": 3205,
      "sect": 3206,
      "thetic": 3207,
      "motion": 3208,
      "bodies": 3209,
      "cast": 3210,
      "rain": 3211,
      "fra": 3212,
      "hic": 3213,
      "areas": 3214,
      "direc": 3215,
      "approx": 3216,
      "attr": 3217,
      "parts": 3218,
      "options": 3219,
      "lives": 3220,
      "increased": 3221,
      "ee": 3222,
      "exc": 3223,
      "cellent": 3224,
      "ativ": 3225,
      "attention": 3226,
      "ogle": 3227,
      "Comp": 3228,
      "planet": 3229,
      "Ah": 3230,
      "ilience": 3231,
      "tissu": 3232,
      "introduc": 3233,
      "campaign": 3234,
      "Bre": 3235,
      "Energy": 3236,
      "experim": 3237,
      "fund": 3238,
      "projects": 3239,
      "offering": 3240,
      "teach": 3241,
      "landscape": 3242,
      "American": 3243,
      "Lif": 3244,
      "correct": 3245,
      "Europe": 3246,
      "another": 3247,
      "required": 3248,
      "directly": 3249,
      "temperature": 3250,
      "principles": 3251,
      "Open": 3252,
      "situ": 3253,
      "gment": 3254,
      "activity": 3255,
      "paper": 3256,
      "istical": 3257,
      "lot": 3258,
      "PC": 3259,
      "ht": 3260,
      "molec": 3261,
      "built": 3262,
      "cycle": 3263,
      "arter": 3264,
      "AT": 3265,
      "pir": 3266,
      "Progr": 3267,
      "document": 3268,
      "outs": 3269,
      "scal": 3270,
      "electr": 3271,
      "Found": 3272,
      "onic": 3273,
      "LE": 3274,
      "Every": 3275,
      "isk": 3276,
      "win": 3277,
      "encing": 3278,
      "minutes": 3279,
      "remains": 3280,
      "Well": 3281,
      "average": 3282,
      "functional": 3283,
      "Google": 3284,
      "ensity": 3285,
      "tivity": 3286,
      "Aud": 3287,
      "II": 3288,
      "dam": 3289,
      "plant": 3290,
      "consum": 3291,
      "efficiency": 3292,
      "Sur": 3293,
      "implications": 3294,
      "elves": 3295,
      "front": 3296,
      "ishing": 3297,
      "months": 3298,
      "application": 3299,
      "advant": 3300,
      "budget": 3301,
      "file": 3302,
      "types": 3303,
      "Tim": 3304,
      "ilit": 3305,
      "Recent": 3306,
      "website": 3307,
      "connection": 3308,
      "elling": 3309,
      "Practice": 3310,
      "|--------------------": 3311,
      "Refer": 3312,
      "Fin": 3313,
      "unit": 3314,
      "AC": 3315,
      "fix": 3316,
      "ML": 3317,
      "carr": 3318,
      "cases": 3319,
      "traffic": 3320,
      "feature": 3321,
      "season": 3322,
      "Law": 3323,
      "whether": 3324,
      "Bas": 3325,
      "appear": 3326,
      "Integration": 3327,
      "ideas": 3328,
      "goal": 3329,
      "biom": 3330,
      "oration": 3331,
      "drive": 3332,
      "vention": 3333,
      "pharmac": 3334,
      "cholar": 3335,
      "ensor": 3336,
      "dren": 3337,
      "everyone": 3338,
      "Sub": 3339,
      "hood": 3340,
      "aves": 3341,
      "apeu": 3342,
      "aut": 3343,
      "fill": 3344,
      "fric": 3345,
      "Jour": 3346,
      "lying": 3347,
      "Add": 3348,
      "technical": 3349,
      "dive": 3350,
      "phone": 3351,
      "progress": 3352,
      "valuable": 3353,
      "rigor": 3354,
      "gold": 3355,
      "locks": 3356,
      "Review": 3357,
      "Del": 3358,
      "Mem": 3359,
      "above": 3360,
      "scenario": 3361,
      "Indi": 3362,
      "respect": 3363,
      "deb": 3364,
      "History": 3365,
      "mitig": 3366,
      "ildren": 3367,
      "achiev": 3368,
      "solar": 3369,
      "Development": 3370,
      "Cur": 3371,
      "Log": 3372,
      "note": 3373,
      "frastructure": 3374,
      "Line": 3375,
      "PD": 3376,
      "Typ": 3377,
      "Using": 3378,
      "spread": 3379,
      "Ed": 3380,
      "skill": 3381,
      "Cap": 3382,
      "Ret": 3383,
      "hot": 3384,
      "selec": 3385,
      "shif": 3386,
      "apprec": 3387,
      "acing": 3388,
      "results": 3389,
      "ferences": 3390,
      "metabol": 3391,
      "elements": 3392,
      "little": 3393,
      "Sk": 3394,
      "writing": 3395,
      "Mis": 3396,
      "bio": 3397,
      "cription": 3398,
      "cin": 3399,
      "urch": 3400,
      "ifies": 3401,
      "internal": 3402,
      "necessary": 3403,
      "ows": 3404,
      "itize": 3405,
      "Building": 3406,
      "symbol": 3407,
      "Fl": 3408,
      "US": 3409,
      "bur": 3410,
      "ken": 3411,
      "Back": 3412,
      "ina": 3413,
      "recor": 3414,
      "idden": 3415,
      "cook": 3416,
      "organization": 3417,
      "joy": 3418,
      "ewel": 3419,
      "div": 3420,
      "lin": 3421,
      "rest": 3422,
      "Scal": 3423,
      "Test": 3424,
      "abilities": 3425,
      "known": 3426,
      "IT": 3427,
      "nal": 3428,
      "uration": 3429,
      "trad": 3430,
      "meaning": 3431,
      "ring": 3432,
      "presence": 3433,
      "Respon": 3434,
      "Play": 3435,
      "among": 3436,
      "coord": 3437,
      "someone": 3438,
      "major": 3439,
      "Are": 3440,
      "Educ": 3441,
      "rat": 3442,
      "too": 3443,
      "Stat": 3444,
      ".”*": 3445,
      "Class": 3446,
      "antic": 3447,
      "needed": 3448,
      "Alex": 3449,
      "lever": 3450,
      "Implement": 3451,
      "maintenance": 3452,
      "Simple": 3453,
      "--|": 3454,
      "embed": 3455,
      "2023": 3456,
      "Micro": 3457,
      "Nor": 3458,
      "Te": 3459,
      "empl": 3460,
      "reson": 3461,
      "iated": 3462,
      "stage": 3463,
      "perspec": 3464,
      "Tool": 3465,
      ");": 3466,
      "Eth": 3467,
      "itors": 3468,
      "confl": 3469,
      "serves": 3470,
      "sharing": 3471,
      "broader": 3472,
      "bar": 3473,
      "seen": 3474,
      "healthcare": 3475,
      "regulatory": 3476,
      "utor": 3477,
      "oting": 3478,
      "Policy": 3479,
      "transpar": 3480,
      "unders": 3481,
      "Av": 3482,
      "RNA": 3483,
      "sun": 3484,
      "offic": 3485,
      "release": 3486,
      "likely": 3487,
      "hor": 3488,
      "chann": 3489,
      "customers": 3490,
      "Meas": 3491,
      "chron": 3492,
      "ount": 3493,
      "things": 3494,
      "extract": 3495,
      "profile": 3496,
      "enabling": 3497,
      "Oper": 3498,
      "param": 3499,
      "ancer": 3500,
      "similar": 3501,
      "Multi": 3502,
      "acity": 3503,
      "ivil": 3504,
      "innovation": 3505,
      "proof": 3506,
      "teams": 3507,
      "Engine": 3508,
      "Gene": 3509,
      "goti": 3510,
      "Cross": 3511,
      "mut": 3512,
      "Arch": 3513,
      "businesses": 3514,
      "acceler": 3515,
      "sales": 3516,
      "wall": 3517,
      "expected": 3518,
      "Red": 3519,
      "ww": 3520,
      "sugg": 3521,
      "diagno": 3522,
      "informed": 3523,
      "limited": 3524,
      "enzy": 3525,
      "ampl": 3526,
      "prob": 3527,
      "roof": 3528,
      "inside": 3529,
      "available": 3530,
      "Tw": 3531,
      "vey": 3532,
      "processing": 3533,
      "IP": 3534,
      "const": 3535,
      "vital": 3536,
      "Look": 3537,
      "possible": 3538,
      "meet": 3539,
      "lean": 3540,
      "bot": 3541,
      "sem": 3542,
      "monitoring": 3543,
      "relevant": 3544,
      "animals": 3545,
      "Common": 3546,
      "related": 3547,
      "dimension": 3548,
      "net": 3549,
      "ero": 3550,
      "forms": 3551,
      "rein": 3552,
      "contemporary": 3553,
      "issue": 3554,
      "component": 3555,
      "ewelry": 3556,
      "once": 3557,
      "resolution": 3558,
      "ony": 3559,
      "contact": 3560,
      "idea": 3561,
      "typically": 3562,
      "original": 3563,
      "faith": 3564,
      "uel": 3565,
      "uments": 3566,
      "expression": 3567,
      "operations": 3568,
      "problem": 3569,
      "May": 3570,
      "wid": 3571,
      "total": 3572,
      "brain": 3573,
      "includes": 3574,
      "architecture": 3575,
      "movement": 3576,
      "aways": 3577,
      "Pharmac": 3578,
      "century": 3579,
      "storage": 3580,
      "International": 3581,
      "Mus": 3582,
      "yl": 3583,
      "revenue": 3584,
      "begin": 3585,
      "Import": 3586,
      "fied": 3587,
      "thought": 3588,
      "stake": 3589,
      "apeutic": 3590,
      "Good": 3591,
      "stone": 3592,
      "Calcul": 3593,
      "commitment": 3594,
      "tise": 3595,
      "ird": 3596,
      "clinical": 3597,
      "writ": 3598,
      "methods": 3599,
      "highlights": 3600,
      "Access": 3601,
      "physics": 3602,
      "precision": 3603,
      "ricul": 3604,
      "further": 3605,
      "updates": 3606,
      "plays": 3607,
      "Clo": 3608,
      "conclusion": 3609,
      "Their": 3610,
      "minute": 3611,
      "Public": 3612,
      "staff": 3613,
      "numbers": 3614,
      "purpose": 3615,
      "ged": 3616,
      "forces": 3617,
      "aceu": 3618,
      "choice": 3619,
      "quickly": 3620,
      "Care": 3621,
      "Ev": 3622,
      "Econ": 3623,
      "sources": 3624,
      "continuous": 3625,
      "transport": 3626,
      "repe": 3627,
      "mediate": 3628,
      "armaceu": 3629,
      "popular": 3630,
      "input": 3631,
      "operation": 3632,
      "climate": 3633,
      "separ": 3634,
      "sets": 3635,
      "limit": 3636,
      "ibr": 3637,
      "fire": 3638,
      "capture": 3639,
      "concerns": 3640,
      "MS": 3641,
      "zing": 3642,
      "libr": 3643,
      "posure": 3644,
      "bright": 3645,
      "ognitive": 3646,
      "frameworks": 3647,
      "mig": 3648,
      "ceed": 3649,
      "server": 3650,
      "2020": 3651,
      "ios": 3652,
      "API": 3653,
      "distribution": 3654,
      "liter": 3655,
      "pet": 3656,
      "scr": 3657,
      "signal": 3658,
      "GPU": 3659,
      "national": 3660,
      "icies": 3661,
      "vehic": 3662,
      "image": 3663,
      "satis": 3664,
      "instruc": 3665,
      "researchers": 3666,
      "depend": 3667,
      "ercise": 3668,
      "Syn": 3669,
      "mirr": 3670,
      "communities": 3671,
      "solutions": 3672,
      "igence": 3673,
      "produce": 3674,
      "curr": 3675,
      "effectively": 3676,
      "bro": 3677,
      "}\\": 3678,
      "uries": 3679,
      "organizations": 3680,
      "primary": 3681,
      "finish": 3682,
      "purch": 3683,
      "Global": 3684,
      "bul": 3685,
      "idents": 3686,
      "Inst": 3687,
      "final": 3688,
      "rights": 3689,
      "Precisely": 3690,
      "gives": 3691,
      "ups": 3692,
      "National": 3693,
      "warm": 3694,
      "enge": 3695,
      "rot": 3696,
      "rout": 3697,
      "eters": 3698,
      "Chris": 3699,
      "counts": 3700,
      "distinc": 3701,
      "soft": 3702,
      "spot": 3703,
      "His": 3704,
      "tone": 3705,
      "appl": 3706,
      "investment": 3707,
      "collaboration": 3708,
      "smooth": 3709,
      "Bec": 3710,
      "hab": 3711,
      "iber": 3712,
      "credit": 3713,
      "Benef": 3714,
      "until": 3715,
      "spect": 3716,
      "CT": 3717,
      "Even": 3718,
      "usive": 3719,
      "structures": 3720,
      "property": 3721,
      "walk": 3722,
      "standards": 3723,
      "positive": 3724,
      "sumer": 3725,
      "Det": 3726,
      "band": 3727,
      "utr": 3728,
      "icing": 3729,
      "tour": 3730,
      "tili": 3731,
      "feels": 3732,
      "editing": 3733,
      "ising": 3734,
      "lies": 3735,
      "ram": 3736,
      "Assess": 3737,
      "flo": 3738,
      "nature": 3739,
      "pto": 3740,
      "cool": 3741,
      "orders": 3742,
      "Cancer": 3743,
      "sis": 3744,
      "thr": 3745,
      "round": 3746,
      "terms": 3747,
      "integrity": 3748,
      "tun": 3749,
      "tasks": 3750,
      "picture": 3751,
      "Land": 3752,
      "Su": 3753,
      "Through": 3754,
      "wear": 3755,
      "transfer": 3756,
      "factor": 3757,
      "hes": 3758,
      "ned": 3759,
      "unding": 3760,
      "assoc": 3761,
      "Bel": 3762,
      "CS": 3763,
      "Act": 3764,
      "Web": 3765,
      "confidence": 3766,
      "companies": 3767,
      "lam": 3768,
      "series": 3769,
      "Transp": 3770,
      "Contin": 3771,
      "conversion": 3772,
      "cing": 3773,
      "enced": 3774,
      "write": 3775,
      "disciplinary": 3776,
      "Performance": 3777,
      "Business": 3778,
      "gent": 3779,
      "genetic": 3780,
      "Organ": 3781,
      "Christi": 3782,
      "Doc": 3783,
      "edge": 3784,
      "shop": 3785,
      "cris": 3786,
      "reduction": 3787,
      "effect": 3788,
      "million": 3789,
      "maxim": 3790,
      "aving": 3791,
      "testing": 3792,
      "storytelling": 3793,
      "-|": 3794,
      "AD": 3795,
      "creates": 3796,
      "score": 3797,
      "maintaining": 3798,
      "result": 3799,
      "error": 3800,
      "45": 3801,
      "giving": 3802,
      "enter": 3803,
      "reduced": 3804,
      "conversation": 3805,
      "Life": 3806,
      "Long": 3807,
      "lip": 3808,
      "formal": 3809,
      "placement": 3810,
      "Mater": 3811,
      "remember": 3812,
      "academic": 3813,
      "appe": 3814,
      "uck": 3815,
      "Chall": 3816,
      "armaceutical": 3817,
      "):**": 3818,
      "Equ": 3819,
      "fresh": 3820,
      "Stand": 3821,
      "Story": 3822,
      "manufacturing": 3823,
      "cording": 3824,
      "forcement": 3825,
      "analytics": 3826,
      "hidden": 3827,
      "ags": 3828,
      "datas": 3829,
      "ternal": 3830,
      "whole": 3831,
      "members": 3832,
      "extra": 3833,
      "gression": 3834,
      "inters": 3835,
      "Am": 3836,
      "spl": 3837,
      "vas": 3838,
      "conven": 3839,
      "Safety": 3840,
      "diverse": 3841,
      "normal": 3842,
      "revolution": 3843,
      "artic": 3844,
      "left": 3845,
      "weak": 3846,
      "Prodrugs": 3847,
      "payment": 3848,
      "message": 3849,
      "eks": 3850,
      "much": 3851,
      "servation": 3852,
      "('": 3853,
      "Qual": 3854,
      "Tips": 3855,
      "presents": 3856,
      "scholar": 3857,
      "Func": 3858,
      "thesis": 3859,
      "ER": 3860,
      "tension": 3861,
      "significance": 3862,
      "holds": 3863,
      "Build": 3864,
      "cil": 3865,
      "recomm": 3866,
      "roles": 3867,
      "manage": 3868,
      "friends": 3869,
      "RO": 3870,
      "trends": 3871,
      "Selec": 3872,
      "ret": 3873,
      "ously": 3874,
      "Ask": 3875,
      "posed": 3876,
      "predict": 3877,
      "foundation": 3878,
      "mand": 3879,
      "themat": 3880,
      "ads": 3881,
      "objec": 3882,
      "money": 3883,
      "outh": 3884,
      "children": 3885,
      "eful": 3886,
      "Optim": 3887,
      "Quick": 3888,
      "equipment": 3889,
      "infrastructure": 3890,
      "aly": 3891,
      "aces": 3892,
      "ception": 3893,
      "version": 3894,
      "seeking": 3895,
      "provided": 3896,
      "Art": 3897,
      "course": 3898,
      "fusion": 3899,
      "|-----------": 3900,
      "ler": 3901,
      "cas": 3902,
      "arity": 3903,
      "contain": 3904,
      "moving": 3905,
      "descr": 3906,
      "supply": 3907,
      "connected": 3908,
      "Sol": 3909,
      "Yes": 3910,
      "creative": 3911,
      "precise": 3912,
      "32": 3913,
      "://": 3914,
      "Evalu": 3915,
      "resilience": 3916,
      "netic": 3917,
      "pathways": 3918,
      "List": 3919,
      "screen": 3920,
      "proced": 3921,
      "cores": 3922,
      "technologies": 3923,
      "Reduc": 3924,
      "2022": 3925,
      "Biology": 3926,
      "Matters": 3927,
      "htt": 3928,
      "Lim": 3929,
      "Off": 3930,
      "pen": 3931,
      "wa": 3932,
      "andom": 3933,
      "cryp": 3934,
      "cou": 3935,
      "ulations": 3936,
      "confirm": 3937,
      "innovative": 3938,
      "allel": 3939,
      "Her": 3940,
      "ecks": 3941,
      "towards": 3942,
      "Legal": 3943,
      "acks": 3944,
      "Mar": 3945,
      "roc": 3946,
      "advent": 3947,
      "complexities": 3948,
      "|------------------------": 3949,
      "ierarch": 3950,
      "therapies": 3951,
      "gi": 3952,
      "store": 3953,
      "ecd": 3954,
      "promis": 3955,
      "resistance": 3956,
      "Market": 3957,
      "References": 3958,
      "Because": 3959,
      "uss": 3960,
      "apes": 3961,
      "comfort": 3962,
      "perfect": 3963,
      "cular": 3964,
      "Examples": 3965,
      "administr": 3966,
      "occur": 3967,
      "answ": 3968,
      "interact": 3969,
      "domin": 3970,
      "reflect": 3971,
      "Not": 3972,
      "taking": 3973,
      "vest": 3974,
      "demands": 3975,
      "puts": 3976,
      "connections": 3977,
      "Python": 3978,
      "holders": 3979,
      "sin": 3980,
      "genes": 3981,
      "expertise": 3982,
      "My": 3983,
      "mary": 3984,
      "craf": 3985,
      "datab": 3986,
      "Value": 3987,
      "swe": 3988,
      "demonstrates": 3989,
      "cam": 3990,
      "stop": 3991,
      "Chapter": 3992,
      "going": 3993,
      "199": 3994,
      "Risk": 3995,
      "mic": 3996,
      "oil": 3997,
      "itable": 3998,
      "ects": 3999,
      "activities": 4000,
      "Feed": 4001,
      "Theory": 4002,
      "loop": 4003,
      "insurance": 4004,
      "Marketing": 4005,
      "sent": 4006,
      "Support": 4007,
      "copy": 4008,
      "determin": 4009,
      "capital": 4010,
      "functions": 4011,
      "benefit": 4012,
      "Bal": 4013,
      "always": 4014,
      "empower": 4015,
      "commod": 4016,
      "metal": 4017,
      "ifying": 4018,
      "ager": 4019,
      "counter": 4020,
      "Apply": 4021,
      "involved": 4022,
      "chemical": 4023,
      "touch": 4024,
      "Start": 4025,
      "pects": 4026,
      "La": 4027,
      "Ques": 4028,
      "arant": 4029,
      "isn": 4030,
      "omics": 4031,
      "Lead": 4032,
      "details": 4033,
      "prioritize": 4034,
      "Dem": 4035,
      "hal": 4036,
      "urban": 4037,
      "quanti": 4038,
      "cloud": 4039,
      "prep": 4040,
      "solid": 4041,
      "|-------": 4042,
      "Advanced": 4043,
      "**—": 4044,
      "alty": 4045,
      "lets": 4046,
      "plate": 4047,
      "volume": 4048,
      "filter": 4049,
      "favor": 4050,
      "️⃣": 4051,
      "itself": 4052,
      "rigorous": 4053,
      "itude": 4054,
      "compar": 4055,
      "seed": 4056,
      "Char": 4057,
      "Big": 4058,
      "bind": 4059,
      "dou": 4060,
      "fat": 4061,
      "weeks": 4062,
      "Local": 4063,
      "Tip": 4064,
      "uit": 4065,
      "edical": 4066,
      "enses": 4067,
      "Implications": 4068,
      "contract": 4069,
      "emp": 4070,
      "constrain": 4071,
      "engaging": 4072,
      "expectations": 4073,
      "itics": 4074,
      "brief": 4075,
      "absor": 4076,
      "Spec": 4077,
      "atom": 4078,
      "policies": 4079,
      "structured": 4080,
      "protocols": 4081,
      "him": 4082,
      "images": 4083,
      "party": 4084,
      "inves": 4085,
      "modeling": 4086,
      "facilit": 4087,
      "Dep": 4088,
      "dialogue": 4089,
      "master": 4090,
      "enhance": 4091,
      "Map": 4092,
      "night": 4093,
      "pin": 4094,
      "interaction": 4095,
      "Form": 4096,
      "investig": 4097,
      "',": 4098,
      "ES": 4099,
      "Know": 4100,
      "late": 4101,
      "loy": 4102,
      "never": 4103,
      "door": 4104,
      "schedule": 4105,
      "rem": 4106,
      "okine": 4107,
      "United": 4108,
      "generation": 4109,
      "Deep": 4110,
      "clients": 4111,
      "privacy": 4112,
      "')": 4113,
      "ai": 4114,
      "cum": 4115,
      "ultim": 4116,
      "developing": 4117,
      "underlying": 4118,
      "healthy": 4119,
      "opportunity": 4120,
      "kind": 4121,
      "otal": 4122,
      "ployment": 4123,
      "--------------------------------": 4124,
      "Guide": 4125,
      "illustrate": 4126,
      "Dif": 4127,
      "itage": 4128,
      "particularly": 4129,
      "sounds": 4130,
      "Structure": 4131,
      "amental": 4132,
      "Security": 4133,
      "assessment": 4134,
      "Part": 4135,
      "strugg": 4136,
      "Choose": 4137,
      "icated": 4138,
      "oph": 4139,
      "Medic": 4140,
      "tification": 4141,
      "Narr": 4142,
      "exposure": 4143,
      "dle": 4144,
      "tial": 4145,
      "capacity": 4146,
      "rule": 4147,
      "women": 4148,
      "apy": 4149,
      "easy": 4150,
      "tac": 4151,
      "true": 4152,
      "Who": 4153,
      "|----------": 4154,
      "corporate": 4155,
      "Show": 4156,
      "entire": 4157,
      "minimal": 4158,
      "thus": 4159,
      "Environment": 4160,
      "faces": 4161,
      "longer": 4162,
      "sequence": 4163,
      "sites": 4164,
      "ibilities": 4165,
      "rounding": 4166,
      "omet": 4167,
      "ford": 4168,
      "consequences": 4169,
      "coming": 4170,
      "blish": 4171,
      "arri": 4172,
      "properties": 4173,
      "partnership": 4174,
      "Hand": 4175,
      "jewelry": 4176,
      "emb": 4177,
      "Enh": 4178,
      "career": 4179,
      "sions": 4180,
      "Online": 4181,
      "guidelines": 4182,
      "faster": 4183,
      "therapeutic": 4184,
      "yourself": 4185,
      "turning": 4186,
      "private": 4187,
      "records": 4188,
      "Famil": 4189,
      "Its": 4190,
      "State": 4191,
      "autom": 4192,
      "Machine": 4193,
      "gather": 4194,
      "iles": 4195,
      "species": 4196,
      "Visual": 4197,
      "sphere": 4198,
      "izer": 4199,
      "coach": 4200,
      "government": 4201,
      "batter": 4202,
      "units": 4203,
      "Fi": 4204,
      "”**": 4205,
      "immun": 4206,
      "regular": 4207,
      "combination": 4208,
      "mathb": 4209,
      "stim": 4210,
      "plans": 4211,
      "uly": 4212,
      "iring": 4213,
      "Requ": 4214,
      "viol": 4215,
      "respond": 4216,
      "promise": 4217,
      "professionals": 4218,
      "speak": 4219,
      "PA": 4220,
      "She": 4221,
      "raw": 4222,
      "ised": 4223,
      "Before": 4224,
      "ecosystem": 4225,
      "Year": 4226,
      "dog": 4227,
      "radi": 4228,
      "grade": 4229,
      "crete": 4230,
      "coverage": 4231,
      "Lever": 4232,
      "Mid": 4233,
      "ga": 4234,
      "hon": 4235,
      "slow": 4236,
      "tu": 4237,
      "everyday": 4238,
      "wal": 4239,
      "Application": 4240,
      "sus": 4241,
      "heavy": 4242,
      "exts": 4243,
      "Many": 4244,
      "cod": 4245,
      "reput": 4246,
      "root": 4247,
      "controlled": 4248,
      "Joh": 4249,
      "Dynamics": 4250,
      "ipe": 4251,
      "neg": 4252,
      "keeping": 4253,
      "reveal": 4254,
      "town": 4255,
      "Cour": 4256,
      "lack": 4257,
      "advance": 4258,
      "ert": 4259,
      "states": 4260,
      "spiritual": 4261,
      "frequency": 4262,
      "mobile": 4263,
      "games": 4264,
      "developers": 4265,
      "fields": 4266,
      "Distr": 4267,
      "Run": 4268,
      "four": 4269,
      "pul": 4270,
      "reports": 4271,
      "phen": 4272,
      "Press": 4273,
      "vironments": 4274,
      "larger": 4275,
      "improved": 4276,
      "milest": 4277,
      "accuracy": 4278,
      "%.": 4279,
      "peak": 4280,
      "Track": 4281,
      "Verify": 4282,
      "Elec": 4283,
      "Sof": 4284,
      "click": 4285,
      "Training": 4286,
      "initial": 4287,
      "Lab": 4288,
      "bill": 4289,
      "negoti": 4290,
      "cause": 4291,
      "selection": 4292,
      "Initi": 4293,
      "label": 4294,
      "families": 4295,
      "involve": 4296,
      "sustainable": 4297,
      "Cell": 4298,
      "War": 4299,
      "estic": 4300,
      "shaping": 4301,
      "delivery": 4302,
      "consistent": 4303,
      "umb": 4304,
      "poly": 4305,
      "Auto": 4306,
      "Does": 4307,
      "Strategic": 4308,
      "shaped": 4309,
      "algorithms": 4310,
      "Avoid": 4311,
      "Water": 4312,
      "rist": 4313,
      "che": 4314,
      "ache": 4315,
      "resource": 4316,
      "22": 4317,
      "Note": 4318,
      "ffic": 4319,
      "maps": 4320,
      "Stre": 4321,
      "Effec": 4322,
      "Though": 4323,
      "excellent": 4324,
      "qual": 4325,
      "reading": 4326,
      "focused": 4327,
      "improvement": 4328,
      "Day": 4329,
      "Pos": 4330,
      "urable": 4331,
      "acknow": 4332,
      "engage": 4333,
      "film": 4334,
      "damage": 4335,
      "crow": 4336,
      "mine": 4337,
      "thres": 4338,
      "Ill": 4339,
      "Vari": 4340,
      "orts": 4341,
      "altern": 4342,
      "tition": 4343,
      "nic": 4344,
      "option": 4345,
      "coll": 4346,
      "communic": 4347,
      "guard": 4348,
      "continues": 4349,
      "yields": 4350,
      "Air": 4351,
      "Foc": 4352,
      "blend": 4353,
      "https": 4354,
      "fas": 4355,
      "mes": 4356,
      "stability": 4357,
      "linear": 4358,
      "tells": 4359,
      "coordin": 4360,
      "MA": 4361,
      "mers": 4362,
      "”*": 4363,
      "org": 4364,
      "ancient": 4365,
      "Comb": 4366,
      "detect": 4367,
      "having": 4368,
      "requirements": 4369,
      "Service": 4370,
      "vel": 4371,
      "rop": 4372,
      "univers": 4373,
      "club": 4374,
      "iple": 4375,
      "inition": 4376,
      "ened": 4377,
      "antum": 4378,
      "virtual": 4379,
      "existing": 4380,
      "prem": 4381,
      "gets": 4382,
      "marks": 4383,
      "holder": 4384,
      "config": 4385,
      "hosp": 4386,
      "da": 4387,
      "transition": 4388,
      "narratives": 4389,
      "IN": 4390,
      "Exec": 4391,
      "proved": 4392,
      "sle": 4393,
      "tries": 4394,
      "developments": 4395,
      "central": 4396,
      "Emerg": 4397,
      "continu": 4398,
      "istry": 4399,
      "Technical": 4400,
      "sessions": 4401,
      "voice": 4402,
      "jus": 4403,
      "rix": 4404,
      "sel": 4405,
      "section": 4406,
      "surrounding": 4407,
      "green": 4408,
      "Collabor": 4409,
      "Fol": 4410,
      "enough": 4411,
      "elim": 4412,
      "prodrugs": 4413,
      "boards": 4414,
      "Prov": 4415,
      "versus": 4416,
      "skin": 4417,
      "_i": 4418,
      "alter": 4419,
      "iding": 4420,
      "exchange": 4421,
      "regulation": 4422,
      "choose": 4423,
      "promoting": 4424,
      "distance": 4425,
      "places": 4426,
      "Memory": 4427,
      "spr": 4428,
      "echo": 4429,
      "Ensure": 4430,
      "request": 4431,
      "inste": 4432,
      "challenge": 4433,
      "environments": 4434,
      "remin": 4435,
      "external": 4436,
      "logs": 4437,
      "hyth": 4438,
      "topic": 4439,
      "analyze": 4440,
      "Critical": 4441,
      "Targeted": 4442,
      "Non": 4443,
      "aes": 4444,
      "oretical": 4445,
      "Christ": 4446,
      "Additional": 4447,
      "osing": 4448,
      "solution": 4449,
      "folio": 4450,
      "constant": 4451,
      "instructions": 4452,
      "35": 4453,
      "Code": 4454,
      "dy": 4455,
      "books": 4456,
      "reflects": 4457,
      "basic": 4458,
      "written": 4459,
      "mach": 4460,
      "aspect": 4461,
      "risks": 4462,
      "rad": 4463,
      "eration": 4464,
      "etch": 4465,
      "ilos": 4466,
      "idity": 4467,
      "pathy": 4468,
      "measures": 4469,
      "pieces": 4470,
      "scientists": 4471,
      "Grow": 4472,
      "matter": 4473,
      "logic": 4474,
      "okinetics": 4475,
      "length": 4476,
      "driving": 4477,
      "plicit": 4478,
      "subtle": 4479,
      "enables": 4480,
      "Physical": 4481,
      "eye": 4482,
      "utorial": 4483,
      "distinct": 4484,
      "Pay": 4485,
      "dash": 4486,
      "fair": 4487,
      "zz": 4488,
      "smart": 4489,
      "electric": 4490,
      "fundamental": 4491,
      "Economic": 4492,
      "Christian": 4493,
      "Game": 4494,
      "RAM": 4495,
      "Sched": 4496,
      "song": 4497,
      "protection": 4498,
      "Har": 4499,
      "ais": 4500,
      "civil": 4501,
      "construc": 4502,
      "Adjust": 4503,
      "falls": 4504,
      "Quality": 4505,
      "Hol": 4506,
      "items": 4507,
      "amount": 4508,
      "quis": 4509,
      "weather": 4510,
      "spat": 4511,
      "blue": 4512,
      "breath": 4513,
      "Incre": 4514,
      "office": 4515,
      "hydro": 4516,
      "changing": 4517,
      "Technology": 4518,
      "window": 4519,
      "Program": 4520,
      "mathbf": 4521,
      "Afric": 4522,
      "Suc": 4523,
      "Sust": 4524,
      "mapping": 4525,
      "thems": 4526,
      "Clinical": 4527,
      "mechanical": 4528,
      "tang": 4529,
      "ype": 4530,
      "threat": 4531,
      "anx": 4532,
      "Applications": 4533,
      "Ter": 4534,
      "conflict": 4535,
      "Narrative": 4536,
      "Right": 4537,
      "cand": 4538,
      "ody": 4539,
      "Prot": 4540,
      "*—": 4541,
      "Jes": 4542,
      "Low": 4543,
      "Link": 4544,
      "tigh": 4545,
      "University": 4546,
      "Load": 4547,
      "Strategies": 4548,
      "improving": 4549,
      "batch": 4550,
      "notes": 4551,
      "invent": 4552,
      "themselves": 4553,
      "ng": 4554,
      "says": 4555,
      "ister": 4556,
      "laws": 4557,
      "Socratic": 4558,
      "settings": 4559,
      "European": 4560,
      "least": 4561,
      "amin": 4562,
      "seem": 4563,
      "created": 4564,
      "itiv": 4565,
      "looks": 4566,
      "Content": 4567,
      "accurate": 4568,
      "Write": 4569,
      "Jesus": 4570,
      "given": 4571,
      "interpret": 4572,
      "handling": 4573,
      "increasingly": 4574,
      "experiment": 4575,
      "inhib": 4576,
      "onto": 4577,
      "cele": 4578,
      "odynamics": 4579,
      "format": 4580,
      "guidance": 4581,
      "Direc": 4582,
      "renew": 4583,
      "Considerations": 4584,
      "Less": 4585,
      "fuel": 4586,
      "}\\)": 4587,
      "embr": 4588,
      "ulner": 4589,
      "simply": 4590,
      "center": 4591,
      "mechanics": 4592,
      "receive": 4593,
      "crisis": 4594,
      "aul": 4595,
      "script": 4596,
      "Setting": 4597,
      "Success": 4598,
      "celebr": 4599,
      "**“": 4600,
      "exempl": 4601,
      "criter": 4602,
      "CC": 4603,
      "isol": 4604,
      "offee": 4605,
      "ecast": 4606,
      "interests": 4607,
      "Strategy": 4608,
      "spatial": 4609,
      "epend": 4610,
      "Cloud": 4611,
      "greeting": 4612,
      "greetings": 4613,
      "Education": 4614,
      "\\),": 4615,
      "_0": 4616,
      "intric": 4617,
      "monitor": 4618,
      "country": 4619,
      "aligns": 4620,
      "diseases": 4621,
      "applied": 4622,
      "Document": 4623,
      "density": 4624,
      "jud": 4625,
      "saw": 4626,
      "dry": 4627,
      "themes": 4628,
      "close": 4629,
      "Offer": 4630,
      "categ": 4631,
      "artis": 4632,
      "matically": 4633,
      "society": 4634,
      "evolve": 4635,
      "Media": 4636,
      "Define": 4637,
      "boundaries": 4638,
      "================================================": 4639,
      "64": 4640,
      "enjoy": 4641,
      "independ": 4642,
      "successful": 4643,
      "(`": 4644,
      "Self": 4645,
      "imaging": 4646,
      "anger": 4647,
      "explain": 4648,
      "domestic": 4649,
      "reliable": 4650,
      "Light": 4651,
      "takes": 4652,
      "enable": 4653,
      "ective": 4654,
      "awar": 4655,
      "Engagement": 4656,
      "institutions": 4657,
      "Sustain": 4658,
      "Gro": 4659,
      "2019": 4660,
      "explored": 4661,
      "integrated": 4662,
      "turns": 4663,
      "Frame": 4664,
      "Regul": 4665,
      "blocks": 4666,
      "alignment": 4667,
      "Ma": 4668,
      "along": 4669,
      "leaders": 4670,
      "detection": 4671,
      "Challenges": 4672,
      "Cy": 4673,
      "Cred": 4674,
      "East": 4675,
      "waste": 4676,
      "forts": 4677,
      "amm": 4678,
      "craft": 4679,
      "news": 4680,
      "Science": 4681,
      "GD": 4682,
      "LS": 4683,
      "vic": 4684,
      "refer": 4685,
      "ably": 4686,
      "stead": 4687,
      "kg": 4688,
      "additional": 4689,
      "turing": 4690,
      "Sym": 4691,
      "Takeaways": 4692,
      "Method": 4693,
      "regional": 4694,
      "boost": 4695,
      "centric": 4696,
      "audit": 4697,
      "Scenario": 4698,
      "sheet": 4699,
      "evaluate": 4700,
      "ativity": 4701,
      "tissue": 4702,
      "satisf": 4703,
      "associated": 4704,
      "Prom": 4705,
      "piv": 4706,
      "Whether": 4707,
      "Benefits": 4708,
      "fascin": 4709,
      "oral": 4710,
      "oul": 4711,
      "motiv": 4712,
      "pharmaceutical": 4713,
      "heritage": 4714,
      "Book": 4715,
      "flexibility": 4716,
      "Pot": 4717,
      "Sal": 4718,
      "tips": 4719,
      "umin": 4720,
      "promote": 4721,
      "failure": 4722,
      "introduced": 4723,
      "Tod": 4724,
      "Ur": 4725,
      "och": 4726,
      "squ": 4727,
      "antit": 4728,
      "agre": 4729,
      "crim": 4730,
      "Students": 4731,
      "inten": 4732,
      "Provide": 4733,
      "cultures": 4734,
      "Adap": 4735,
      "75": 4736,
      "Based": 4737,
      "CB": 4738,
      "Govern": 4739,
      "task": 4740,
      "inf": 4741,
      "infl": 4742,
      "consumer": 4743,
      "segment": 4744,
      "neural": 4745,
      "experi": 4746,
      "everything": 4747,
      "statement": 4748,
      "────": 4749,
      "awareness": 4750,
      "El": 4751,
      "gers": 4752,
      "toy": 4753,
      "usage": 4754,
      "express": 4755,
      "Importance": 4756,
      "migration": 4757,
      "?\"": 4758,
      "perce": 4759,
      "commerc": 4760,
      "medi": 4761,
      "activation": 4762,
      "nutr": 4763,
      "problems": 4764,
      "During": 4765,
      "ades": 4766,
      "worth": 4767,
      "files": 4768,
      "?”*": 4769,
      "emergency": 4770,
      "LA": 4771,
      "won": 4772,
      "essor": 4773,
      "responsible": 4774,
      "expand": 4775,
      "proteins": 4776,
      "Instit": 4777,
      "Path": 4778,
      "Pred": 4779,
      "fre": 4780,
      "iar": 4781,
      "tend": 4782,
      "onds": 4783,
      "scores": 4784,
      "static": 4785,
      "jection": 4786,
      "personalized": 4787,
      "stakeholders": 4788,
      "crypto": 4789,
      "Home": 4790,
      "SS": 4791,
      "fish": 4792,
      "tes": 4793,
      "tum": 4794,
      "ums": 4795,
      "index": 4796,
      "ancy": 4797,
      "handle": 4798,
      "Overview": 4799,
      "...": 4800,
      "Ag": 4801,
      "IM": 4802,
      "Num": 4803,
      "Pur": 4804,
      "Vol": 4805,
      "hous": 4806,
      "teacher": 4807,
      "modules": 4808,
      "flavor": 4809,
      "Port": 4810,
      "Comple": 4811,
      "surv": 4812,
      "surve": 4813,
      "histor": 4814,
      "automatically": 4815,
      "ethical": 4816,
      "shifts": 4817,
      "Feedback": 4818,
      "commercial": 4819,
      "2000": 4820,
      "income": 4821,
      "imal": 4822,
      "Align": 4823,
      "playing": 4824,
      "constraints": 4825,
      "CD": 4826,
      "noise": 4827,
      "dedicated": 4828,
      "Distrib": 4829,
      "Today": 4830,
      "))": 4831,
      "elev": 4832,
      "already": 4833,
      "adding": 4834,
      "ogen": 4835,
      "Takeaway": 4836,
      "Special": 4837,
      "operational": 4838,
      "Outcome": 4839,
      "Foundations": 4840,
      "instead": 4841,
      "Ren": 4842,
      "hierarch": 4843,
      "repair": 4844,
      "illustrates": 4845,
      "Effic": 4846,
      "competitive": 4847,
      "advantage": 4848,
      "GIS": 4849,
      "du": 4850,
      "otes": 4851,
      "effort": 4852,
      "artment": 4853,
      "condition": 4854,
      "instr": 4855,
      "ails": 4856,
      "audio": 4857,
      "Once": 4858,
      "representation": 4859,
      "bs": 4860,
      "atility": 4861,
      "grav": 4862,
      "compet": 4863,
      "Disc": 4864,
      "participants": 4865,
      "attrib": 4866,
      "Age": 4867,
      "Rom": 4868,
      "atmo": 4869,
      "ours": 4870,
      "metic": 4871,
      "Studies": 4872,
      "insight": 4873,
      "guarant": 4874,
      "leadership": 4875,
      "Super": 4876,
      "database": 4877,
      "fascinating": 4878,
      "bone": 4879,
      "chat": 4880,
      "There": 4881,
      "adver": 4882,
      "locking": 4883,
      "True": 4884,
      "exploration": 4885,
      "ventions": 4886,
      "complexity": 4887,
      "integrating": 4888,
      "treatments": 4889,
      "Regulatory": 4890,
      "Find": 4891,
      "redi": 4892,
      "ingredi": 4893,
      "abil": 4894,
      "leads": 4895,
      "heard": 4896,
      "SEO": 4897,
      "highlighting": 4898,
      "\\,\\": 4899,
      "mel": 4900,
      "sty": 4901,
      "ederal": 4902,
      "usually": 4903,
      "creation": 4904,
      "lect": 4905,
      "Script": 4906,
      "son": 4907,
      "Ethical": 4908,
      "routine": 4909,
      "\\$": 4910,
      "eel": 4911,
      "gas": 4912,
      "marked": 4913,
      "Week": 4914,
      "cycles": 4915,
      "reviews": 4916,
      "Journal": 4917,
      "Bet": 4918,
      "Psych": 4919,
      "rhyth": 4920,
      "sell": 4921,
      "ley": 4922,
      "recover": 4923,
      "numer": 4924,
      "evolving": 4925,
      "computers": 4926,
      "biomedical": 4927,
      "transparency": 4928,
      "library": 4929,
      "neigh": 4930,
      "developed": 4931,
      "views": 4932,
      "onomy": 4933,
      "thinking": 4934,
      "Cer": 4935,
      "Us": 4936,
      "ulting": 4937,
      "shops": 4938,
      "Encour": 4939,
      "limits": 4940,
      "initiatives": 4941,
      "India": 4942,
      "antitative": 4943,
      ")*": 4944,
      "Sw": 4945,
      "bir": 4946,
      "vulner": 4947,
      "bles": 4948,
      "Platform": 4949,
      "mathemat": 4950,
      "Feature": 4951,
      "Measure": 4952,
      "reminder": 4953,
      "Make": 4954,
      "idential": 4955,
      "collection": 4956,
      "increases": 4957,
      "contrast": 4958,
      "Decision": 4959,
      "Summary": 4960,
      "\",": 4961,
      "Evolution": 4962,
      "reward": 4963,
      "unte": 4964,
      "construction": 4965,
      "actors": 4966,
      "schedul": 4967,
      "Experience": 4968,
      "28": 4969,
      "checks": 4970,
      "positions": 4971,
      "complete": 4972,
      "emotions": 4973,
      "Autom": 4974,
      "Checklist": 4975,
      "Card": 4976,
      "Ger": 4977,
      "HR": 4978,
      "Typical": 4979,
      "vehicle": 4980,
      "ecdote": 4981,
      "availability": 4982,
      "Signific": 4983,
      "Illustr": 4984,
      "pick": 4985,
      "itness": 4986,
      "States": 4987,
      "scop": 4988,
      "efficacy": 4989,
      "People": 4990,
      "uge": 4991,
      "rely": 4992,
      "pool": 4993,
      "hardware": 4994,
      "Dialogue": 4995,
      "Gold": 4996,
      "Talk": 4997,
      "User": 4998,
      "else": 4999,
      "Project": 5000,
      "subs": 5001,
      "fostering": 5002,
      "throughout": 5003,
      "difference": 5004,
      "sensitive": 5005,
      "nuances": 5006,
      "morning": 5007,
      "Ho": 5008,
      "dig": 5009,
      "fine": 5010,
      "pow": 5011,
      "Compar": 5012,
      "allowed": 5013,
      "aspects": 5014,
      "Int": 5015,
      "upon": 5016,
      "=====": 5017,
      "Priv": 5018,
      "instant": 5019,
      "audiences": 5020,
      "testament": 5021,
      "|-------------": 5022,
      "Vir": 5023,
      "tensor": 5024,
      "Connec": 5025,
      "ansion": 5026,
      "Share": 5027,
      "describ": 5028,
      "Call": 5029,
      "bow": 5030,
      "len": 5031,
      "meeting": 5032,
      "visit": 5033,
      "flows": 5034,
      "injury": 5035,
      "ratio": 5036,
      "rock": 5037,
      "Follow": 5038,
      "Net": 5039,
      "statistical": 5040,
      "itchen": 5041,
      "sustainability": 5042,
      "launch": 5043,
      "adventure": 5044,
      "Need": 5045,
      "ector": 5046,
      "compass": 5047,
      "optimal": 5048,
      "psychological": 5049,
      "Top": 5050,
      "Treat": 5051,
      "insp": 5052,
      "2018": 5053,
      "examine": 5054,
      "underscores": 5055,
      "anxiety": 5056,
      "48": 5057,
      "Don": 5058,
      "brow": 5059,
      "ulin": 5060,
      "comfor": 5061,
      "Concep": 5062,
      "previ": 5063,
      "object": 5064,
      "Appro": 5065,
      "latest": 5066,
      "football": 5067,
      "momentum": 5068,
      "TE": 5069,
      "gest": 5070,
      "hands": 5071,
      "Medical": 5072,
      "population": 5073,
      "bridge": 5074,
      "AS": 5075,
      "Lev": 5076,
      "Pack": 5077,
      "bits": 5078,
      "tors": 5079,
      "accommod": 5080,
      "ung": 5081,
      "clin": 5082,
      "Industr": 5083,
      "Flow": 5084,
      "scan": 5085,
      "tests": 5086,
      "efforts": 5087,
      "dition": 5088,
      "poses": 5089,
      "cognitive": 5090,
      "ycl": 5091,
      "church": 5092,
      "utely": 5093,
      "otor": 5094,
      "approaches": 5095,
      "2021": 5096,
      "Suppose": 5097,
      "happens": 5098,
      "elimin": 5099,
      "supports": 5100,
      "partner": 5101,
      "educational": 5102,
      "typical": 5103,
      "Standard": 5104,
      "ague": 5105,
      "solutely": 5106,
      "lege": 5107,
      "truly": 5108,
      "imag": 5109,
      "clust": 5110,
      "lighting": 5111,
      "recognize": 5112,
      "Maintain": 5113,
      "perspective": 5114,
      "itivity": 5115,
      "CA": 5116,
      "Like": 5117,
      "moun": 5118,
      "remo": 5119,
      "stable": 5120,
      "idate": 5121,
      "phr": 5122,
      "display": 5123,
      "arian": 5124,
      "City": 5125,
      "Spe": 5126,
      "pull": 5127,
      "token": 5128,
      "quarter": 5129,
      "spark": 5130,
      "Exp": 5131,
      "flag": 5132,
      "prepar": 5133,
      "willing": 5134,
      "focusing": 5135,
      "21": 5136,
      "Gree": 5137,
      "fans": 5138,
      "diam": 5139,
      "Significance": 5140,
      "Block": 5141,
      "Happ": 5142,
      "bus": 5143,
      "reference": 5144,
      "doing": 5145,
      "documents": 5146,
      "rooms": 5147,
      "parameters": 5148,
      "ava": 5149,
      "traject": 5150,
      "authenticity": 5151,
      "Family": 5152,
      "tangible": 5153,
      "tech": 5154,
      "unk": 5155,
      "useful": 5156,
      "compared": 5157,
      "Proof": 5158,
      "peer": 5159,
      "growing": 5160,
      "talent": 5161,
      "savings": 5162,
      "Install": 5163,
      "IR": 5164,
      "dot": 5165,
      "amless": 5166,
      "adds": 5167,
      "Information": 5168,
      "earli": 5169,
      "2024": 5170,
      "purchase": 5171,
      "Clear": 5172,
      "ET": 5173,
      "Park": 5174,
      "School": 5175,
      "prodrug": 5176,
      "exhib": 5177,
      "cannot": 5178,
      "listen": 5179,
      "domain": 5180,
      "indicates": 5181,
      "discovery": 5182,
      "GB": 5183,
      "Text": 5184,
      "wel": 5185,
      "Invest": 5186,
      "sometimes": 5187,
      "really": 5188,
      "refine": 5189,
      "|--------------": 5190,
      "floor": 5191,
      "dual": 5192,
      "kids": 5193,
      "ners": 5194,
      "pa": 5195,
      "white": 5196,
      "nings": 5197,
      "publish": 5198,
      "refers": 5199,
      "carry": 5200,
      "Continuous": 5201,
      "rid": 5202,
      "instruction": 5203,
      "driver": 5204,
      "magnetic": 5205,
      "preserving": 5206,
      "300": 5207,
      "Camp": 5208,
      "GO": 5209,
      "Get": 5210,
      "cues": 5211,
      "lation": 5212,
      "na": 5213,
      "constit": 5214,
      "defense": 5215,
      "physi": 5216,
      "Brand": 5217,
      "optimizer": 5218,
      "runs": 5219,
      "Communication": 5220,
      "demonstrate": 5221,
      "harmon": 5222,
      "^{-": 5223,
      "consumption": 5224,
      "Two": 5225,
      "double": 5226,
      "cm": 5227,
      "gear": 5228,
      "voc": 5229,
      "inner": 5230,
      "icon": 5231,
      "texture": 5232,
      "diffic": 5233,
      "markets": 5234,
      "generate": 5235,
      "topics": 5236,
      "Loss": 5237,
      "translate": 5238,
      "algorithm": 5239,
      "probability": 5240,
      "hope": 5241,
      "utili": 5242,
      "remind": 5243,
      "according": 5244,
      "amed": 5245,
      "clud": 5246,
      "reality": 5247,
      "robot": 5248,
      "contribute": 5249,
      "Geography": 5250,
      "manufactur": 5251,
      "scientific": 5252,
      "acknowled": 5253,
      "Focus": 5254,
      "Clean": 5255,
      "young": 5256,
      "liqu": 5257,
      "update": 5258,
      "democ": 5259,
      "detailed": 5260,
      "Team": 5261,
      "(\\": 5262,
      "DA": 5263,
      "Next": 5264,
      "Wind": 5265,
      "greg": 5266,
      "trend": 5267,
      "background": 5268,
      "lift": 5269,
      "pipeline": 5270,
      "Assessment": 5271,
      "HT": 5272,
      "Sil": 5273,
      "five": 5274,
      "gaps": 5275,
      "represents": 5276,
      "added": 5277,
      "university": 5278,
      "uting": 5279,
      "profit": 5280,
      "characteristics": 5281,
      "trigger": 5282,
      "gentle": 5283,
      "Rate": 5284,
      "Rob": 5285,
      "amb": 5286,
      "analog": 5287,
      "Customer": 5288,
      "Dynamic": 5289,
      "Mil": 5290,
      "lux": 5291,
      "atin": 5292,
      "Planning": 5293,
      "Greetings": 5294,
      "premium": 5295,
      "Event": 5296,
      "fear": 5297,
      "mist": 5298,
      "zation": 5299,
      "ana": 5300,
      "acro": 5301,
      "asking": 5302,
      "agency": 5303,
      "began": 5304,
      "ensors": 5305,
      "ideal": 5306,
      "height": 5307,
      "intell": 5308,
      "End": 5309,
      "careful": 5310,
      "merely": 5311,
      "Reflection": 5312,
      "Services": 5313,
      "appreciate": 5314,
      "width": 5315,
      "satisfaction": 5316,
      "Search": 5317,
      "concrete": 5318,
      "Inc": 5319,
      "disrup": 5320,
      "2015": 5321,
      "balanced": 5322,
      "choices": 5323,
      "glass": 5324,
      "governance": 5325,
      "Spir": 5326,
      "leveraging": 5327,
      "phenomen": 5328,
      "nel": 5329,
      "etc": 5330,
      "pressive": 5331,
      "Profession": 5332,
      "Potential": 5333,
      "perceived": 5334,
      "Where": 5335,
      "interplay": 5336,
      "classic": 5337,
      "applying": 5338,
      "Mag": 5339,
      "citiz": 5340,
      "pal": 5341,
      "trib": 5342,
      "desired": 5343,
      "simpl": 5344,
      "Models": 5345,
      "ptoms": 5346,
      "Transpar": 5347,
      "Bul": 5348,
      "Face": 5349,
      "stick": 5350,
      "idation": 5351,
      "uncertain": 5352,
      "conduc": 5353,
      "Prote": 5354,
      "listening": 5355,
      "started": 5356,
      "currency": 5357,
      "hospital": 5358,
      "hub": 5359,
      "kit": 5360,
      "ries": 5361,
      "targets": 5362,
      "bank": 5363,
      "!”": 5364,
      "random": 5365,
      "utive": 5366,
      "wave": 5367,
      "ula": 5368,
      "ocity": 5369,
      "manual": 5370,
      "ongo": 5371,
      "Travel": 5372,
      "recognition": 5373,
      "equipped": 5374,
      "exciting": 5375,
      "catch": 5376,
      "coffee": 5377,
      "init": 5378,
      "erate": 5379,
      "ison": 5380,
      "flash": 5381,
      "curricul": 5382,
      "legacy": 5383,
      "Professor": 5384,
      "sweet": 5385,
      "Mix": 5386,
      "stic": 5387,
      "trip": 5388,
      "annual": 5389,
      "transformation": 5390,
      "recommend": 5391,
      "Pass": 5392,
      "Russ": 5393,
      "Sat": 5394,
      "}\\).": 5395,
      "Them": 5396,
      "prop": 5397,
      "structural": 5398,
      "verse": 5399,
      "accessible": 5400,
      "monthly": 5401,
      "employees": 5402,
      "planetary": 5403,
      "Fil": 5404,
      "gence": 5405,
      "nodes": 5406,
      "acters": 5407,
      "geography": 5408,
      "workers": 5409,
      "dated": 5410,
      "countries": 5411,
      "aligning": 5412,
      "tracking": 5413,
      "messages": 5414,
      "tility": 5415,
      "photograph": 5416,
      "Break": 5417,
      "UI": 5418,
      "aring": 5419,
      "parents": 5420,
      "locate": 5421,
      "hybrid": 5422,
      "easier": 5423,
      "findings": 5424,
      "Space": 5425,
      "animal": 5426,
      "Tur": 5427,
      "icks": 5428,
      "incident": 5429,
      "Short": 5430,
      "carbon": 5431,
      "below": 5432,
      "institutional": 5433,
      "objectives": 5434,
      "ownership": 5435,
      "regulations": 5436,
      "Tools": 5437,
      "channels": 5438,
      "remote": 5439,
      "Vide": 5440,
      "erts": 5441,
      "regions": 5442,
      "197": 5443,
      "subject": 5444,
      "starting": 5445,
      "PDF": 5446,
      "comfortable": 5447,
      "aced": 5448,
      "entry": 5449,
      "ette": 5450,
      "empathy": 5451,
      "Compliance": 5452,
      "differenti": 5453,
      "Grad": 5454,
      "mention": 5455,
      "North": 5456,
      "Evidence": 5457,
      "Environmental": 5458,
      ",\"": 5459,
      "65": 5460,
      "tif": 5461,
      "isation": 5462,
      "plies": 5463,
      "exercise": 5464,
      "agencies": 5465,
      "partial": 5466,
      "death": 5467,
      "linked": 5468,
      "figure": 5469,
      "tissues": 5470,
      "links": 5471,
      "vascular": 5472,
      "thusi": 5473,
      "AL": 5474,
      "Tok": 5475,
      "conc": 5476,
      "shot": 5477,
      "sports": 5478,
      "compat": 5479,
      "specif": 5480,
      "makers": 5481,
      "lists": 5482,
      "Record": 5483,
      "Scale": 5484,
      "negative": 5485,
      "Growth": 5486,
      "nur": 5487,
      "yes": 5488,
      "orient": 5489,
      "suit": 5490,
      "dram": 5491,
      "assign": 5492,
      "eward": 5493,
      "challeng": 5494,
      "claims": 5495,
      "Best": 5496,
      "cel": 5497,
      "zero": 5498,
      "aken": 5499,
      "command": 5500,
      "lands": 5501,
      "videos": 5502,
      "element": 5503,
      "reported": 5504,
      "sleep": 5505,
      "quisition": 5506,
      "PI": 5507,
      "abstr": 5508,
      "extr": 5509,
      "hypo": 5510,
      "baseline": 5511,
      "channel": 5512,
      "suggests": 5513,
      "ultimately": 5514,
      "alternative": 5515,
      "Type": 5516,
      "ault": 5517,
      "iform": 5518,
      "stack": 5519,
      "assets": 5520,
      "reads": 5521,
      "ercises": 5522,
      "shapes": 5523,
      "Absolutely": 5524,
      "meaningful": 5525,
      "www": 5526,
      "Word": 5527,
      "enforcement": 5528,
      "string": 5529,
      "prise": 5530,
      "mode": 5531,
      "frag": 5532,
      "2017": 5533,
      "learned": 5534,
      "suggest": 5535,
      "limitations": 5536,
      "giant": 5537,
      "ongoing": 5538,
      "Layer": 5539,
      "SM": 5540,
      "kin": 5541,
      "mort": 5542,
      "erce": 5543,
      "immediate": 5544,
      "fees": 5545,
      "objects": 5546,
      "carefully": 5547,
      "eneur": 5548,
      "responsibility": 5549,
      "errors": 5550,
      "Greek": 5551,
      "CL": 5552,
      "nuc": 5553,
      "philos": 5554,
      "matrix": 5555,
      "Fri": 5556,
      "anticip": 5557,
      "separate": 5558,
      "Hard": 5559,
      "apan": 5560,
      "ophis": 5561,
      "silver": 5562,
      "EU": 5563,
      "Japan": 5564,
      "Master": 5565,
      "Tem": 5566,
      "dest": 5567,
      "hur": 5568,
      "wood": 5569,
      "exactly": 5570,
      "pricing": 5571,
      "spaces": 5572,
      "breast": 5573,
      "general": 5574,
      "sensors": 5575,
      "Architecture": 5576,
      "Down": 5577,
      "ae": 5578,
      "scrip": 5579,
      "apped": 5580,
      "counsel": 5581,
      "advoc": 5582,
      "internet": 5583,
      "attach": 5584,
      "render": 5585,
      "Blue": 5586,
      "BCE": 5587,
      "Hear": 5588,
      "gate": 5589,
      "overs": 5590,
      "ran": 5591,
      "itter": 5592,
      "motional": 5593,
      "politics": 5594,
      "behavi": 5595,
      "scenarios": 5596,
      "Landscape": 5597,
      "ophistic": 5598,
      "QL": 5599,
      "farm": 5600,
      "pite": 5601,
      "rare": 5602,
      "imate": 5603,
      "Innov": 5604,
      "parallel": 5605,
      "Proble": 5606,
      "manip": 5607,
      "getting": 5608,
      "Behav": 5609,
      "loads": 5610,
      "reflection": 5611,
      "Goal": 5612,
      "consistency": 5613,
      "collective": 5614,
      "(\"": 5615,
      "third": 5616,
      "tile": 5617,
      "abric": 5618,
      "sugar": 5619,
      "drives": 5620,
      "highly": 5621,
      "angle": 5622,
      "ships": 5623,
      "integrate": 5624,
      "Guid": 5625,
      "adoption": 5626,
      "preneur": 5627,
      "Proper": 5628,
      "medium": 5629,
      "signaling": 5630,
      "fluid": 5631,
      "operating": 5632,
      "Recogn": 5633,
      "opening": 5634,
      "preced": 5635,
      "aight": 5636,
      "ibe": 5637,
      "plo": 5638,
      "compound": 5639,
      "corner": 5640,
      "facts": 5641,
      "Employ": 5642,
      "court": 5643,
      "investors": 5644,
      "pirical": 5645,
      "favorite": 5646,
      "120": 5647,
      "zone": 5648,
      "theoretical": 5649,
      "umps": 5650,
      "worldwide": 5651,
      "became": 5652,
      "defined": 5653,
      "rating": 5654,
      "forecast": 5655,
      "ulty": 5656,
      "198": 5657,
      "addressing": 5658,
      "Metrics": 5659,
      "Response": 5660,
      "immune": 5661,
      "milestones": 5662,
      "More": 5663,
      "bench": 5664,
      "sophistic": 5665,
      "estern": 5666,
      "plom": 5667,
      "quir": 5668,
      "readers": 5669,
      "characters": 5670,
      "Our": 5671,
      "fel": 5672,
      "gins": 5673,
      "mail": 5674,
      "arrow": 5675,
      "plain": 5676,
      "seas": 5677,
      "restric": 5678,
      "entiment": 5679,
      "dose": 5680,
      "ieties": 5681,
      "tificial": 5682,
      "competition": 5683,
      "mitigate": 5684,
      "half": 5685,
      "FA": 5686,
      "House": 5687,
      "TV": 5688,
      "chance": 5689,
      "exceed": 5690,
      "lost": 5691,
      "interface": 5692,
      "significantly": 5693,
      "moments": 5694,
      "official": 5695,
      "(“": 5696,
      "Max": 5697,
      "thick": 5698,
      "plas": 5699,
      "spher": 5700,
      "creativity": 5701,
      "ellow": 5702,
      "diplom": 5703,
      "regard": 5704,
      "Princ": 5705,
      "certific": 5706,
      "Resources": 5707,
      "emerging": 5708,
      "Engineering": 5709,
      "Bio": 5710,
      "Est": 5711,
      "mg": 5712,
      "pm": 5713,
      "tack": 5714,
      "thin": 5715,
      "alph": 5716,
      "refin": 5717,
      "reactions": 5718,
      "lease": 5719,
      "etary": 5720,
      "beta": 5721,
      "running": 5722,
      "Monitor": 5723,
      "steel": 5724,
      "flexible": 5725,
      "revolutionized": 5726,
      "Differ": 5727,
      "Position": 5728,
      "uth": 5729,
      "wise": 5730,
      "tok": 5731,
      "portfolio": 5732,
      "planets": 5733,
      "responses": 5734,
      "reaching": 5735,
      "advantages": 5736,
      "machines": 5737,
      "Mor": 5738,
      "km": 5739,
      "kitchen": 5740,
      "enthusi": 5741,
      "unds": 5742,
      "ensing": 5743,
      "encry": 5744,
      "astering": 5745,
      "150": 5746,
      "niche": 5747,
      "HA": 5748,
      "Java": 5749,
      "Language": 5750,
      "MP": 5751,
      "goes": 5752,
      "gluc": 5753,
      "Mini": 5754,
      "achieving": 5755,
      "Ide": 5756,
      "node": 5757,
      "seamless": 5758,
      "interventions": 5759,
      "validation": 5760,
      "Below": 5761,
      "datasets": 5762,
      "embly": 5763,
      "plot": 5764,
      "prev": 5765,
      "trained": 5766,
      "Political": 5767,
      "America": 5768,
      "emphasis": 5769,
      "incorporating": 5770,
      "Linear": 5771,
      "400": 5772,
      "Full": 5773,
      "SQL": 5774,
      "Tax": 5775,
      "bad": 5776,
      "pig": 5777,
      "sample": 5778,
      "regression": 5779,
      "ounce": 5780,
      "parad": 5781,
      "scene": 5782,
      "seconds": 5783,
      "title": 5784,
      "faced": 5785,
      "stret": 5786,
      "missions": 5787,
      "Definition": 5788,
      "computational": 5789,
      "Free": 5790,
      "Match": 5791,
      "Vision": 5792,
      "diversity": 5793,
      "sen": 5794,
      "concent": 5795,
      "matches": 5796,
      "designs": 5797,
      "follows": 5798,
      "feeling": 5799,
      "sequent": 5800,
      "trying": 5801,
      "computing": 5802,
      "sector": 5803,
      "Music": 5804,
      "embracing": 5805,
      "TO": 5806,
      "hit": 5807,
      "iling": 5808,
      "commerce": 5809,
      "medication": 5810,
      "signs": 5811,
      "persist": 5812,
      "patch": 5813,
      "lessons": 5814,
      "movements": 5815,
      "preventing": 5816,
      "advancements": 5817,
      "Predic": 5818,
      "Purpose": 5819,
      "NN": 5820,
      "send": 5821,
      "vac": 5822,
      "attem": 5823,
      "leave": 5824,
      "Stay": 5825,
      "phase": 5826,
      "reporting": 5827,
      "Effective": 5828,
      "23": 5829,
      "Bu": 5830,
      "Graph": 5831,
      "reas": 5832,
      "itary": 5833,
      "memor": 5834,
      "gradu": 5835,
      "Move": 5836,
      "Physics": 5837,
      "John": 5838,
      "Era": 5839,
      "argu": 5840,
      "izon": 5841,
      "neutr": 5842,
      "auti": 5843,
      "seek": 5844,
      "promp": 5845,
      "measurable": 5846,
      "pictures": 5847,
      "latency": 5848,
      "battery": 5849,
      "inventory": 5850,
      "Directions": 5851,
      "Ms": 5852,
      "Sep": 5853,
      "],": 5854,
      "eat": 5855,
      "immers": 5856,
      "asset": 5857,
      "|----------------|": 5858,
      "adients": 5859,
      "Second": 5860,
      "incorporate": 5861,
      "outside": 5862,
      "Current": 5863,
      "perspectives": 5864,
      "IV": 5865,
      "South": 5866,
      "explicit": 5867,
      "seems": 5868,
      "aches": 5869,
      "Stor": 5870,
      "clude": 5871,
      "avors": 5872,
      "markdown": 5873,
      "police": 5874,
      "ultane": 5875,
      "Road": 5876,
      "Basic": 5877,
      "Closing": 5878,
      "\")": 5879,
      "Just": 5880,
      "fo": 5881,
      "toler": 5882,
      "outcome": 5883,
      "firms": 5884,
      "relative": 5885,
      "diction": 5886,
      "presentation": 5887,
      "programming": 5888,
      "Group": 5889,
      "Hz": 5890,
      "Sing": 5891,
      "asy": 5892,
      "forcing": 5893,
      "composition": 5894,
      "gress": 5895,
      "itim": 5896,
      "black": 5897,
      "ponent": 5898,
      "technique": 5899,
      "lesson": 5900,
      "campaigns": 5901,
      "situation": 5902,
      "molecules": 5903,
      "answer": 5904,
      "Establish": 5905,
      "HD": 5906,
      "fly": 5907,
      "prefer": 5908,
      "showing": 5909,
      "hydr": 5910,
      "schools": 5911,
      "partners": 5912,
      "Implementation": 5913,
      "tight": 5914,
      "acid": 5915,
      "afford": 5916,
      "button": 5917,
      "backward": 5918,
      "analyzing": 5919,
      "accountability": 5920,
      "Insight": 5921,
      "strengths": 5922,
      "Financial": 5923,
      "fixed": 5924,
      "ROI": 5925,
      "reputation": 5926,
      "Bot": 5927,
      "quiet": 5928,
      "ipal": 5929,
      "encoun": 5930,
      "China": 5931,
      "nesses": 5932,
      "Techniques": 5933,
      "minimize": 5934,
      "Secure": 5935,
      "symptoms": 5936,
      "Video": 5937,
      "fan": 5938,
      "pages": 5939,
      "tap": 5940,
      "edding": 5941,
      "ago": 5942,
      "epoch": 5943,
      "resulting": 5944,
      "ibl": 5945,
      "moves": 5946,
      "astro": 5947,
      "Protocol": 5948,
      "20th": 5949,
      "dead": 5950,
      "herence": 5951,
      "architect": 5952,
      "mechanism": 5953,
      "installation": 5954,
      "artist": 5955,
      "atomy": 5956,
      "Pit": 5957,
      "ingu": 5958,
      "accounts": 5959,
      "oming": 5960,
      "straight": 5961,
      "feeding": 5962,
      "finding": 5963,
      "()`": 5964,
      "enabled": 5965,
      "tailored": 5966,
      "yield": 5967,
      "injuries": 5968,
      "Bay": 5969,
      "haps": 5970,
      "forced": 5971,
      "apart": 5972,
      "truc": 5973,
      "trial": 5974,
      "comment": 5975,
      "cultiv": 5976,
      "charge": 5977,
      "thereby": 5978,
      "happy": 5979,
      "direction": 5980,
      "atively": 5981,
      "Name": 5982,
      "nership": 5983,
      "six": 5984,
      "taken": 5985,
      "2010": 5986,
      "particular": 5987,
      "Analytics": 5988,
      "molecular": 5989,
      "Leverage": 5990,
      "Bar": 5991,
      "Foot": 5992,
      "Spat": 5993,
      "compromis": 5994,
      "neuro": 5995,
      "notice": 5996,
      "Place": 5997,
      "hero": 5998,
      "smaller": 5999,
      "volunte": 6000,
      "ietal": 6001,
      "joint": 6002,
      "arriers": 6003,
      "dark": 6004,
      "hing": 6005,
      "alone": 6006,
      "sea": 6007,
      "ticip": 6008,
      "endar": 6009,
      "gender": 6010,
      "Account": 6011,
      "decre": 6012,
      "inclusive": 6013,
      "App": 6014,
      "Regular": 6015,
      "achieved": 6016,
      "harm": 6017,
      "save": 6018,
      "eras": 6019,
      "explo": 6020,
      "missing": 6021,
      "cellence": 6022,
      "doesn": 6023,
      "transforms": 6024,
      "Features": 6025,
      "returns": 6026,
      "exemplifies": 6027,
      "intelligence": 6028,
      "27": 6029,
      "PE": 6030,
      "SO": 6031,
      "haz": 6032,
      "tox": 6033,
      "portal": 6034,
      "spection": 6035,
      "Result": 6036,
      "Works": 6037,
      "Driven": 6038,
      "Developments": 6039,
      "principle": 6040,
      "FT": 6041,
      "Fac": 6042,
      "schem": 6043,
      "icts": 6044,
      "conservation": 6045,
      "Prior": 6046,
      "ponents": 6047,
      "1990": 6048,
      "osen": 6049,
      "subst": 6050,
      "distributed": 6051,
      "discussion": 6052,
      "authentication": 6053,
      "Pharmacokinetics": 6054,
      "Gl": 6055,
      "dance": 6056,
      "sau": 6057,
      "asts": 6058,
      "Exercise": 6059,
      "scope": 6060,
      "balances": 6061,
      "finance": 6062,
      "sensor": 6063,
      "procedures": 6064,
      "Behavior": 6065,
      "Ow": 6066,
      "cards": 6067,
      "atile": 6068,
      "urability": 6069,
      "istant": 6070,
      "dissect": 6071,
      "deed": 6072,
      "Activ": 6073,
      "Steps": 6074,
      "cleaning": 6075,
      "West": 6076,
      "fold": 6077,
      "gical": 6078,
      "names": 6079,
      "Influ": 6080,
      "ibly": 6081,
      "recipe": 6082,
      "module": 6083,
      "apps": 6084,
      "bias": 6085,
      "providers": 6086,
      "weekly": 6087,
      "effectiveness": 6088,
      "Professional": 6089,
      "42": 6090,
      "Mob": 6091,
      "ahead": 6092,
      "itic": 6093,
      "prayer": 6094,
      "meets": 6095,
      "flat": 6096,
      "targeting": 6097,
      "Prep": 6098,
      "challenging": 6099,
      "Cat": 6100,
      "pitch": 6101,
      "propor": 6102,
      "loops": 6103,
      "poral": 6104,
      "relig": 6105,
      "attend": 6106,
      "Biom": 6107,
      "Middle": 6108,
      "Software": 6109,
      "renewable": 6110,
      "33": 6111,
      "Lay": 6112,
      "reaction": 6113,
      "tier": 6114,
      "emis": 6115,
      "deployment": 6116,
      "Traditional": 6117,
      "relax": 6118,
      "funds": 6119,
      "differences": 6120,
      "evolved": 6121,
      "circu": 6122,
      "Hybrid": 6123,
      "enzyme": 6124,
      "prepared": 6125,
      "Protein": 6126,
      "UR": 6127,
      "itional": 6128,
      "reason": 6129,
      "item": 6130,
      "actual": 6131,
      "Excellent": 6132,
      "ifications": 6133,
      "approxim": 6134,
      "scholars": 6135,
      "threshold": 6136,
      "Spatial": 6137,
      "Dive": 6138,
      "Er": 6139,
      "dt": 6140,
      "got": 6141,
      "hall": 6142,
      "vation": 6143,
      "tire": 6144,
      "till": 6145,
      "stays": 6146,
      "prices": 6147,
      "decide": 6148,
      "Beyond": 6149,
      "Center": 6150,
      "Questions": 6151,
      "CH": 6152,
      "motor": 6153,
      "plug": 6154,
      "Ang": 6155,
      "Authentic": 6156,
      "execution": 6157,
      "humans": 6158,
      "maximum": 6159,
      "Material": 6160,
      "since": 6161,
      "velocity": 6162,
      "\":": 6163,
      "gaming": 6164,
      "sq": 6165,
      "icate": 6166,
      "trace": 6167,
      "ophy": 6168,
      "coin": 6169,
      "guess": 6170,
      "simultane": 6171,
      "Phase": 6172,
      "generated": 6173,
      "Framework": 6174,
      "VID": 6175,
      "])": 6176,
      "slight": 6177,
      "retail": 6178,
      "oles": 6179,
      "terr": 6180,
      "derived": 6181,
      "Production": 6182,
      "timing": 6183,
      "array": 6184,
      "optimize": 6185,
      "norms": 6186,
      "|---------|": 6187,
      "cooking": 6188,
      "Pan": 6189,
      "Revolution": 6190,
      "UK": 6191,
      "theme": 6192,
      "approv": 6193,
      "verification": 6194,
      "perception": 6195,
      "statements": 6196,
      "feelings": 6197,
      "combined": 6198,
      "guided": 6199,
      "attack": 6200,
      "appeal": 6201,
      "MB": 6202,
      "Rise": 6203,
      "nia": 6204,
      "imagine": 6205,
      "equity": 6206,
      "ashion": 6207,
      "Practices": 6208,
      "potentially": 6209,
      "familiar": 6210,
      "optimization": 6211,
      "industrial": 6212,
      "authority": 6213,
      "established": 6214,
      "auty": 6215,
      "independent": 6216,
      "Concepts": 6217,
      "Base": 6218,
      "QR": 6219,
      "lap": 6220,
      "orship": 6221,
      "routes": 6222,
      "agers": 6223,
      "utter": 6224,
      "culinary": 6225,
      "designing": 6226,
      "secret": 6227,
      "fection": 6228,
      "actionable": 6229,
      "dict": 6230,
      "greater": 6231,
      "Draft": 6232,
      "evaluation": 6233,
      "measured": 6234,
      "triggers": 6235,
      "Mission": 6236,
      "enzymes": 6237,
      "Materials": 6238,
      "iblical": 6239,
      ")\\)": 6240,
      "Mess": 6241,
      "sand": 6242,
      "sentiment": 6243,
      "unc": 6244,
      "opt": 6245,
      "incenti": 6246,
      "cutting": 6247,
      "neighbor": 6248,
      "specifically": 6249,
      "Hor": 6250,
      "ME": 6251,
      "gard": 6252,
      "rank": 6253,
      "tip": 6254,
      "uris": 6255,
      "plus": 6256,
      "ulated": 6257,
      "solving": 6258,
      "breed": 6259,
      "Contemporary": 6260,
      "Scienti": 6261,
      "thoughts": 6262,
      "periods": 6263,
      "appreciation": 6264,
      "Body": 6265,
      "Cli": 6266,
      "dden": 6267,
      "tree": 6268,
      "alike": 6269,
      "preferences": 6270,
      "Trade": 6271,
      "relations": 6272,
      "subsequent": 6273,
      "calm": 6274,
      "capabilities": 6275,
      "belong": 6276,
      "Smart": 6277,
      "dataset": 6278,
      "recovery": 6279,
      "glucose": 6280,
      "Hi": 6281,
      "lens": 6282,
      "intr": 6283,
      "------------": 6284,
      "ibration": 6285,
      "insulin": 6286,
      "transaction": 6287,
      "arrang": 6288,
      "Direct": 6289,
      "cataly": 6290,
      "appears": 6291,
      "criteria": 6292,
      "Bullet": 6293,
      "federal": 6294,
      "ha": 6295,
      "ls": 6296,
      "pump": 6297,
      "tify": 6298,
      "ouch": 6299,
      "entre": 6300,
      "uda": 6301,
      "contexts": 6302,
      "Product": 6303,
      "playground": 6304,
      "supporting": 6305,
      "Manufact": 6306,
      "nuanced": 6307,
      "reliability": 6308,
      "intentional": 6309,
      "ingredients": 6310,
      "Problem": 6311,
      "binary": 6312,
      "egg": 6313,
      "sac": 6314,
      "arise": 6315,
      "agram": 6316,
      "suffic": 6317,
      "sudden": 6318,
      "Store": 6319,
      "funding": 6320,
      "covered": 6321,
      "calls": 6322,
      "conversations": 6323,
      "recognizing": 6324,
      "discuss": 6325,
      "felt": 6326,
      "AU": 6327,
      "Deter": 6328,
      "Fire": 6329,
      "Great": 6330,
      "Pick": 6331,
      "kern": 6332,
      "tables": 6333,
      "waves": 6334,
      "”)": 6335,
      "allocation": 6336,
      "arily": 6337,
      "plastic": 6338,
      "owners": 6339,
      "technological": 6340,
      "consent": 6341,
      "visibility": 6342,
      "placed": 6343,
      "Transfer": 6344,
      "adjustments": 6345,
      "Present": 6346,
      "Dom": 6347,
      "vess": 6348,
      "witness": 6349,
      "illi": 6350,
      "societies": 6351,
      "informs": 6352,
      "Author": 6353,
      "characterized": 6354,
      "blockchain": 6355,
      "dependent": 6356,
      "loyalty": 6357,
      "AB": 6358,
      "Total": 6359,
      "cash": 6360,
      "rang": 6361,
      "”).": 6362,
      "tified": 6363,
      "apers": 6364,
      "loan": 6365,
      "recycl": 6366,
      "fication": 6367,
      "plants": 6368,
      "profound": 6369,
      "hyper": 6370,
      "believ": 6371,
      "adaptive": 6372,
      "Month": 6373,
      "styles": 6374,
      "Encourage": 6375,
      "pload": 6376,
      "Lar": 6377,
      "gap": 6378,
      "edges": 6379,
      "gradients": 6380,
      "actually": 6381,
      "Conduct": 6382,
      "park": 6383,
      "invites": 6384,
      "vised": 6385,
      "download": 6386,
      "posts": 6387,
      "adaptation": 6388,
      "encourages": 6389,
      "clinic": 6390,
      "Speed": 6391,
      "95": 6392,
      "wild": 6393,
      "omm": 6394,
      "excep": 6395,
      "aching": 6396,
      "ipher": 6397,
      "occup": 6398,
      "compelling": 6399,
      "helped": 6400,
      "labels": 6401,
      "Climate": 6402,
      "classes": 6403,
      "stored": 6404,
      "passion": 6405,
      "prioritiz": 6406,
      "relevance": 6407,
      "atmosphere": 6408,
      "entrepreneur": 6409,
      "NO": 6410,
      "proto": 6411,
      "agent": 6412,
      "Improve": 6413,
      "Newton": 6414,
      "earlier": 6415,
      "iat": 6416,
      "ml": 6417,
      "zed": 6418,
      "itations": 6419,
      "igue": 6420,
      "Confirm": 6421,
      "recur": 6422,
      "Change": 6423,
      "colon": 6424,
      "played": 6425,
      "tains": 6426,
      "progression": 6427,
      "integral": 6428,
      "grades": 6429,
      "cuts": 6430,
      "consumers": 6431,
      "Intel": 6432,
      "DB": 6433,
      "Mass": 6434,
      "`)": 6435,
      "bin": 6436,
      "afting": 6437,
      "moist": 6438,
      "interactive": 6439,
      "extension": 6440,
      "journal": 6441,
      "Networks": 6442,
      "____": 6443,
      "intersection": 6444,
      "aesthetic": 6445,
      "luxury": 6446,
      "Flex": 6447,
      "Scrip": 6448,
      "vary": 6449,
      "unpack": 6450,
      "imp": 6451,
      "iment": 6452,
      "parent": 6453,
      "solve": 6454,
      "Mechanisms": 6455,
      "Compare": 6456,
      "Deliver": 6457,
      "birth": 6458,
      "alpha": 6459,
      "Rap": 6460,
      "](": 6461,
      "hun": 6462,
      "zones": 6463,
      "aser": 6464,
      "emic": 6465,
      "agents": 6466,
      "motif": 6467,
      "compute": 6468,
      "timeline": 6469,
      "systematic": 6470,
      "miss": 6471,
      "define": 6472,
      "azing": 6473,
      "emerged": 6474,
      "causes": 6475,
      "teaching": 6476,
      "friction": 6477,
      "Lessons": 6478,
      "Cop": 6479,
      "hom": 6480,
      "ole": 6481,
      "tage": 6482,
      "references": 6483,
      "abet": 6484,
      "Indeed": 6485,
      "estyle": 6486,
      "scaling": 6487,
      "colors": 6488,
      "Prim": 6489,
      "appropr": 6490,
      "aligned": 6491,
      "considering": 6492,
      "preserve": 6493,
      "Point": 6494,
      "artists": 6495,
      "Journey": 6496,
      "embedded": 6497,
      "dashboards": 6498,
      "artistic": 6499,
      "Urban": 6500,
      "Cam": 6501,
      "iac": 6502,
      "thous": 6503,
      "tooth": 6504,
      "agon": 6505,
      "otherapy": 6506,
      "considerations": 6507,
      "Reflec": 6508,
      "responsibilities": 6509,
      "starts": 6510,
      "President": 6511,
      "Collaboration": 6512,
      "trajectory": 6513,
      "Ele": 6514,
      "PM": 6515,
      "Pal": 6516,
      "Tutorial": 6517,
      "obl": 6518,
      "pend": 6519,
      "tags": 6520,
      "edom": 6521,
      "shown": 6522,
      "oga": 6523,
      "grid": 6524,
      "experts": 6525,
      "logical": 6526,
      "contributions": 6527,
      "Precision": 6528,
      "previous": 6529,
      "Level": 6530,
      "Fix": 6531,
      "ND": 6532,
      "Watch": 6533,
      "clarity": 6534,
      "variables": 6535,
      "controller": 6536,
      "foster": 6537,
      "literature": 6538,
      "split": 6539,
      "Medicine": 6540,
      "Milest": 6541,
      "Storage": 6542,
      "Gal": 6543,
      "NS": 6544,
      "trav": 6545,
      "umn": 6546,
      "scious": 6547,
      "template": 6548,
      "Prepar": 6549,
      "combining": 6550,
      "employee": 6551,
      "releases": 6552,
      "participation": 6553,
      "Credit": 6554,
      "icity": 6555,
      "une": 6556,
      "Stage": 6557,
      "geomet": 6558,
      "equations": 6559,
      "legitim": 6560,
      "ISO": 6561,
      "examining": 6562,
      "courses": 6563,
      "Perspec": 6564,
      "circum": 6565,
      "situations": 6566,
      "Launch": 6567,
      "Thought": 6568,
      "uncertainty": 6569,
      "55": 6570,
      "Source": 6571,
      "bid": 6572,
      "sour": 6573,
      "uff": 6574,
      "cooperation": 6575,
      "Anc": 6576,
      "served": 6577,
      "posal": 6578,
      "facilities": 6579,
      "economy": 6580,
      "transparent": 6581,
      "tune": 6582,
      "Question": 6583,
      "mathematical": 6584,
      "ewardship": 6585,
      "encounter": 6586,
      "ED": 6587,
      "vit": 6588,
      "wine": 6589,
      "zon": 6590,
      "assum": 6591,
      "ulates": 6592,
      "uma": 6593,
      "scen": 6594,
      "2012": 6595,
      "Anecdote": 6596,
      "classification": 6597,
      "employment": 6598,
      "Schedule": 6599,
      "rhythm": 6600,
      "*\"": 6601,
      "_t": 6602,
      "_grad": 6603,
      "stock": 6604,
      "Stake": 6605,
      "former": 6606,
      "Conver": 6607,
      "disorders": 6608,
      "brings": 6609,
      "systemic": 6610,
      "Color": 6611,
      "Culture": 6612,
      "Respons": 6613,
      "broken": 6614,
      "tively": 6615,
      "Unit": 6616,
      "Photo": 6617,
      "novel": 6618,
      "streams": 6619,
      "Maintenance": 6620,
      "Comparative": 6621,
      "lete": 6622,
      "addition": 6623,
      "quantum": 6624,
      "lectual": 6625,
      "rought": 6626,
      "anyone": 6627,
      "muscle": 6628,
      "sensitivity": 6629,
      "package": 6630,
      "reveals": 6631,
      "Computers": 6632,
      "VM": 6633,
      "cities": 6634,
      "atically": 6635,
      "replic": 6636,
      "stal": 6637,
      "spend": 6638,
      "neys": 6639,
      "profiles": 6640,
      "changed": 6641,
      "Region": 6642,
      "expansion": 6643,
      "drawing": 6644,
      "tradition": 6645,
      "justice": 6646,
      "Dat": 6647,
      "Hot": 6648,
      "IC": 6649,
      "Tiny": 6650,
      "Vo": 6651,
      "hair": 6652,
      "inher": 6653,
      "older": 6654,
      "convey": 6655,
      "Compe": 6656,
      "statistics": 6657,
      "holistic": 6658,
      "|--------------|": 6659,
      "Deploy": 6660,
      "Monitoring": 6661,
      "messaging": 6662,
      "Correct": 6663,
      "pipelines": 6664,
      "determine": 6665,
      "Therap": 6666,
      "acceleration": 6667,
      "Mom": 6668,
      "barriers": 6669,
      "gage": 6670,
      "retention": 6671,
      "titive": 6672,
      "asp": 6673,
      "opin": 6674,
      "thermal": 6675,
      "cretion": 6676,
      "provider": 6677,
      "Compu": 6678,
      "followed": 6679,
      "Issu": 6680,
      "Orig": 6681,
      "populations": 6682,
      "specialized": 6683,
      "convert": 6684,
      "Helps": 6685,
      "Timing": 6686,
      "chronic": 6687,
      "Leadership": 6688,
      "binding": 6689,
      "Efficiency": 6690,
      "Facebook": 6691,
      "curriculum": 6692,
      "(~": 6693,
      "Fast": 6694,
      "Rout": 6695,
      "Spl": 6696,
      "dre": 6697,
      "gree": 6698,
      "taste": 6699,
      "vy": 6700,
      "itory": 6701,
      "asure": 6702,
      "immedi": 6703,
      "ivity": 6704,
      "tee": 6705,
      "decline": 6706,
      "survey": 6707,
      "variable": 6708,
      "causing": 6709,
      "identifying": 6710,
      "divine": 6711,
      "Evaluation": 6712,
      "MR": 6713,
      "Size": 6714,
      "Turn": 6715,
      "iner": 6716,
      "ention": 6717,
      "ivic": 6718,
      "clusive": 6719,
      "ipple": 6720,
      "deriv": 6721,
      "builds": 6722,
      "centers": 6723,
      "happen": 6724,
      "panels": 6725,
      "implementation": 6726,
      "dimensions": 6727,
      "habit": 6728,
      "hierarchy": 6729,
      "Emotional": 6730,
      "Put": 6731,
      "codes": 6732,
      "verify": 6733,
      "illance": 6734,
      "iovascular": 6735,
      "Acc": 6736,
      "adequ": 6737,
      "performing": 6738,
      "defensive": 6739,
      "Score": 6740,
      "thorough": 6741,
      "calculus": 6742,
      "Black": 6743,
      "documentation": 6744,
      "Indian": 6745,
      "coupl": 6746,
      "Field": 6747,
      "Friend": 6748,
      "05": 6749,
      "Pop": 6750,
      "macro": 6751,
      "almost": 6752,
      "arc": 6753,
      "chart": 6754,
      "ither": 6755,
      "restor": 6756,
      "Commit": 6757,
      "1970": 6758,
      "visible": 6759,
      "roads": 6760,
      "ieval": 6761,
      "habits": 6762,
      "accordingly": 6763,
      "Ancient": 6764,
      "Computer": 6765,
      "Cognitive": 6766,
      "ginal": 6767,
      "ito": 6768,
      "ny": 6769,
      "rs": 6770,
      "iday": 6771,
      "appoint": 6772,
      "imals": 6773,
      "beauty": 6774,
      "resid": 6775,
      "actor": 6776,
      "contains": 6777,
      "intended": 6778,
      "owner": 6779,
      "Improved": 6780,
      "curve": 6781,
      "cellular": 6782,
      "anguages": 6783,
      "staying": 6784,
      "Legacy": 6785,
      "Types": 6786,
      "Limited": 6787,
      "=====================================================": 6788,
      "described": 6789,
      "Pip": 6790,
      "Seas": 6791,
      "UN": 6792,
      "Ve": 6793,
      "snow": 6794,
      "onics": 6795,
      "exercises": 6796,
      "engthen": 6797,
      "Anti": 6798,
      "Love": 6799,
      "clos": 6800,
      "predictive": 6801,
      "contextual": 6802,
      "chemistry": 6803,
      "ikes": 6804,
      "Optimization": 6805,
      "Knowledge": 6806,
      "intricate": 6807,
      "tumor": 6808,
      "concise": 6809,
      "sophisticated": 6810,
      "Rest": 6811,
      "cache": 6812,
      "done": 6813,
      "pand": 6814,
      "ube": 6815,
      "inputs": 6816,
      "attract": 6817,
      "arts": 6818,
      "forget": 6819,
      "sume": 6820,
      "Convers": 6821,
      "workshops": 6822,
      "genu": 6823,
      "correc": 6824,
      "easily": 6825,
      "payments": 6826,
      "magic": 6827,
      "emphasizes": 6828,
      "translates": 6829,
      "Protection": 6830,
      "IA": 6831,
      "cuda": 6832,
      "vacc": 6833,
      "alse": 6834,
      "ilot": 6835,
      "unlock": 6836,
      "agen": 6837,
      "compare": 6838,
      "Chem": 6839,
      "preh": 6840,
      "deploy": 6841,
      "serving": 6842,
      "guards": 6843,
      "classical": 6844,
      "cars": 6845,
      "influences": 6846,
      "Reading": 6847,
      "Audience": 6848,
      "wonder": 6849,
      "EC": 6850,
      "Oc": 6851,
      "Teach": 6852,
      "Western": 6853,
      "vast": 6854,
      "ulating": 6855,
      "Insur": 6856,
      "phones": 6857,
      "interdisciplinary": 6858,
      "legis": 6859,
      "layout": 6860,
      "Loop": 6861,
      "Interpret": 6862,
      "switch": 6863,
      "stronger": 6864,
      "Central": 6865,
      "Delta": 6866,
      "Complex": 6867,
      "Heart": 6868,
      "600": 6869,
      "VC": 6870,
      "blog": 6871,
      "fits": 6872,
      "oke": 6873,
      "wants": 6874,
      "tising": 6875,
      "conscious": 6876,
      "truth": 6877,
      "coast": 6878,
      "societal": 6879,
      "delay": 6880,
      "Recomm": 6881,
      "prompt": 6882,
      "minimizing": 6883,
      "behavioral": 6884,
      "metabolic": 6885,
      "dimensional": 6886,
      "exceptional": 6887,
      "=\"": 6888,
      "T_": 6889,
      "dol": 6890,
      "lined": 6891,
      "route": 6892,
      "managing": 6893,
      "Trust": 6894,
      "ished": 6895,
      "backs": 6896,
      "equal": 6897,
      "Consist": 6898,
      "estimate": 6899,
      "LED": 6900,
      "Transport": 6901,
      "Roman": 6902,
      "Virtual": 6903,
      "Intell": 6904,
      "ured": 6905,
      "Concept": 6906,
      "framing": 6907,
      "stores": 6908,
      "shares": 6909,
      "hook": 6910,
      "transportation": 6911,
      "camera": 6912,
      "agreements": 6913,
      "3D": 6914,
      "800": 6915,
      "Mind": 6916,
      "cue": 6917,
      "vibr": 6918,
      "”.": 6919,
      "leak": 6920,
      "elastic": 6921,
      "ecological": 6922,
      "chains": 6923,
      "conduct": 6924,
      "lots": 6925,
      "ighter": 6926,
      "outputs": 6927,
      "cohes": 6928,
      "intervention": 6929,
      "transactions": 6930,
      "requiring": 6931,
      "helping": 6932,
      "Player": 6933,
      "influenced": 6934,
      "accum": 6935,
      "aims": 6936,
      "studying": 6937,
      "travelers": 6938,
      "iosity": 6939,
      "Reduced": 6940,
      "fatigue": 6941,
      "absorption": 6942,
      "numerous": 6943,
      "99": 6944,
      "Daily": 6945,
      "Eg": 6946,
      "pill": 6947,
      "arg": 6948,
      "accept": 6949,
      "Church": 6950,
      "minor": 6951,
      "puzz": 6952,
      "Particip": 6953,
      "General": 6954,
      "Contextual": 6955,
      "electrical": 6956,
      "violence": 6957,
      "experienced": 6958,
      "Navig": 6959,
      "nan": 6960,
      "nab": 6961,
      "tag": 6962,
      "acies": 6963,
      "aspir": 6964,
      "chosen": 6965,
      "percent": 6966,
      "spin": 6967,
      "grant": 6968,
      "poor": 6969,
      "workflow": 6970,
      "stands": 6971,
      "auge": 6972,
      "centuries": 6973,
      "Emphas": 6974,
      "password": 6975,
      "Coord": 6976,
      "margin": 6977,
      "laun": 6978,
      "discipline": 6979,
      "Maybe": 6980,
      "Select": 6981,
      "Term": 6982,
      "Linked": 6983,
      "ourselves": 6984,
      "([": 6985,
      "='": 6986,
      "Bit": 6987,
      "Cir": 6988,
      "DR": 6989,
      "Mer": 6990,
      "ritual": 6991,
      "intim": 6992,
      "Connect": 6993,
      "engines": 6994,
      "relate": 6995,
      "Email": 6996,
      "educators": 6997,
      "predictions": 6998,
      "expenses": 6999,
      "milk": 7000,
      "ticket": 7001,
      "Adapt": 7002,
      "Privacy": 7003,
      "Brow": 7004,
      "Mitig": 7005,
      "Page": 7006,
      "fem": 7007,
      "recep": 7008,
      "sho": 7009,
      "Ann": 7010,
      "ught": 7011,
      "surfaces": 7012,
      "Embed": 7013,
      "schedules": 7014,
      "secondary": 7015,
      "Therapy": 7016,
      "Functional": 7017,
      "Evaluate": 7018,
      "Africa": 7019,
      "Sustainability": 7020,
      "Manufacturing": 7021,
      "Eco": 7022,
      "Gather": 7023,
      "Ps": 7024,
      "pep": 7025,
      "amination": 7026,
      "wheel": 7027,
      "outreach": 7028,
      "affec": 7029,
      "parties": 7030,
      "feat": 7031,
      "mini": 7032,
      "ordinary": 7033,
      "disclo": 7034,
      "Parallel": 7035,
      "lasting": 7036,
      "Analyze": 7037,
      "empowerment": 7038,
      "housing": 7039,
      "250": 7040,
      "Other": 7041,
      "said": 7042,
      "van": 7043,
      "ena": 7044,
      "ulative": 7045,
      "beat": 7046,
      "disput": 7047,
      "powered": 7048,
      "surge": 7049,
      "Transition": 7050,
      "magn": 7051,
      "administration": 7052,
      "Making": 7053,
      "Scre": 7054,
      "bacter": 7055,
      "rt": 7056,
      "enn": 7057,
      "igma": 7058,
      "emble": 7059,
      "seal": 7060,
      "tele": 7061,
      "sert": 7062,
      "aware": 7063,
      "According": 7064,
      "visitors": 7065,
      "turned": 7066,
      "Understand": 7067,
      "trees": 7068,
      "encouraging": 7069,
      "correctly": 7070,
      "container": 7071,
      "Distribution": 7072,
      "Transparency": 7073,
      "mentioned": 7074,
      "Wow": 7075,
      "bag": 7076,
      "uation": 7077,
      "vend": 7078,
      "eries": 7079,
      "roots": 7080,
      "covers": 7081,
      "designers": 7082,
      "sky": 7083,
      "Learn": 7084,
      "Objec": 7085,
      "Green": 7086,
      "figures": 7087,
      "Approach": 7088,
      "Lens": 7089,
      "Sar": 7090,
      "Spot": 7091,
      "Tensor": 7092,
      "fashion": 7093,
      "iology": 7094,
      "ride": 7095,
      "ruit": 7096,
      "esc": 7097,
      "ester": 7098,
      "leverage": 7099,
      "inetic": 7100,
      "izz": 7101,
      "isters": 7102,
      "illing": 7103,
      "manif": 7104,
      "Gener": 7105,
      "harness": 7106,
      "panel": 7107,
      "Choosing": 7108,
      "vehicles": 7109,
      "coding": 7110,
      "GDPR": 7111,
      "surveys": 7112,
      "welcome": 7113,
      "abetes": 7114,
      "Live": 7115,
      "Tog": 7116,
      "TLS": 7117,
      "gRNA": 7118,
      "lining": 7119,
      "orches": 7120,
      "replace": 7121,
      "stewardship": 7122,
      "accep": 7123,
      "excess": 7124,
      "beauti": 7125,
      "consult": 7126,
      "Quantum": 7127,
      "oxy": 7128,
      "aiss": 7129,
      "38": 7130,
      "Did": 7131,
      "Sch": 7132,
      "Sound": 7133,
      "sex": 7134,
      "ork": 7135,
      "stro": 7136,
      "eles": 7137,
      "Instead": 7138,
      "Price": 7139,
      "expert": 7140,
      "deliber": 7141,
      "Opportun": 7142,
      "Islam": 7143,
      "receives": 7144,
      "Report": 7145,
      "observation": 7146,
      "teachers": 7147,
      "Rapid": 7148,
      "aissance": 7149,
      "LP": 7150,
      "OR": 7151,
      "Spr": 7152,
      "bold": 7153,
      "ino": 7154,
      "anks": 7155,
      "tied": 7156,
      "thetics": 7157,
      "stages": 7158,
      "quantitative": 7159,
      "clar": 7160,
      "pread": 7161,
      "balancing": 7162,
      "ynamo": 7163,
      "reflecting": 7164,
      "regulate": 7165,
      "taur": 7166,
      "Modeling": 7167,
      "ecosystems": 7168,
      "pharmacodynamics": 7169,
      "Partnership": 7170,
      "simultaneously": 7171,
      ".)": 7172,
      "PT": 7173,
      "Ped": 7174,
      "iden": 7175,
      "idates": 7176,
      "aby": 7177,
      "thern": 7178,
      "enders": 7179,
      "modal": 7180,
      "spectr": 7181,
      "posing": 7182,
      "socio": 7183,
      "maybe": 7184,
      "contracts": 7185,
      "Brain": 7186,
      "military": 7187,
      "treating": 7188,
      "moral": 7189,
      "Points": 7190,
      "religious": 7191,
      "Therapies": 7192,
      "(≈": 7193,
      "26": 7194,
      "bat": 7195,
      "ru": 7196,
      "theological": 7197,
      "theta": 7198,
      "itative": 7199,
      "conv": 7200,
      "imper": 7201,
      "Star": 7202,
      "coating": 7203,
      "interconnected": 7204,
      "Relev": 7205,
      "grounds": 7206,
      "cold": 7207,
      "producing": 7208,
      "advances": 7209,
      "train_": 7210,
      "enhancing": 7211,
      "dogs": 7212,
      "Additionally": 7213,
      "African": 7214,
      "Happy": 7215,
      "neighborhood": 7216,
      "Insurance": 7217,
      "Sn": 7218,
      "Tour": 7219,
      "Vers": 7220,
      "bath": 7221,
      "inquir": 7222,
      "agog": 7223,
      "liver": 7224,
      "sport": 7225,
      "Commer": 7226,
      "genome": 7227,
      "operate": 7228,
      "Quanti": 7229,
      "menu": 7230,
      "converted": 7231,
      "Processing": 7232,
      "walls": 7233,
      "repeat": 7234,
      "casual": 7235,
      "Governance": 7236,
      "1990s": 7237,
      "oblig": 7238,
      "Dim": 7239,
      "Pic": 7240,
      "gam": 7241,
      "gun": 7242,
      "pit": 7243,
      "vector": 7244,
      "stones": 7245,
      "ece": 7246,
      "eted": 7247,
      "ilient": 7248,
      "earth": 7249,
      "intent": 7250,
      "depression": 7251,
      "Resource": 7252,
      "ooting": 7253,
      "Identity": 7254,
      "COVID": 7255,
      "amentals": 7256,
      "origin": 7257,
      "didn": 7258,
      "filled": 7259,
      "mirror": 7260,
      "Increased": 7261,
      ")`": 7262,
      "Date": 7263,
      "fib": 7264,
      "fabric": 7265,
      "iel": 7266,
      "juris": 7267,
      "ray": 7268,
      "rings": 7269,
      "brush": 7270,
      "2016": 7271,
      "engaged": 7272,
      "folding": 7273,
      "layered": 7274,
      "breaks": 7275,
      "Compute": 7276,
      "facilitate": 7277,
      "physiological": 7278,
      "Bottom": 7279,
      "AA": 7280,
      "FI": 7281,
      "Lit": 7282,
      "Mental": 7283,
      "Sou": 7284,
      "Sequ": 7285,
      "USD": 7286,
      "WS": 7287,
      "fing": 7288,
      "ju": 7289,
      "lace": 7290,
      "yer": 7291,
      "inations": 7292,
      "retr": 7293,
      "remove": 7294,
      "plates": 7295,
      "unexpected": 7296,
      "agues": 7297,
      "Exchange": 7298,
      "flour": 7299,
      "identified": 7300,
      "positioning": 7301,
      "ethics": 7302,
      "marginal": 7303,
      "compatibility": 7304,
      "behaviors": 7305,
      "precedent": 7306,
      "Mc": 7307,
      "durability": 7308,
      "uum": 7309,
      "exact": 7310,
      "tration": 7311,
      "degree": 7312,
      "marking": 7313,
      "metaph": 7314,
      "incidents": 7315,
      "letter": 7316,
      "foreign": 7317,
      "wrong": 7318,
      "Algorith": 7319,
      "Engage": 7320,
      "breaking": 7321,
      "mindful": 7322,
      "dedication": 7323,
      "Integrating": 7324,
      "basics": 7325,
      "gained": 7326,
      "evolutionary": 7327,
      "jobs": 7328,
      "borrow": 7329,
      "mirrors": 7330,
      "Function": 7331,
      "crafted": 7332,
      "configuration": 7333,
      "neutral": 7334,
      "approval": 7335,
      "Primary": 7336,
      "Pain": 7337,
      "})": 7338,
      "applic": 7339,
      "Animals": 7340,
      "useum": 7341,
      "produced": 7342,
      "titude": 7343,
      "Hey": 7344,
      "street": 7345,
      "English": 7346,
      "calculate": 7347,
      "Internet": 7348,
      "Index": 7349,
      "mixed": 7350,
      "Hello": 7351,
      "bott": 7352,
      "article": 7353,
      "Electr": 7354,
      "willingness": 7355,
      "Civil": 7356,
      "leaves": 7357,
      "prox": 7358,
      "impressive": 7359,
      "cream": 7360,
      "crash": 7361,
      "ugs": 7362,
      "2014": 7363,
      "19th": 7364,
      "offs": 7365,
      "incred": 7366,
      "facing": 7367,
      "influencing": 7368,
      "salt": 7369,
      "sharp": 7370,
      "Relation": 7371,
      "buying": 7372,
      "electronic": 7373,
      "coordination": 7374,
      "tactics": 7375,
      "Initial": 7376,
      "spring": 7377,
      "graduate": 7378,
      "Further": 7379,
      "Compreh": 7380,
      "equation": 7381,
      "logistics": 7382,
      "buffer": 7383,
      "efficiently": 7384,
      "Mechanics": 7385,
      "Editing": 7386,
      "Character": 7387,
      "billion": 7388,
      "instrument": 7389,
      "01": 7390,
      "Ca": 7391,
      "Frequ": 7392,
      "testim": 7393,
      "esis": 7394,
      "opol": 7395,
      "quad": 7396,
      "flavors": 7397,
      "arrier": 7398,
      "icket": 7399,
      "Weight": 7400,
      "depending": 7401,
      "Exploration": 7402,
      "difficult": 7403,
      "Cover": 7404,
      "Mapping": 7405,
      "gains": 7406,
      "languages": 7407,
      "nation": 7408,
      "pod": 7409,
      "paced": 7410,
      "anes": 7411,
      "stances": 7412,
      "isdom": 7413,
      "adata": 7414,
      "abs": 7415,
      "kelet": 7416,
      "updated": 7417,
      "scoring": 7418,
      "scapes": 7419,
      "Another": 7420,
      "Trends": 7421,
      "sections": 7422,
      "controls": 7423,
      "Interaction": 7424,
      "closed": 7425,
      "belief": 7426,
      "Metabol": 7427,
      "introduces": 7428,
      "Statistical": 7429,
      "Storytelling": 7430,
      "occurs": 7431,
      "inspired": 7432,
      "cluding": 7433,
      "sufficient": 7434,
      "Hub": 7435,
      "OD": 7436,
      "Old": 7437,
      "Remo": 7438,
      "Sl": 7439,
      "TC": 7440,
      "Women": 7441,
      "cdot": 7442,
      "gments": 7443,
      "atics": 7444,
      "alog": 7445,
      "stall": 7446,
      "rosion": 7447,
      "acquisition": 7448,
      "suitable": 7449,
      "asting": 7450,
      "curious": 7451,
      "throughput": 7452,
      "|---------------": 7453,
      "Assoc": 7454,
      "satell": 7455,
      "indicating": 7456,
      "nuclear": 7457,
      "tokens": 7458,
      "Prepare": 7459,
      "immediately": 7460,
      "LinkedIn": 7461,
      "Dog": 7462,
      "Paul": 7463,
      "Reven": 7464,
      "bing": 7465,
      "fiber": 7466,
      "excellence": 7467,
      "owned": 7468,
      "195": 7469,
      "productivity": 7470,
      "practition": 7471,
      "showc": 7472,
      "Module": 7473,
      "storm": 7474,
      "accessibility": 7475,
      "industries": 7476,
      "Signal": 7477,
      "affected": 7478,
      "lamb": 7479,
      "Emerging": 7480,
      "thousands": 7481,
      "Egyp": 7482,
      "Cry": 7483,
      "Tit": 7484,
      "mys": 7485,
      "np": 7486,
      "paid": 7487,
      "alian": 7488,
      "izational": 7489,
      "eller": 7490,
      "peace": 7491,
      "Academic": 7492,
      "complement": 7493,
      "volatility": 7494,
      "gery": 7495,
      "breakthrough": 7496,
      "tracks": 7497,
      "Server": 7498,
      "Profile": 7499,
      "fosters": 7500,
      "seasoned": 7501,
      "Office": 7502,
      "administrative": 7503,
      "automation": 7504,
      "categories": 7505,
      "Intelligence": 7506,
      "Together": 7507,
      "Revenue": 7508,
      "34": 7509,
      "Bir": 7510,
      "Radi": 7511,
      "X_": 7512,
      "bund": 7513,
      "bash": 7514,
      "Thank": 7515,
      "reser": 7516,
      "Click": 7517,
      "ampion": 7518,
      "gradient": 7519,
      "released": 7520,
      "saving": 7521,
      "Patient": 7522,
      "meticul": 7523,
      "Platforms": 7524,
      "citizens": 7525,
      "Aug": 7526,
      "Food": 7527,
      "biblical": 7528,
      "”,": 7529,
      "uncover": 7530,
      "Inters": 7531,
      "formed": 7532,
      "affil": 7533,
      "intertw": 7534,
      "compil": 7535,
      "heating": 7536,
      "boat": 7537,
      "secre": 7538,
      "inclusion": 7539,
      "paths": 7540,
      "Prem": 7541,
      "credibility": 7542,
      "Cali": 7543,
      "calculations": 7544,
      "See": 7545,
      "articles": 7546,
      "spheric": 7547,
      "stretch": 7548,
      "appropriate": 7549,
      "(),": 7550,
      "Ama": 7551,
      "Iter": 7552,
      "Yet": 7553,
      "stac": 7554,
      "ares": 7555,
      "residents": 7556,
      "credenti": 7557,
      "Expect": 7558,
      "frames": 7559,
      "intensity": 7560,
      "cord": 7561,
      "Address": 7562,
      "calendar": 7563,
      "soil": 7564,
      "actively": 7565,
      "Integrated": 7566,
      "Output": 7567,
      "navigation": 7568,
      "anchor": 7569,
      "adopt": 7570,
      "embedding": 7571,
      "reinforce": 7572,
      "affects": 7573,
      "Califor": 7574,
      "credentials": 7575,
      "Rights": 7576,
      "Sem": 7577,
      "either": 7578,
      "gauge": 7579,
      "ky": 7580,
      "y_": 7581,
      "erge": 7582,
      "ione": 7583,
      "prints": 7584,
      "modular": 7585,
      "transc": 7586,
      "registr": 7587,
      "diffusion": 7588,
      "realistic": 7589,
      "aditions": 7590,
      "considered": 7591,
      "musical": 7592,
      "medicines": 7593,
      "About": 7594,
      "rapidly": 7595,
      "Selection": 7596,
      "manufacturers": 7597,
      "%,": 7598,
      "Both": 7599,
      "Tal": 7600,
      "gy": 7601,
      "kid": 7602,
      "pure": 7603,
      "ror": 7604,
      "}{\\": 7605,
      "icial": 7606,
      "leaving": 7607,
      "proactive": 7608,
      "tri": 7609,
      "curiosity": 7610,
      "posite": 7611,
      "metry": 7612,
      "showcase": 7613,
      "pursu": 7614,
      "Discover": 7615,
      "minimum": 7616,
      "demonstrated": 7617,
      "synthesis": 7618,
      "Neural": 7619,
      "Advant": 7620,
      "Corpor": 7621,
      "highlighted": 7622,
      "Safe": 7623,
      "survival": 7624,
      "compassion": 7625,
      "Client": 7626,
      "36": 7627,
      "SSD": 7628,
      "auc": 7629,
      "cean": 7630,
      "induc": 7631,
      "cry": 7632,
      "mood": 7633,
      "assembly": 7634,
      "Compan": 7635,
      "poll": 7636,
      "differential": 7637,
      "engineers": 7638,
      "Deb": 7639,
      "Order": 7640,
      "collaborative": 7641,
      "Innovation": 7642,
      "*)": 7643,
      "CI": 7644,
      "EE": 7645,
      "FR": 7646,
      "Mes": 7647,
      "View": 7648,
      "stakes": 7649,
      "acqu": 7650,
      "amazing": 7651,
      "restaur": 7652,
      "ensation": 7653,
      "desk": 7654,
      "Any": 7655,
      "held": 7656,
      "Mean": 7657,
      "Council": 7658,
      "protected": 7659,
      "division": 7660,
      "Operational": 7661,
      "thrive": 7662,
      "scheduling": 7663,
      "Comprehensive": 7664,
      "California": 7665,
      "Dual": 7666,
      "Natural": 7667,
      "SA": 7668,
      "ease": 7669,
      "gal": 7670,
      "gut": 7671,
      "pros": 7672,
      "aggreg": 7673,
      "verbal": 7674,
      "Conf": 7675,
      "crew": 7676,
      "interpre": 7677,
      "Child": 7678,
      "located": 7679,
      "college": 7680,
      "servative": 7681,
      "1980": 7682,
      "leader": 7683,
      "Behind": 7684,
      "Collect": 7685,
      "analytical": 7686,
      "traits": 7687,
      "demonstrating": 7688,
      "emails": 7689,
      "quarterly": 7690,
      "paradig": 7691,
      "approximately": 7692,
      "genuine": 7693,
      "Pair": 7694,
      "mim": 7695,
      "stun": 7696,
      "aven": 7697,
      "geographic": 7698,
      "dating": 7699,
      "dish": 7700,
      "bike": 7701,
      "torque": 7702,
      "organic": 7703,
      "loader": 7704,
      "passage": 7705,
      "streaming": 7706,
      "addresses": 7707,
      "illustrating": 7708,
      "spirit": 7709,
      "wait": 7710,
      "sauce": 7711,
      "Moment": 7712,
      "EM": 7713,
      "Fund": 7714,
      "Host": 7715,
      "Lin": 7716,
      "San": 7717,
      "ield": 7718,
      "ln": 7719,
      "assist": 7720,
      "managers": 7721,
      "desire": 7722,
      "Enter": 7723,
      "196": 7724,
      "Resilience": 7725,
      "autograd": 7726,
      "aimed": 7727,
      "responsive": 7728,
      "mindset": 7729,
      "campus": 7730,
      "trading": 7731,
      "reinforcing": 7732,
      "repeated": 7733,
      "rotation": 7734,
      "conventional": 7735,
      "walking": 7736,
      "radio": 7737,
      "GPS": 7738,
      "east": 7739,
      "gall": 7740,
      "sam": 7741,
      "vec": 7742,
      "inference": 7743,
      "remark": 7744,
      "itational": 7745,
      "asive": 7746,
      "idge": 7747,
      "oding": 7748,
      "shad": 7749,
      "fron": 7750,
      "2013": 7751,
      "Administr": 7752,
      "Shared": 7753,
      "classroom": 7754,
      "holding": 7755,
      "protective": 7756,
      "goods": 7757,
      "windows": 7758,
      "measurement": 7759,
      "heavily": 7760,
      "recorded": 7761,
      "Specific": 7762,
      "Department": 7763,
      "organs": 7764,
      "adequate": 7765,
      "brought": 7766,
      "divid": 7767,
      "hat": 7768,
      "mere": 7769,
      "mild": 7770,
      "sits": 7771,
      "Which": 7772,
      "recip": 7773,
      "drivers": 7774,
      "intel": 7775,
      "settle": 7776,
      "letters": 7777,
      "flux": 7778,
      "venture": 7779,
      "improves": 7780,
      "Peer": 7781,
      "Edge": 7782,
      "Testing": 7783,
      "communicate": 7784,
      "propag": 7785,
      "sqrt": 7786,
      "featuring": 7787,
      "Mal": 7788,
      "mastering": 7789,
      "ubles": 7790,
      "wedding": 7791,
      "thread": 7792,
      "eless": 7793,
      "cosm": 7794,
      "2025": 7795,
      "genetics": 7796,
      "Higher": 7797,
      "introduction": 7798,
      "emphasize": 7799,
      "attractive": 7800,
      "Symbol": 7801,
      "pivotal": 7802,
      "preparation": 7803,
      "Campaign": 7804,
      "slightly": 7805,
      "beautiful": 7806,
      "Ku": 7807,
      "Utili": 7808,
      "hi": 7809,
      "ham": 7810,
      "ingly": 7811,
      "station": 7812,
      "agricul": 7813,
      "fruit": 7814,
      "combine": 7815,
      "synchron": 7816,
      "calculation": 7817,
      "establishing": 7818,
      "mutations": 7819,
      "crafts": 7820,
      "powder": 7821,
      "Industrial": 7822,
      "receptor": 7823,
      "Cele": 7824,
      "fid": 7825,
      "homes": 7826,
      "chip": 7827,
      "adults": 7828,
      "uniform": 7829,
      "strict": 7830,
      "manager": 7831,
      "requests": 7832,
      "Accur": 7833,
      "certification": 7834,
      "becoming": 7835,
      "|------------------": 7836,
      "Contact": 7837,
      "passes": 7838,
      "fewer": 7839,
      "millions": 7840,
      "implementing": 7841,
      "thresholds": 7842,
      "pivot": 7843,
      "CU": 7844,
      "Most": 7845,
      "PV": 7846,
      "York": 7847,
      "ecking": 7848,
      "traditions": 7849,
      "optional": 7850,
      "meetings": 7851,
      "crime": 7852,
      "contamination": 7853,
      "locations": 7854,
      "blends": 7855,
      "demographic": 7856,
      "Heat": 7857,
      "Emp": 7858,
      "bigger": 7859,
      "Period": 7860,
      "wanted": 7861,
      "caused": 7862,
      "Geographic": 7863,
      "observed": 7864,
      "resonate": 7865,
      "breathing": 7866,
      "victim": 7867,
      "oulder": 7868,
      "guarantee": 7869,
      "phenomenon": 7870,
      "concentration": 7871,
      "attemp": 7872,
      "Celebr": 7873,
      "->": 7874,
      "Fig": 7875,
      "['": 7876,
      "fu": 7877,
      "pace": 7878,
      "pets": 7879,
      "vill": 7880,
      "igen": 7881,
      "aping": 7882,
      "mother": 7883,
      "phic": 7884,
      "interview": 7885,
      "underpin": 7886,
      "Union": 7887,
      "writes": 7888,
      "Insights": 7889,
      "matching": 7890,
      "hotel": 7891,
      "horizon": 7892,
      "weaknesses": 7893,
      "rooted": 7894,
      "instruments": 7895,
      "imagery": 7896,
      "democratic": 7897,
      "mistakes": 7898,
      "1970s": 7899,
      "File": 7900,
      "Have": 7901,
      "Random": 7902,
      "gem": 7903,
      "ato": 7904,
      "estiv": 7905,
      "iff": 7906,
      "weigh": 7907,
      "butter": 7908,
      "Immun": 7909,
      "metric": 7910,
      "ashing": 7911,
      "depos": 7912,
      "generations": 7913,
      "Regulation": 7914,
      "possess": 7915,
      "Retr": 7916,
      "metabolism": 7917,
      "recording": 7918,
      "electricity": 7919,
      "philosophy": 7920,
      "Sarah": 7921,
      "Ess": 7922,
      "GC": 7923,
      "MD": 7924,
      "Mach": 7925,
      "RN": 7926,
      "ying": 7927,
      "Those": 7928,
      "ticed": 7929,
      "resilient": 7930,
      "aker": 7931,
      "textbook": 7932,
      "simulation": 7933,
      "looked": 7934,
      "discussions": 7935,
      "scales": 7936,
      "Audit": 7937,
      "Pharmacodynamics": 7938,
      "libraries": 7939,
      "Enhanced": 7940,
      "continuity": 7941,
      "Russia": 7942,
      "prevents": 7943,
      "reasons": 7944,
      "moisture": 7945,
      "85": 7946,
      "Ben": 7947,
      "Fre": 7948,
      "Past": 7949,
      "SR": 7950,
      "_1": 7951,
      "selling": 7952,
      "}^": 7953,
      "eli": 7954,
      "ammat": 7955,
      "trials": 7956,
      "loves": 7957,
      "Include": 7958,
      "extends": 7959,
      "extended": 7960,
      "Train": 7961,
      "productive": 7962,
      "defic": 7963,
      "256": 7964,
      "speech": 7965,
      "bottle": 7966,
      "Provides": 7967,
      "freedom": 7968,
      "Large": 7969,
      "Bank": 7970,
      "Fail": 7971,
      "border": 7972,
      "sigma": 7973,
      "inn": 7974,
      "inch": 7975,
      "enrich": 7976,
      "ama": 7977,
      "ada": 7978,
      "mented": 7979,
      "formula": 7980,
      "Consumer": 7981,
      "award": 7982,
      "highest": 7983,
      "Immediate": 7984,
      "viewers": 7985,
      "Head": 7986,
      "depart": 7987,
      "ademy": 7988,
      "Explain": 7989,
      "observations": 7990,
      "Pattern": 7991,
      "Basics": 7992,
      "diagnosis": 7993,
      "Events": 7994,
      "partnerships": 7995,
      "Documentation": 7996,
      "SSL": 7997,
      "surveillance": 7998,
      "emissions": 7999,
      "Voice": 8000,
      "samples": 8001,
      "GE": 8002,
      "TP": 8003,
      "tutorial": 8004,
      "alties": 8005,
      "Thus": 8006,
      "uten": 8007,
      "Conversion": 8008,
      "1960": 8009,
      "muscles": 8010,
      "drops": 8011,
      "received": 8012,
      "photos": 8013,
      "Finally": 8014,
      "snap": 8015,
      "Treatment": 8016,
      "kernel": 8017,
      "Dise": 8018,
      "PIs": 8019,
      "bread": 8020,
      "named": 8021,
      "chor": 8022,
      "mentation": 8023,
      "obstac": 8024,
      "otherwise": 8025,
      "voltage": 8026,
      "CRM": 8027,
      "Integrate": 8028,
      "Remote": 8029,
      "join": 8030,
      "snip": 8031,
      "Timeline": 8032,
      "select": 8033,
      "conflicts": 8034,
      "sentence": 8035,
      "Schedul": 8036,
      "acknowledging": 8037,
      "Mobile": 8038,
      "circumstances": 8039,
      "LC": 8040,
      "LO": 8041,
      "Sen": 8042,
      "rific": 8043,
      "retain": 8044,
      "empirical": 8045,
      "ifts": 8046,
      "whel": 8047,
      "epis": 8048,
      "worship": 8049,
      "meal": 8050,
      "lightweight": 8051,
      "onomic": 8052,
      "temporary": 8053,
      "Help": 8054,
      "objective": 8055,
      "investigation": 8056,
      "interpretation": 8057,
      "isolation": 8058,
      "URL": 8059,
      "ublesh": 8060,
      "Bible": 8061,
      "Broad": 8062,
      "Dav": 8063,
      "HC": 8064,
      "native": 8065,
      "uity": 8066,
      "wing": 8067,
      "seat": 8068,
      "worry": 8069,
      "forming": 8070,
      "teeth": 8071,
      "overhead": 8072,
      "Print": 8073,
      "lifestyle": 8074,
      "pressing": 8075,
      "ographics": 8076,
      "summer": 8077,
      "predictable": 8078,
      "Technological": 8079,
      "foundational": 8080,
      "printing": 8081,
      "innovations": 8082,
      "Foundation": 8083,
      "Maya": 8084,
      "advertising": 8085,
      "vulnerability": 8086,
      "Perspective": 8087,
      "Amazon": 8088,
      "Lower": 8089,
      "Sens": 8090,
      "Section": 8091,
      "`).": 8092,
      "ov": 8093,
      "tapes": 8094,
      "itarian": 8095,
      "unless": 8096,
      "begins": 8097,
      "Confl": 8098,
      "discount": 8099,
      "doors": 8100,
      "Tra": 8101,
      "counting": 8102,
      "smile": 8103,
      "annually": 8104,
      "Cook": 8105,
      "Observ": 8106,
      "experiments": 8107,
      "Background": 8108,
      "describe": 8109,
      "prepare": 8110,
      "Court": 8111,
      "liquid": 8112,
      "Annual": 8113,
      "PK": 8114,
      "P_": 8115,
      "Wi": 8116,
      "iron": 8117,
      "uty": 8118,
      "Indic": 8119,
      "prime": 8120,
      "spons": 8121,
      "cos": 8122,
      "assistance": 8123,
      "disk": 8124,
      "|--------|": 8125,
      "surgical": 8126,
      "neck": 8127,
      "Moon": 8128,
      "initiative": 8129,
      "Att": 8130,
      "ictory": 8131,
      "mandates": 8132,
      "removal": 8133,
      "abstract": 8134,
      "Islamic": 8135,
      "Tell": 8136,
      "iers": 8137,
      "uts": 8138,
      "escal": 8139,
      "elity": 8140,
      "igibility": 8141,
      "Inves": 8142,
      "shots": 8143,
      "proven": 8144,
      "description": 8145,
      "Reality": 8146,
      "hash": 8147,
      "transit": 8148,
      "visits": 8149,
      "choosing": 8150,
      "Shift": 8151,
      "faceted": 8152,
      "lingu": 8153,
      "guides": 8154,
      "Notice": 8155,
      "delivering": 8156,
      "__init": 8157,
      "Greeting": 8158,
      "treasure": 8159,
      "saying": 8160,
      "casting": 8161,
      "Enhance": 8162,
      "Thoughts": 8163,
      "Renaissance": 8164,
      "Illustrative": 8165,
      "paired": 8166,
      "lambda": 8167,
      "intellectual": 8168,
      "DC": 8169,
      "Dates": 8170,
      "lor": 8171,
      "thers": 8172,
      "Three": 8173,
      "veget": 8174,
      "estate": 8175,
      "akers": 8176,
      "intu": 8177,
      "Active": 8178,
      "guests": 8179,
      "downtime": 8180,
      "enetic": 8181,
      "loading": 8182,
      "Grav": 8183,
      "medications": 8184,
      "Neuro": 8185,
      "Update": 8186,
      "Mechanical": 8187,
      "Calculus": 8188,
      "quantify": 8189,
      "arriage": 8190,
      "automated": 8191,
      "Alignment": 8192,
      "plasma": 8193,
      "tolerance": 8194,
      "garden": 8195,
      "Interpretation": 8196,
      "Dimension": 8197,
      "__init__": 8198,
      "(*": 8199,
      "Budget": 8200,
      "Sam": 8201,
      "huge": 8202,
      "mouth": 8203,
      "uk": 8204,
      "inspir": 8205,
      "olate": 8206,
      "enda": 8207,
      "worked": 8208,
      "motive": 8209,
      "fract": 8210,
      "studio": 8211,
      "decades": 8212,
      "titles": 8213,
      "Weather": 8214,
      "Scot": 8215,
      "Bring": 8216,
      "trauma": 8217,
      "Molec": 8218,
      "paint": 8219,
      "encourage": 8220,
      "Soft": 8221,
      "Windows": 8222,
      "Principles": 8223,
      "Mitigation": 8224,
      "Investig": 8225,
      "King": 8226,
      "PH": 8227,
      "Sto": 8228,
      "aur": 8229,
      "df": 8230,
      "dust": 8231,
      "yr": 8232,
      "entral": 8233,
      "forest": 8234,
      "olf": 8235,
      "conference": 8236,
      "termin": 8237,
      "coal": 8238,
      "overwhel": 8239,
      "2011": 8240,
      "ationale": 8241,
      "knows": 8242,
      "Always": 8243,
      "graphic": 8244,
      "Smith": 8245,
      "introduce": 8246,
      "temperatures": 8247,
      "affecting": 8248,
      "Writing": 8249,
      "autonomy": 8250,
      "Genetic": 8251,
      "Solution": 8252,
      "universal": 8253,
      "published": 8254,
      "counseling": 8255,
      "Single": 8256,
      "43": 8257,
      "Session": 8258,
      "Wal": 8259,
      "hop": 8260,
      "sizes": 8261,
      "wo": 8262,
      "exit": 8263,
      "shake": 8264,
      "resistant": 8265,
      "Contrib": 8266,
      "scill": 8267,
      "tically": 8268,
      "Anatomy": 8269,
      "backup": 8270,
      "depends": 8271,
      "Poly": 8272,
      "properly": 8273,
      "Param": 8274,
      "oriented": 8275,
      "Estim": 8276,
      "Offic": 8277,
      "Sit": 8278,
      "jump": 8279,
      "slip": 8280,
      "orting": 8281,
      "toys": 8282,
      "scar": 8283,
      "automatic": 8284,
      "losses": 8285,
      "Minim": 8286,
      "massive": 8287,
      "hosting": 8288,
      "debate": 8289,
      "Detail": 8290,
      "intricacies": 8291,
      "gravity": 8292,
      "senior": 8293,
      "compromising": 8294,
      "scenes": 8295,
      "Partnerships": 8296,
      "stunning": 8297,
      "EN": 8298,
      "came": 8299,
      "dil": 8300,
      "ker": 8301,
      "etric": 8302,
      "Incorporate": 8303,
      "White": 8304,
      "Conservation": 8305,
      "deal": 8306,
      "Answ": 8307,
      "register": 8308,
      "Arab": 8309,
      "adian": 8310,
      "presented": 8311,
      "sequencing": 8312,
      "offered": 8313,
      "protects": 8314,
      "Quantitative": 8315,
      "Guard": 8316,
      "recognized": 8317,
      "Matter": 8318,
      "winning": 8319,
      "functionality": 8320,
      "Equip": 8321,
      "Psychological": 8322,
      "anticipate": 8323,
      "seasonal": 8324,
      "encryption": 8325,
      "iatric": 8326,
      "Stakeholder": 8327,
      "remarkable": 8328,
      "Austr": 8329,
      "DS": 8330,
      "Uk": 8331,
      "pumps": 8332,
      "texts": 8333,
      "ami": 8334,
      "admin": 8335,
      "Input": 8336,
      "otyp": 8337,
      "diabetes": 8338,
      "overcome": 8339,
      "Animal": 8340,
      "ishes": 8341,
      "developer": 8342,
      "tainment": 8343,
      "default": 8344,
      "possibilities": 8345,
      "Healthcare": 8346,
      "Users": 8347,
      "German": 8348,
      "02": 8349,
      "78": 8350,
      "Pac": 8351,
      "Sa": 8352,
      "Ster": 8353,
      "Save": 8354,
      "VP": 8355,
      "barrier": 8356,
      "cater": 8357,
      "sends": 8358,
      "vig": 8359,
      "amic": 8360,
      "sug": 8361,
      "lie": 8362,
      "Style": 8363,
      "|-----------------": 8364,
      "filters": 8365,
      "electro": 8366,
      "Despite": 8367,
      "improvements": 8368,
      "fitting": 8369,
      "discovered": 8370,
      "license": 8371,
      "Skill": 8372,
      "coaching": 8373,
      "coordinates": 8374,
      "steady": 8375,
      "────────": 8376,
      "diplomatic": 8377,
      "Association": 8378,
      "tapestry": 8379,
      "1000": 8380,
      "Average": 8381,
      "Li": 8382,
      "ST": 8383,
      "Vi": 8384,
      "fc": 8385,
      "mu": 8386,
      "ender": 8387,
      "stars": 8388,
      "ogene": 8389,
      "overe": 8390,
      "manship": 8391,
      "showcases": 8392,
      "sole": 8393,
      "ought": 8394,
      "Empower": 8395,
      "Only": 8396,
      "College": 8397,
      "Assign": 8398,
      "omestic": 8399,
      "emphasizing": 8400,
      "debt": 8401,
      "selecting": 8402,
      "stakeholder": 8403,
      "Accessibility": 8404,
      "ciliation": 8405,
      "Labor": 8406,
      "guarantees": 8407,
      "Connection": 8408,
      "phrase": 8409,
      "Picture": 8410,
      "Ukrain": 8411,
      "Bow": 8412,
      "Domestic": 8413,
      "Job": 8414,
      "Tech": 8415,
      "yoga": 8416,
      "eros": 8417,
      "anom": 8418,
      "Ste": 8419,
      "serious": 8420,
      "Chann": 8421,
      "Resol": 8422,
      "organized": 8423,
      "domains": 8424,
      "Highlight": 8425,
      "synergy": 8426,
      "indicate": 8427,
      "Surface": 8428,
      "pharmacokinetics": 8429,
      "Structured": 8430,
      "milestone": 8431,
      "Investment": 8432,
      "sacrific": 8433,
      "Bitcoin": 8434,
      ".).": 8435,
      "BC": 8436,
      "Cris": 8437,
      "Ul": 8438,
      "utility": 8439,
      "umes": 8440,
      "ocolate": 8441,
      "grain": 8442,
      "notable": 8443,
      "submit": 8444,
      "Altern": 8445,
      "rolling": 8446,
      "Without": 8447,
      "economics": 8448,
      "APIs": 8449,
      "navigating": 8450,
      "circul": 8451,
      "onym": 8452,
      "convenience": 8453,
      "criterion": 8454,
      "*(": 8455,
      "-\\": 8456,
      "37": 8457,
      "Bro": 8458,
      "Of": 8459,
      "River": 8460,
      "Tier": 8461,
      "cure": 8462,
      "clock": 8463,
      "veter": 8464,
      "trail": 8465,
      "opens": 8466,
      "loans": 8467,
      "loved": 8468,
      "acting": 8469,
      "Contr": 8470,
      "draft": 8471,
      "overview": 8472,
      "Chat": 8473,
      "oster": 8474,
      "Asia": 8475,
      "Format": 8476,
      "axis": 8477,
      "networking": 8478,
      "jections": 8479,
      "severe": 8480,
      "convergence": 8481,
      "Return": 8482,
      "symbolic": 8483,
      "Benefit": 8484,
      "seeds": 8485,
      "Industry": 8486,
      "Spirit": 8487,
      "Monthly": 8488,
      "Acceler": 8489,
      "overeign": 8490,
      "98": 8491,
      "DO": 8492,
      "Pi": 8493,
      "rho": 8494,
      "arms": 8495,
      "edit": 8496,
      "iss": 8497,
      "isible": 8498,
      "itud": 8499,
      "usivity": 8500,
      "whis": 8501,
      "shell": 8502,
      "spent": 8503,
      "extensive": 8504,
      "flight": 8505,
      "genre": 8506,
      "Univers": 8507,
      "centr": 8508,
      "included": 8509,
      "pathway": 8510,
      "Room": 8511,
      "|---------------|": 8512,
      "connectivity": 8513,
      "projected": 8514,
      "Identifying": 8515,
      "eyes": 8516,
      "scrut": 8517,
      "revealed": 8518,
      "Recommend": 8519,
      "fidelity": 8520,
      "KPIs": 8521,
      "bes": 8522,
      "ided": 8523,
      "approved": 8524,
      "essence": 8525,
      "shock": 8526,
      "liability": 8527,
      "lived": 8528,
      "ocks": 8529,
      "ears": 8530,
      "recall": 8531,
      "bots": 8532,
      "spects": 8533,
      "transmit": 8534,
      "Pricing": 8535,
      "memories": 8536,
      "|-----------------|": 8537,
      "Manager": 8538,
      "engineered": 8539,
      "involving": 8540,
      "mobility": 8541,
      "waiting": 8542,
      "dollar": 8543,
      "1980s": 8544,
      ",}": 8545,
      "Hum": 8546,
      "NF": 8547,
      "Nutr": 8548,
      "Stop": 8549,
      "Task": 8550,
      "sanc": 8551,
      "wisdom": 8552,
      "{,}": 8553,
      "recon": 8554,
      "stance": 8555,
      "league": 8556,
      "ifting": 8557,
      "oters": 8558,
      "perhaps": 8559,
      "ested": 8560,
      "entials": 8561,
      "Concluding": 8562,
      "tea": 8563,
      "peers": 8564,
      "Strong": 8565,
      "Options": 8566,
      "Collec": 8567,
      "packages": 8568,
      "raise": 8569,
      "discoveries": 8570,
      "Location": 8571,
      "middle": 8572,
      "migr": 8573,
      "walks": 8574,
      "Mathemat": 8575,
      "powers": 8576,
      "mortgage": 8577,
      "derivative": 8578,
      "coupled": 8579,
      "pandemic": 8580,
      "practitioners": 8581,
      "Bur": 8582,
      "Fed": 8583,
      "TK": 8584,
      "Tac": 8585,
      "cs": 8586,
      "pension": 8587,
      "stics": 8588,
      "upload": 8589,
      "–$": 8590,
      "theories": 8591,
      "Inspect": 8592,
      "upgrades": 8593,
      "Prayer": 8594,
      "Artificial": 8595,
      "turnover": 8596,
      "confident": 8597,
      "interesting": 8598,
      "frequently": 8599,
      "Explore": 8600,
      "protecting": 8601,
      "parameter": 8602,
      "Reduce": 8603,
      "diagnostic": 8604,
      "finished": 8605,
      "Leveraging": 8606,
      "communications": 8607,
      "vocal": 8608,
      "Flexibility": 8609,
      "</": 8610,
      "BM": 8611,
      "IG": 8612,
      "laser": 8613,
      "mits": 8614,
      "pilot": 8615,
      "rub": 8616,
      "terrain": 8617,
      "weet": 8618,
      "yses": 8619,
      "Component": 8620,
      "Try": 8621,
      "reader": 8622,
      "1950": 8623,
      "centered": 8624,
      "landing": 8625,
      "Description": 8626,
      "packing": 8627,
      "Similar": 8628,
      "itorial": 8629,
      "footprint": 8630,
      "Capture": 8631,
      "Microsoft": 8632,
      "tourism": 8633,
      "recommended": 8634,
      "vibrant": 8635,
      "ruitment": 8636,
      "Cache": 8637,
      "Ec": 8638,
      "Paper": 8639,
      "Vit": 8640,
      "fle": 8641,
      "pH": 8642,
      "tough": 8643,
      "strengthen": 8644,
      "avy": 8645,
      "Contract": 8646,
      "variations": 8647,
      "criptions": 8648,
      "purposes": 8649,
      "measuring": 8650,
      "buildings": 8651,
      "employed": 8652,
      "Mechanism": 8653,
      "Players": 8654,
      "mutual": 8655,
      "Twitter": 8656,
      "bandwidth": 8657,
      "Institute": 8658,
      "motifs": 8659,
      "oxygen": 8660,
      "satellite": 8661,
      "1960s": 8662,
      "47": 8663,
      "Bud": 8664,
      "Lat": 8665,
      "Makes": 8666,
      "burn": 8667,
      "kick": 8668,
      "vet": 8669,
      "warr": 8670,
      "anth": 8671,
      "chick": 8672,
      "adder": 8673,
      "segments": 8674,
      "cannab": 8675,
      "healing": 8676,
      "Ens": 8677,
      "blank": 8678,
      "mediated": 8679,
      "coring": 8680,
      "viral": 8681,
      "enhanced": 8682,
      "concern": 8683,
      "budgets": 8684,
      "shifting": 8685,
      "Calculate": 8686,
      "writers": 8687,
      "dominant": 8688,
      "Balance": 8689,
      "honest": 8690,
      "songs": 8691,
      "civilizations": 8692,
      "HTML": 8693,
      "geometry": 8694,
      "Crypto": 8695,
      "March": 8696,
      "Sample": 8697,
      "astr": 8698,
      "kinetic": 8699,
      "lative": 8700,
      "rh": 8701,
      "reme": 8702,
      "ulf": 8703,
      "guest": 8704,
      "factory": 8705,
      "Strength": 8706,
      "variance": 8707,
      "variety": 8708,
      "generative": 8709,
      "focuses": 8710,
      "summar": 8711,
      "heads": 8712,
      "Feel": 8713,
      "Diagno": 8714,
      "oxid": 8715,
      "spreadsheet": 8716,
      "ylation": 8717,
      "struggles": 8718,
      "Combine": 8719,
      "2000s": 8720,
      "Behavioral": 8721,
      "puzzle": 8722,
      "disputes": 8723,
      "bond": 8724,
      "pun": 8725,
      "wet": 8726,
      "recept": 8727,
      "ugging": 8728,
      "diet": 8729,
      "noon": 8730,
      "Image": 8731,
      "safely": 8732,
      "economies": 8733,
      "combines": 8734,
      "Goals": 8735,
      "sheets": 8736,
      "linking": 8737,
      "interested": 8738,
      "psychology": 8739,
      "licensing": 8740,
      "filling": 8741,
      "struggle": 8742,
      "threats": 8743,
      "candidate": 8744,
      "Promo": 8745,
      "criminal": 8746,
      "historically": 8747,
      "advocacy": 8748,
      "Pitfalls": 8749,
      "tirement": 8750,
      "vessel": 8751,
      "Ven": 8752,
      "Will": 8753,
      "Willi": 8754,
      "berg": 8755,
      "js": 8756,
      "ince": 8757,
      "stops": 8758,
      "stabil": 8759,
      "icipal": 8760,
      "iture": 8761,
      "spots": 8762,
      "spikes": 8763,
      "Release": 8764,
      "blending": 8765,
      "obtain": 8766,
      "Force": 8767,
      "Pharmaceutical": 8768,
      "equips": 8769,
      "covering": 8770,
      "ographical": 8771,
      "booking": 8772,
      "oids": 8773,
      "transformed": 8774,
      "Effect": 8775,
      "Computing": 8776,
      "USB": 8777,
      "Ethics": 8778,
      "cooling": 8779,
      "Demonstr": 8780,
      "isolated": 8781,
      "exhibit": 8782,
      "Japanese": 8783,
      "tackle": 8784,
      "Little": 8785,
      "meticulous": 8786,
      "receptors": 8787,
      "Categ": 8788,
      "Dynamo": 8789,
      "Fa": 8790,
      "mates": 8791,
      "vous": 8792,
      "chrom": 8793,
      "overl": 8794,
      "oustic": 8795,
      "provision": 8796,
      "invisible": 8797,
      "completion": 8798,
      "definition": 8799,
      "operative": 8800,
      "organisms": 8801,
      "clip": 8802,
      "banks": 8803,
      "guiding": 8804,
      "aneous": 8805,
      "Personalized": 8806,
      "Require": 8807,
      "crowd": 8808,
      "Emergency": 8809,
      "hinges": 8810,
      "Fair": 8811,
      "Rule": 8812,
      "Wrap": 8813,
      "duration": 8814,
      "eleg": 8815,
      "inspection": 8816,
      "**;": 8817,
      "adherence": 8818,
      "plt": 8819,
      "prolif": 8820,
      "agmatic": 8821,
      "izers": 8822,
      "Chain": 8823,
      "angles": 8824,
      "roughly": 8825,
      "whereas": 8826,
      "letes": 8827,
      "Arti": 8828,
      "128": 8829,
      "Scene": 8830,
      "|-------------|": 8831,
      "opened": 8832,
      "relies": 8833,
      "reliance": 8834,
      "Important": 8835,
      "dependence": 8836,
      "Numbers": 8837,
      "accommodate": 8838,
      "constitutional": 8839,
      "recommendations": 8840,
      "hurt": 8841,
      "belonging": 8842,
      "_size": 8843,
      "ait": 8844,
      "dental": 8845,
      "ithmetic": 8846,
      "Insert": 8847,
      "ipping": 8848,
      "brands": 8849,
      "Produc": 8850,
      "Chron": 8851,
      "backbone": 8852,
      "auth": 8853,
      "observe": 8854,
      "missed": 8855,
      "merch": 8856,
      "iveness": 8857,
      "typing": 8858,
      "rental": 8859,
      "Board": 8860,
      "Instagram": 8861,
      "procedural": 8862,
      "Pressure": 8863,
      "diameter": 8864,
      "affordable": 8865,
      "launched": 8866,
      "31": 8867,
      "HER": 8868,
      "Men": 8869,
      "Rot": 8870,
      "fight": 8871,
      "mul": 8872,
      "mamm": 8873,
      "ptions": 8874,
      "papers": 8875,
      "racy": 8876,
      "oric": 8877,
      "aceful": 8878,
      "olic": 8879,
      "amen": 8880,
      "advis": 8881,
      "imity": 8882,
      "pra": 8883,
      "portive": 8884,
      "Consequences": 8885,
      "Config": 8886,
      "ologists": 8887,
      "corrosion": 8888,
      "Forward": 8889,
      "capturing": 8890,
      "Controll": 8891,
      "French": 8892,
      "doctr": 8893,
      "graphy": 8894,
      "Validation": 8895,
      "safeguard": 8896,
      "sustained": 8897,
      "fitness": 8898,
      "laid": 8899,
      "executive": 8900,
      "screening": 8901,
      "molecule": 8902,
      "LEGO": 8903,
      "Capital": 8904,
      "Educational": 8905,
      "Career": 8906,
      "GPUs": 8907,
      "gathering": 8908,
      "pulse": 8909,
      "continued": 8910,
      "Sustainable": 8911,
      "cryptocurrency": 8912,
      "attributes": 8913,
      "instantly": 8914,
      "oversight": 8915,
      "architectural": 8916,
      "Regional": 8917,
      "Empire": 8918,
      "Crisis": 8919,
      "Div": 8920,
      "Nature": 8921,
      "bum": 8922,
      "cats": 8923,
      "gly": 8924,
      "mL": 8925,
      "winter": 8926,
      "alerts": 8927,
      "ican": 8928,
      "rose": 8929,
      "apse": 8930,
      "conservative": 8931,
      "peripher": 8932,
      "compile": 8933,
      "Enzy": 8934,
      "markers": 8935,
      "servers": 8936,
      "landscapes": 8937,
      "identification": 8938,
      "Coast": 8939,
      "enhances": 8940,
      "mentions": 8941,
      "collect": 8942,
      "humor": 8943,
      "bringing": 8944,
      "suspect": 8945,
      "destination": 8946,
      "manipulation": 8947,
      "compounds": 8948,
      "vacuum": 8949,
      "volunteer": 8950,
      "Preparation": 8951,
      "spectrum": 8952,
      "%)": 8953,
      "BA": 8954,
      "Dan": 8955,
      "Dou": 8956,
      "Lord": 8957,
      "sou": 8958,
      "inars": 8959,
      "took": 8960,
      "uctu": 8961,
      "prises": 8962,
      "weights": 8963,
      "outdoor": 8964,
      "Ext": 8965,
      "interior": 8966,
      "moderate": 8967,
      "decade": 8968,
      "incremental": 8969,
      "talking": 8970,
      "Recon": 8971,
      "discour": 8972,
      "multifaceted": 8973,
      "Drive": 8974,
      "azz": 8975,
      "swing": 8976,
      "contributed": 8977,
      "Negoti": 8978,
      "cardiovascular": 8979,
      "adaptability": 8980,
      "Century": 8981,
      "treated": 8982,
      "authorized": 8983,
      "PCI": 8984,
      "appearance": 8985,
      "thoughtful": 8986,
      "Formation": 8987,
      "square": 8988,
      "CBT": 8989,
      "Germany": 8990,
      "manufacturer": 8991,
      "impacts": 8992,
      "Relevance": 8993,
      "41": 8994,
      "Fit": 8995,
      "Lu": 8996,
      "Libr": 8997,
      "hort": 8998,
      "pione": 8999,
      "}^{": 9000,
      "thumb": 9001,
      "ona": 9002,
      "env": 9003,
      "artificial": 9004,
      "iteness": 9005,
      "Pros": 9006,
      "Proced": 9007,
      "signature": 9008,
      "plicity": 9009,
      "Academy": 9010,
      "airs": 9011,
      "capable": 9012,
      "ubes": 9013,
      "|------------------|": 9014,
      "closer": 9015,
      "priorities": 9016,
      "Outcomes": 9017,
      "represented": 9018,
      "Workflow": 9019,
      "disciplined": 9020,
      "Researchers": 9021,
      "supervised": 9022,
      "institution": 9023,
      "III": 9024,
      "Institutional": 9025,
      "Predictive": 9026,
      "immersive": 9027,
      "circuits": 9028,
      "Scripture": 9029,
      "Blood": 9030,
      "MO": 9031,
      "Mel": 9032,
      "nod": 9033,
      "tensors": 9034,
      "ander": 9035,
      "charm": 9036,
      "export": 9037,
      "impression": 9038,
      "Inside": 9039,
      "diver": 9040,
      "Chang": 9041,
      "managed": 9042,
      "Commission": 9043,
      "Replace": 9044,
      "venant": 9045,
      "passing": 9046,
      "2008": 9047,
      "Roof": 9048,
      "Quarter": 9049,
      "Creating": 9050,
      "representing": 9051,
      "computation": 9052,
      "watching": 9053,
      "morph": 9054,
      "accelerate": 9055,
      "inhibitors": 9056,
      "Spiritual": 9057,
      "Temper": 9058,
      "Coordin": 9059,
      "inquiry": 9060,
      "=>": 9061,
      "Rol": 9062,
      "_k": 9063,
      "mask": 9064,
      "sale": 9065,
      "throw": 9066,
      "enforce": 9067,
      "leaf": 9068,
      "asis": 9069,
      "apters": 9070,
      "compromise": 9071,
      "formats": 9072,
      "grand": 9073,
      "explan": 9074,
      "meta": 9075,
      "performances": 9076,
      "Within": 9077,
      "expensive": 9078,
      "synthetic": 9079,
      "Structural": 9080,
      "resonates": 9081,
      "historic": 9082,
      "ALU": 9083,
      "Differenti": 9084,
      "Copy": 9085,
      "Competitive": 9086,
      "Friendly": 9087,
      "precedented": 9088,
      "Corporate": 9089,
      "Momentum": 9090,
      "Rules": 9091,
      "Walk": 9092,
      "fetch": 9093,
      "false": 9094,
      "lung": 9095,
      "orn": 9096,
      "amous": 9097,
      "adult": 9098,
      "unprecedented": 9099,
      "exposed": 9100,
      "tray": 9101,
      "kept": 9102,
      "strike": 9103,
      "shoulder": 9104,
      "illed": 9105,
      "interviews": 9106,
      "dispar": 9107,
      "branch": 9108,
      "timely": 9109,
      "Imaging": 9110,
      "explaining": 9111,
      "Sharing": 9112,
      "Begin": 9113,
      "Regularly": 9114,
      "raises": 9115,
      "Motion": 9116,
      "relief": 9117,
      "participate": 9118,
      "mathcal": 9119,
      "catalog": 9120,
      "Count": 9121,
      "resonance": 9122,
      "Request": 9123,
      "seemingly": 9124,
      "Agency": 9125,
      "Between": 9126,
      "bowl": 9127,
      "toxicity": 9128,
      "Conflict": 9129,
      "%**": 9130,
      "Hierarch": 9131,
      "MT": 9132,
      "Sports": 9133,
      "ck": 9134,
      "festiv": 9135,
      "yard": 9136,
      "inks": 9137,
      "**$": 9138,
      "excer": 9139,
      "comed": 9140,
      "shr": 9141,
      "======": 9142,
      "drills": 9143,
      "modest": 9144,
      "Prob": 9145,
      "Chin": 9146,
      "signed": 9147,
      "transmission": 9148,
      "biases": 9149,
      "surgery": 9150,
      "Phil": 9151,
      "operates": 9152,
      "Apple": 9153,
      "wrap": 9154,
      "Draw": 9155,
      "------------------------": 9156,
      "Device": 9157,
      "Collection": 9158,
      "|-----": 9159,
      "Party": 9160,
      "firmware": 9161,
      "happened": 9162,
      "execute": 9163,
      "buyers": 9164,
      "widely": 9165,
      "Sales": 9166,
      "houses": 9167,
      "Golden": 9168,
      "differentiation": 9169,
      "incentives": 9170,
      "colonial": 9171,
      "Delivery": 9172,
      "percentage": 9173,
      "breakthroughs": 9174,
      "ammatory": 9175,
      "Answer": 9176,
      "29": 9177,
      "Cut": 9178,
      "Ok": 9179,
      "PO": 9180,
      "fant": 9181,
      "rural": 9182,
      "vine": 9183,
      "tourn": 9184,
      "acle": 9185,
      "chef": 9186,
      "grass": 9187,
      "ensic": 9188,
      "transist": 9189,
      "setup": 9190,
      "League": 9191,
      "activated": 9192,
      "|------------|": 9193,
      "policymakers": 9194,
      "evaluating": 9195,
      "Johns": 9196,
      "Street": 9197,
      "construct": 9198,
      "Consistency": 9199,
      "showcasing": 9200,
      "secrets": 9201,
      "Bench": 9202,
      "Mars": 9203,
      "rm": 9204,
      "ycle": 9205,
      "pler": 9206,
      "plied": 9207,
      "comments": 9208,
      "youth": 9209,
      "shiny": 9210,
      "clause": 9211,
      "indeed": 9212,
      "Construction": 9213,
      "regularly": 9214,
      "council": 9215,
      "careg": 9216,
      "responding": 9217,
      "organizational": 9218,
      "filing": 9219,
      "avoiding": 9220,
      "necessity": 9221,
      "cardiac": 9222,
      "pushes": 9223,
      "scalable": 9224,
      "mitigation": 9225,
      "casc": 9226,
      "giene": 9227,
      "databases": 9228,
      "Knowing": 9229,
      "speaker": 9230,
      "candidates": 9231,
      "Portfolio": 9232,
      "Silver": 9233,
      "gressive": 9234,
      "closely": 9235,
      "deliberate": 9236,
      "Nan": 9237,
      "UX": 9238,
      "sold": 9239,
      "stations": 9240,
      "iconic": 9241,
      "advers": 9242,
      "ustice": 9243,
      "vertical": 9244,
      "Inj": 9245,
      "ively": 9246,
      "criti": 9247,
      "drag": 9248,
      "phy": 9249,
      "explains": 9250,
      "elfare": 9251,
      "delicate": 9252,
      "Club": 9253,
      "teamwork": 9254,
      "temporal": 9255,
      "Drug": 9256,
      "particles": 9257,
      "laboratory": 9258,
      "Interactive": 9259,
      "pliers": 9260,
      "attacks": 9261,
      "investing": 9262,
      "boxes": 9263,
      "Publish": 9264,
      "Reference": 9265,
      "popularity": 9266,
      "Listen": 9267,
      "answers": 9268,
      "reputable": 9269,
      "clubs": 9270,
      "expressed": 9271,
      "Number": 9272,
      "scopic": 9273,
      "Football": 9274,
      "SON": 9275,
      "Milestones": 9276,
      "Elev": 9277,
      "Fer": 9278,
      "Factors": 9279,
      "Hun": 9280,
      "Hab": 9281,
      "Kore": 9282,
      "L1": 9283,
      "PG": 9284,
      "Scr": 9285,
      "Scholar": 9286,
      "Tik": 9287,
      "Zero": 9288,
      "_2": 9289,
      "furn": 9290,
      "util": 9291,
      "ye": 9292,
      "yers": 9293,
      "alli": 9294,
      "alleg": 9295,
      "tie": 9296,
      "theology": 9297,
      "rome": 9298,
      "omatic": 9299,
      "keys": 9300,
      "istered": 9301,
      "afts": 9302,
      "brace": 9303,
      "blur": 9304,
      "Italian": 9305,
      "Unlocking": 9306,
      "analyses": 9307,
      "grown": 9308,
      "safer": 9309,
      "variants": 9310,
      "department": 9311,
      "connects": 9312,
      "Box": 9313,
      "committed": 9314,
      "estimated": 9315,
      "Counter": 9316,
      "bottom": 9317,
      "Execution": 9318,
      "scheduled": 9319,
      "phenomena": 9320,
      "enthusiasts": 9321,
      "Bayes": 9322,
      "dissecting": 9323,
      "pendant": 9324,
      "elihood": 9325,
      "Chinese": 9326,
      "AWS": 9327,
      "Lic": 9328,
      "aver": 9329,
      "sized": 9330,
      "wire": 9331,
      "},": 9332,
      "attor": 9333,
      "forums": 9334,
      "Inv": 9335,
      "ounts": 9336,
      "ensus": 9337,
      "moved": 9338,
      "commands": 9339,
      "regim": 9340,
      "performed": 9341,
      "equitable": 9342,
      "costly": 9343,
      "faculty": 9344,
      "audits": 9345,
      "summary": 9346,
      "Island": 9347,
      "Deployment": 9348,
      "takeaways": 9349,
      "graphs": 9350,
      "weekend": 9351,
      "accurately": 9352,
      "discussed": 9353,
      "born": 9354,
      "validate": 9355,
      "Logic": 9356,
      "burden": 9357,
      "scratch": 9358,
      "maximize": 9359,
      "involvement": 9360,
      "Distributed": 9361,
      "rewards": 9362,
      "Pipeline": 9363,
      "Opportunities": 9364,
      "fuels": 9365,
      "obstacles": 9366,
      "EV": 9367,
      "JSON": 9368,
      "Mich": 9369,
      "RT": 9370,
      "Tex": 9371,
      "leagues": 9372,
      "chocolate": 9373,
      "chapters": 9374,
      "trick": 9375,
      "Theoretical": 9376,
      "ota": 9377,
      "outline": 9378,
      "Concer": 9379,
      "insur": 9380,
      "insulation": 9381,
      "whose": 9382,
      "Stress": 9383,
      "humanity": 9384,
      "grew": 9385,
      "calling": 9386,
      "Front": 9387,
      "feeds": 9388,
      "Allow": 9389,
      "Partner": 9390,
      "Course": 9391,
      "substit": 9392,
      "Hosp": 9393,
      "citizen": 9394,
      "Gradient": 9395,
      "restrictions": 9396,
      "hazard": 9397,
[...]
